{
  "version": "1.0",
  "truncation": null,
  "padding": {
    "strategy": "BatchLongest",
    "direction": "Right",
    "pad_to_multiple_of": null,
    "pad_id": 0,
    "pad_type_id": 0,
    "pad_token": "<|pad|>"
  },
  "added_tokens": [
    {
      "id": 0,
      "content": "<|pad|>",
      "single_word": false,
      "lstrip": false,
      "rstrip": false,
      "normalized": false,
      "special": true
    },
    {
      "id": 1,
      "content": "<|endoftext|>",
      "single_word": false,
      "lstrip": false,
      "rstrip": false,
      "normalized": false,
      "special": true
    }
  ],
  "normalizer": {
    "type": "Sequence",
    "normalizers": [
      {
        "type": "NFD"
      }
    ]
  },
  "pre_tokenizer": {
    "type": "ByteLevel",
    "add_prefix_space": false,
    "trim_offsets": true,
    "use_regex": true
  },
  "post_processor": {
    "type": "ByteLevel",
    "add_prefix_space": true,
    "trim_offsets": false,
    "use_regex": true
  },
  "decoder": {
    "type": "ByteLevel",
    "add_prefix_space": true,
    "trim_offsets": true,
    "use_regex": true
  },
  "model": {
    "type": "BPE",
    "dropout": null,
    "unk_token": null,
    "continuing_subword_prefix": null,
    "end_of_word_suffix": null,
    "fuse_unk": false,
    "byte_fallback": false,
    "ignore_merges": false,
    "vocab": {
      "<|pad|>": 0,
      "<|endoftext|>": 1,
      "!": 2,
      "\"": 3,
      "#": 4,
      "$": 5,
      "%": 6,
      "&": 7,
      "'": 8,
      "(": 9,
      ")": 10,
      "*": 11,
      "+": 12,
      ",": 13,
      "-": 14,
      ".": 15,
      "/": 16,
      "0": 17,
      "1": 18,
      "2": 19,
      "3": 20,
      "4": 21,
      "5": 22,
      "6": 23,
      "7": 24,
      "8": 25,
      "9": 26,
      ":": 27,
      ";": 28,
      "<": 29,
      "=": 30,
      ">": 31,
      "?": 32,
      "@": 33,
      "A": 34,
      "B": 35,
      "C": 36,
      "D": 37,
      "E": 38,
      "F": 39,
      "G": 40,
      "H": 41,
      "I": 42,
      "J": 43,
      "K": 44,
      "L": 45,
      "M": 46,
      "N": 47,
      "O": 48,
      "P": 49,
      "Q": 50,
      "R": 51,
      "S": 52,
      "T": 53,
      "U": 54,
      "V": 55,
      "W": 56,
      "X": 57,
      "Y": 58,
      "Z": 59,
      "[": 60,
      "\\": 61,
      "]": 62,
      "^": 63,
      "_": 64,
      "`": 65,
      "a": 66,
      "b": 67,
      "c": 68,
      "d": 69,
      "e": 70,
      "f": 71,
      "g": 72,
      "h": 73,
      "i": 74,
      "j": 75,
      "k": 76,
      "l": 77,
      "m": 78,
      "n": 79,
      "o": 80,
      "p": 81,
      "q": 82,
      "r": 83,
      "s": 84,
      "t": 85,
      "u": 86,
      "v": 87,
      "w": 88,
      "x": 89,
      "y": 90,
      "z": 91,
      "{": 92,
      "|": 93,
      "}": 94,
      "~": 95,
      "¡": 96,
      "¢": 97,
      "£": 98,
      "¤": 99,
      "¥": 100,
      "¦": 101,
      "§": 102,
      "¨": 103,
      "©": 104,
      "ª": 105,
      "«": 106,
      "¬": 107,
      "®": 108,
      "¯": 109,
      "°": 110,
      "±": 111,
      "²": 112,
      "³": 113,
      "´": 114,
      "µ": 115,
      "¶": 116,
      "·": 117,
      "¸": 118,
      "¹": 119,
      "º": 120,
      "»": 121,
      "¼": 122,
      "½": 123,
      "¾": 124,
      "¿": 125,
      "Â": 126,
      "Ã": 127,
      "Ä": 128,
      "Å": 129,
      "Æ": 130,
      "Ç": 131,
      "É": 132,
      "Ê": 133,
      "Ë": 134,
      "Ì": 135,
      "Í": 136,
      "Î": 137,
      "Ï": 138,
      "Ð": 139,
      "Ñ": 140,
      "Ò": 141,
      "Ó": 142,
      "Ô": 143,
      "Õ": 144,
      "Ö": 145,
      "×": 146,
      "Ø": 147,
      "Ù": 148,
      "Ú": 149,
      "Û": 150,
      "Ü": 151,
      "Ý": 152,
      "Þ": 153,
      "ß": 154,
      "à": 155,
      "á": 156,
      "â": 157,
      "ã": 158,
      "ä": 159,
      "å": 160,
      "æ": 161,
      "ç": 162,
      "è": 163,
      "é": 164,
      "ê": 165,
      "í": 166,
      "î": 167,
      "ï": 168,
      "ð": 169,
      "Ċ": 170,
      "Ġ": 171,
      "Ģ": 172,
      "ģ": 173,
      "Ĥ": 174,
      "ĥ": 175,
      "Ħ": 176,
      "ħ": 177,
      "Ĩ": 178,
      "ĩ": 179,
      "Ī": 180,
      "ī": 181,
      "Ĭ": 182,
      "ĭ": 183,
      "Į": 184,
      "į": 185,
      "İ": 186,
      "ı": 187,
      "Ĳ": 188,
      "ĳ": 189,
      "Ĵ": 190,
      "ĵ": 191,
      "Ķ": 192,
      "ķ": 193,
      "ĸ": 194,
      "Ĺ": 195,
      "ĺ": 196,
      "Ļ": 197,
      "ļ": 198,
      "Ľ": 199,
      "ľ": 200,
      "Ŀ": 201,
      "ŀ": 202,
      "Ł": 203,
      "ł": 204,
      "Ń": 205,
      "Ġà": 206,
      "Ð°": 207,
      "ĠÐ": 208,
      "à¤": 209,
      "áĢ": 210,
      "áĥ": 211,
      "Ð¸": 212,
      "à¸": 213,
      "Ø§": 214,
      "Ìģ": 215,
      "an": 216,
      "Ð½": 217,
      "Ðµ": 218,
      "Ð¾": 219,
      "Ġs": 220,
      "à°": 221,
      "en": 222,
      "ÑĢ": 223,
      "à®": 224,
      "ÑĤ": 225,
      "er": 226,
      "à¦": 227,
      "in": 228,
      "áŀ": 229,
      "Ġd": 230,
      "à´": 231,
      "Ġp": 232,
      "Ġa": 233,
      "à²": 234,
      "à¥": 235,
      "Ð»": 236,
      "Ñģ": 237,
      "Ġt": 238,
      "ãĤ": 239,
      "ar": 240,
      "Ġm": 241,
      "àª": 242,
      "à¨": 243,
      "ĠØ": 244,
      "ĠÙ": 245,
      "áĦ": 246,
      "áħ": 247,
      "Ġà¤": 248,
      "Ġk": 249,
      "Ġn": 250,
      "à·": 251,
      "Ñĥ": 252,
      "ãģ": 253,
      "Ø§Ù": 254,
      "es": 255,
      "is": 256,
      "Ð´": 257,
      "at": 258,
      "on": 259,
      "à¯": 260,
      "ÌĪ": 261,
      "al": 262,
      "Ġb": 263,
      "or": 264,
      "à¶": 265,
      "àº": 266,
      "à¬": 267,
      "ãĥ": 268,
      "Ð¼": 269,
      "as": 270,
      "Ø±": 271,
      "Ðº": 272,
      "el": 273,
      "Ġv": 274,
      "ĠÎ": 275,
      "et": 276,
      "à±": 277,
      "Ġc": 278,
      "ÌĨ": 279,
      "it": 280,
      "à½": 281,
      "Ġl": 282,
      "àµ": 283,
      "Ñĭ": 284,
      "ÙĪ": 285,
      "Ġo": 286,
      "ÌĮ": 287,
      "il": 288,
      "ÛĮ": 289,
      "Ð²": 290,
      "Ġh": 291,
      "à¤¾": 292,
      "âĢ": 293,
      "ÙĬ": 294,
      "à³": 295,
      "un": 296,
      "à§": 297,
      "Ð³": 298,
      "Ġ×": 299,
      "ra": 300,
      "ÙĨ": 301,
      "re": 302,
      "à¹": 303,
      "áĨ": 304,
      "Ġf": 305,
      "Ġà¨": 306,
      "Øª": 307,
      "am": 308,
      "os": 309,
      "Ġi": 310,
      "Ġg": 311,
      "Î±": 312,
      "ĠÑ": 313,
      "Ùĩ": 314,
      "à¯į": 315,
      "à«": 316,
      "Îµ": 317,
      "à©": 318,
      "ÙĦ": 319,
      "Ġà¦": 320,
      "ÌĤ": 321,
      "Î·": 322,
      "Î¹": 323,
      "Ø§ÙĦ": 324,
      "Ø¯": 325,
      "áŁ": 326,
      "Ġe": 327,
      "us": 328,
      "ak": 329,
      "Ùħ": 330,
      "om": 331,
      "ad": 332,
      "Ġàª": 333,
      "ti": 334,
      "ch": 335,
      "Ñĸ": 336,
      "Ġà°": 337,
      "ãĤĻ": 338,
      "Ð¿": 339,
      "te": 340,
      "Ñı": 341,
      "Õ¡": 342,
      "Ñħ": 343,
      "ie": 344,
      "àµį": 345,
      "ur": 346,
      "ta": 347,
      "Ð·": 348,
      "ol": 349,
      "à¥į": 350,
      "Ġj": 351,
      "ik": 352,
      "Ð°Ð½": 353,
      "ĠÑģ": 354,
      "Ð°ÑĢ": 355,
      "Ð±": 356,
      "Ġde": 357,
      "Ġà®": 358,
      "Ø§Ø": 359,
      "áĥĲ": 360,
      "áĪ": 361,
      "à¤°": 362,
      "Ġu": 363,
      "ro": 364,
      "em": 365,
      "ĠáĦ": 366,
      "Î½": 367,
      "id": 368,
      "Î¿": 369,
      "ĠÐ±": 370,
      "ĠÐ¿": 371,
      "ir": 372,
      "ĠØ§ÙĦ": 373,
      "Õ¡Õ": 374,
      "im": 375,
      "Ú©": 376,
      "ed": 377,
      "ÌĦ": 378,
      "à¦¾": 379,
      "Ġà¶": 380,
      "×Ļ": 381,
      "à¥ĩ": 382,
      "ing": 383,
      "ÏĢ": 384,
      "ÑĪ": 385,
      "ĠÕ": 386,
      "ĠÐ½": 387,
      "ĠÐº": 388,
      "àŃ": 389,
      "ag": 390,
      "ĠS": 391,
      "Ġw": 392,
      "Ġáĥ": 393,
      "ÌĢ": 394,
      "Ġz": 395,
      "à¼": 396,
      "Ġà²": 397,
      "ĠÙħ": 398,
      "áł": 399,
      "ul": 400,
      "ic": 401,
      "Ġy": 402,
      "Ġin": 403,
      "ang": 404,
      "à±į": 405,
      "áĥĲáĥ": 406,
      "ÉĻ": 407,
      "×ķ": 408,
      "Ñį": 409,
      "Ġse": 410,
      "ĠÐ´": 411,
      "áĥĺ": 412,
      "à¼ĭ": 413,
      "Ġà´": 414,
      "ĭáħ": 415,
      "à·Ĭ": 416,
      "um": 417,
      "ĠÑĤ": 418,
      "Ñĩ": 419,
      "Ð°Ð»": 420,
      "ĠØ¨": 421,
      "Ġna": 422,
      "Ø³": 423,
      "à§ĩ": 424,
      "ig": 425,
      "ia": 426,
      "ĠA": 427,
      "ek": 428,
      "Ñİ": 429,
      "ÑģÑĤ": 430,
      "ÐµÐ½": 431,
      "Ð°ÑĤ": 432,
      "áĭ": 433,
      "Ì§": 434,
      "áĢº": 435,
      "Ø¨": 436,
      "Ġà¬": 437,
      "áī": 438,
      "ĠÐ²": 439,
      "ĠÙĪ": 440,
      "à°¿": 441,
      "ĠÐ¸": 442,
      "ĠM": 443,
      "ĠÐ¼": 444,
      "à¤¿": 445,
      "le": 446,
      "Ø§ÙĨ": 447,
      "áħ¡": 448,
      "àª¾": 449,
      "Ġ1": 450,
      "Ä±": 451,
      "ut": 452,
      "ĠÐ¾": 453,
      "×ķ×": 454,
      "×Ļ×": 455,
      "à¤¨": 456,
      "Î»": 457,
      "od": 458,
      "ĠáĢ": 459,
      "ha": 460,
      "à¯ģ": 461,
      "ÏĦ": 462,
      "ÑĨ": 463,
      "à³į": 464,
      "ent": 465,
      "áĥĶ": 466,
      "áĬ": 467,
      "and": 468,
      "ĠP": 469,
      "ÙĶ": 470,
      "ÑĢÐ°": 471,
      "ĠâĢ": 472,
      "à¥Ģ": 473,
      "ot": 474,
      "à®¿": 475,
      "ÑĮ": 476,
      "ÖĢ": 477,
      "Ġ2": 478,
      "Ġ(": 479,
      "la": 480,
      "ov": 481,
      "áĢ¸": 482,
      "à¸²": 483,
      "à°¾": 484,
      "ri": 485,
      "áĦĭáħ": 486,
      "à±ģ": 487,
      "à¤ķ": 488,
      "à¨¾": 489,
      "he": 490,
      "Ò¯": 491,
      "ĠÚ©": 492,
      "à²¿": 493,
      "à»": 494,
      "qu": 495,
      "Ġla": 496,
      "áĥĶáĥ": 497,
      "à¤¤": 498,
      "Ġsa": 499,
      "Ø¹": 500,
      "áĢ¬": 501,
      "Ð¶": 502,
      "à®ķ": 503,
      "Ø©": 504,
      "ja": 505,
      "à®¤": 506,
      "ĠT": 507,
      "ÌĽ": 508,
      "je": 509,
      "ĠB": 510,
      "áŁĴ": 511,
      "à¸Ļ": 512,
      "à´¿": 513,
      "ci": 514,
      "Ð½Ð¸": 515,
      "ĠD": 516,
      "áĨ«": 517,
      "Ùī": 518,
      "ĠC": 519,
      "ÐµÑĢ": 520,
      "áŀ¶": 521,
      "Õ¸": 522,
      "ĠØ§": 523,
      "ga": 524,
      "Ġr": 525,
      "ãĢ": 526,
      "Ì£": 527,
      "áĥĺáĥ": 528,
      "ka": 529,
      "à¤²": 530,
      "ÌĬ": 531,
      "à¦°": 532,
      "à§į": 533,
      "à¤¯": 534,
      "Ó©": 535,
      "à·Ĵ": 536,
      "Ûķ": 537,
      "áĢ¹": 538,
      "à¦¿": 539,
      "st": 540,
      "à®¾": 541,
      "Ġen": 542,
      "ÒĽ": 543,
      "ĠØ¯": 544,
      "Ð¾Ð»": 545,
      "à¸²à¸": 546,
      "à³Ĩ": 547,
      "ud": 548,
      "ÙĤ": 549,
      "à°¨": 550,
      "à¥ĭ": 551,
      "Ïģ": 552,
      "ĠÐ·": 553,
      "ï¼": 554,
      "ay": 555,
      "ne": 556,
      "ok": 557,
      "âĢĻ": 558,
      "Ġun": 559,
      "Ïĥ": 560,
      "áĢ¯": 561,
      "Ð´Ð°": 562,
      "à«ĩ": 563,
      "Õ¶": 564,
      "og": 565,
      "ĠÐ½Ð°": 566,
      "à°°": 567,
      "Õ¥": 568,
      "ĠK": 569,
      "Ì¨": 570,
      "Ð½Ð¾": 571,
      "ĠØª": 572,
      "ab": 573,
      "ĠÑĥ": 574,
      "áĢ±": 575,
      "à¹Ī": 576,
      "à°Ĥ": 577,
      "uk": 578,
      "à´¾": 579,
      "ÑĢÐ¾": 580,
      "à¬¾": 581,
      "à·ı": 582,
      "Ġà¤ķ": 583,
      "Ø§Ø±": 584,
      "..": 585,
      "áĢĢ": 586,
      "Ġda": 587,
      "Ùĥ": 588,
      "ng": 589,
      "Î¾": 590,
      "à¶±": 591,
      "li": 592,
      "Ġma": 593,
      "áĢŃ": 594,
      "to": 595,
      "ĠI": 596,
      "ĠÐ°": 597,
      "à¤Ĥ": 598,
      "Ġdi": 599,
      "à´¨": 600,
      "eg": 601,
      "ĠN": 602,
      "Îł": 603,
      "ÑĢÐµ": 604,
      "à·Ļ": 605,
      "Ø´": 606,
      "Ïħ": 607,
      "ĠE": 608,
      "ter": 609,
      "Ùģ": 610,
      "ÑĢÐ¸": 611,
      "ma": 612,
      "iz": 613,
      "áŀĵ": 614,
      "Ġre": 615,
      "de": 616,
      "na": 617,
      "Õ«": 618,
      "da": 619,
      "00": 620,
      "Ġan": 621,
      "Ġpr": 622,
      "Ð½Ð°": 623,
      "Ìĥ": 624,
      "áĢĲ": 625,
      "à¸Ń": 626,
      "ni": 627,
      "à°²": 628,
      "àµģ": 629,
      "à²°": 630,
      "ĠÙĦ": 631,
      "ÖĤ": 632,
      "Ðł": 633,
      "ĠL": 634,
      "Ð»Ð¸": 635,
      "ap": 636,
      "à®°": 637,
      "Ð¾Ð²": 638,
      "à´ķ": 639,
      "à³ģ": 640,
      "àª°": 641,
      "ÐµÑĤ": 642,
      "à®Ł": 643,
      "áħµ": 644,
      "à¤¸": 645,
      "Ġqu": 646,
      "ĠH": 647,
      "Îº": 648,
      "Ģà¸": 649,
      "Ġto": 650,
      "à¤®": 651,
      "à¦¨": 652,
      "áĢĦ": 653,
      "Ġis": 654,
      "ah": 655,
      "à¨°": 656,
      "à¬¿": 657,
      "Ġte": 658,
      "Ġne": 659,
      "áŀļ": 660,
      "áĥĿ": 661,
      "ve": 662,
      "Ġes": 663,
      "àŃį": 664,
      "ØŃ": 665,
      "se": 666,
      "Ġal": 667,
      "ä¸": 668,
      "à²¾": 669,
      "×¨": 670,
      "à©Ģ": 671,
      "Î¶": 672,
      "ÑĬ": 673,
      "ya": 674,
      "Ø¬": 675,
      "Ð°Ð¸": 676,
      "Ġpro": 677,
      "ØĮ": 678,
      "ãĥ¼": 679,
      "Î¸": 680,
      "ho": 681,
      "à²¦": 682,
      "ĠG": 683,
      "va": 684,
      "Ûģ": 685,
      "ĠØ³": 686,
      "ÛĴ": 687,
      "Ġer": 688,
      "áħ©": 689,
      "ati": 690,
      "à´¤": 691,
      "Ã°": 692,
      "ĠR": 693,
      "à¹ī": 694,
      "Ġsu": 695,
      "Ð°Ð¼": 696,
      "ĠÚ": 697,
      "à©ĩ": 698,
      "ÓĻ": 699,
      "Ìĩ": 700,
      "ĠÎ±": 701,
      "à¹Ģà¸": 702,
      "Ġst": 703,
      "àª¨": 704,
      "áħ³": 705,
      "à¬°": 706,
      "à¶º": 707,
      "ÑĭÐ½": 708,
      "Ð´Ð¸": 709,
      "si": 710,
      "ĠÐ³": 711,
      "à«Ģ": 712,
      "ke": 713,
      "ara": 714,
      "Ġje": 715,
      "ĠÑħ": 716,
      "Ñĺ": 717,
      "à«į": 718,
      "áŀĢ": 719,
      "×Ķ": 720,
      "à¨¿": 721,
      "ĠÐ¶": 722,
      "Ð¾Ð½": 723,
      "Î¼": 724,
      "à¤¹": 725,
      "Ġà¤¸": 726,
      "à®©": 727,
      "áĨ¯": 728,
      "ru": 729,
      "hi": 730,
      "ĠF": 731,
      "Ġà·": 732,
      "ÏĤ": 733,
      "Õ¸ÖĤ": 734,
      "áĢķ": 735,
      "Ìī": 736,
      "ac": 737,
      "ÑĤÐ¸": 738,
      "ob": 739,
      "áĨ¼": 740,
      "ĠV": 741,
      "×ľ": 742,
      "áĥĿáĥ": 743,
      "áĢĻ": 744,
      "ine": 745,
      "di": 746,
      "à®®": 747,
      "Ð»Ð°": 748,
      "Ġat": 749,
      "à¸ģ": 750,
      "ĠÙĨ": 751,
      "à°ķ": 752,
      "no": 753,
      "à¶»": 754,
      "à¸±": 755,
      "à¥ģ": 756,
      "Äĳ": 757,
      "tu": 758,
      "à¸£": 759,
      "à®²": 760,
      "ï¼Į": 761,
      "ÐºÐ°": 762,
      "Ø²": 763,
      "âĢĿ": 764,
      "Ø§Øª": 765,
      "Ġon": 766,
      "áħ¥": 767,
      "à¤µ": 768,
      "Ð¾ÑĢ": 769,
      "ĠÎµ": 770,
      "ĠØ§Ø": 771,
      "áĦĢ": 772,
      "ec": 773,
      "ai": 774,
      "áĢŃáĢ¯": 775,
      "áģ": 776,
      "ĠØ¹": 777,
      "ĠÐł": 778,
      "áĮ": 779,
      "à¾": 780,
      "Õ¡Õ¶": 781,
      "Ġet": 782,
      "àº²": 783,
      "ĠÙģ": 784,
      "sa": 785,
      "à¦¯": 786,
      "ÐµÐ»": 787,
      "Ġ-": 788,
      "ÐµÐ¼": 789,
      "áĢĶ": 790,
      "à·Ģ": 791,
      "Ġko": 792,
      "à´¯": 793,
      "à®ª": 794,
      "Ø§Ùħ": 795,
      "à¸ĩ": 796,
      "Ġper": 797,
      "à¦¤": 798,
      "Ð¾Ð¼": 799,
      "àŃĩ": 800,
      "×Ĳ": 801,
      "à¶Ń": 802,
      "ub": 803,
      "Ġel": 804,
      "à´°": 805,
      "est": 806,
      "ĠÎ·": 807,
      "ÑĦ": 808,
      "Ġ×Ķ": 809,
      "áŀĶ": 810,
      "Ġle": 811,
      "à¸µ": 812,
      "az": 813,
      "ari": 814,
      "ĠO": 815,
      "ĠÙĬ": 816,
      "àºĻ": 817,
      "Ġ20": 818,
      "à¥¤": 819,
      "ĠÙ¾": 820,
      "ĠÏĢ": 821,
      "Ġra": 822,
      "Ġme": 823,
      "à¸¡": 824,
      "ist": 825,
      "à²¨": 826,
      "Ġpo": 827,
      "Ġdo": 828,
      "à·Ķ": 829,
      "Ġpa": 830,
      "ãģ¦": 831,
      "end": 832,
      "Ġà¤ª": 833,
      "Ġta": 834,
      "Ġog": 835,
      "à°¤": 836,
      "ĠÞ": 837,
      "áĢ·": 838,
      "ko": 839,
      "Ð²Ð°": 840,
      "Ò³": 841,
      "ÐµÐº": 842,
      "ost": 843,
      "Ġar": 844,
      "à½¦": 845,
      "à¦ķ": 846,
      "Ð³Ð°": 847,
      "Î³": 848,
      "Ġva": 849,
      "à²²": 850,
      "ãĤ¯": 851,
      "hu": 852,
      "à¶¸": 853,
      "ãĥ³": 854,
      "Ġfor": 855,
      "Ġcon": 856,
      "áĢ¼": 857,
      "io": 858,
      "à²¤": 859,
      "Î´": 860,
      "Þ¦": 861,
      "ver": 862,
      "ana": 863,
      "Ïī": 864,
      "eb": 865,
      "ĠÄĳ": 866,
      "à¯Ī": 867,
      "à«ĭ": 868,
      "ĠJ": 869,
      "lar": 870,
      "áĦī": 871,
      "Ð¸ÑĤ": 872,
      "Ġka": 873,
      "Ã¸": 874,
      "áŀĺ": 875,
      "à¶ļ": 876,
      "×¢": 877,
      "Ð°Ñģ": 878,
      "Ø®": 879,
      "ĠÐ¿Ð¾": 880,
      "ada": 881,
      "à¦²": 882,
      "ij": 883,
      "ĠÙĩ": 884,
      "áĦĥ": 885,
      "ung": 886,
      "ĠØ¬": 887,
      "áĦħ": 888,
      "ant": 889,
      "Ġku": 890,
      "ÌĤÌģ": 891,
      "Ð°Ðº": 892,
      "ib": 893,
      "áŀŁ": 894,
      "ãĤ¹": 895,
      "wa": 896,
      "à´Ł": 897,
      "áħ®": 898,
      "à¨Ĥ": 899,
      "Ð¸Ð¸": 900,
      "eng": 901,
      "ki": 902,
      "à¤ª": 903,
      "áĢĽ": 904,
      "lo": 905,
      "à®¯": 906,
      "Ġthe": 907,
      "Ġà¤®": 908,
      "ãĥĪ": 909,
      "ĠÏĦ": 910,
      "Ġ3": 911,
      "Øµ": 912,
      "àªĤ": 913,
      "×ª": 914,
      "à®±": 915,
      "ju": 916,
      "me": 917,
      "ĠØ±": 918,
      "à®³": 919,
      "×ŀ": 920,
      "Ġà¸": 921,
      "ce": 922,
      "ina": 923,
      "à²Ĺ": 924,
      "ÎµÎ¹": 925,
      "Ġáĭ": 926,
      "Ġng": 927,
      "vo": 928,
      "ãģ®": 929,
      "Ġha": 930,
      "àµĨ": 931,
      "Ġsp": 932,
      "Ġdu": 933,
      "áŀĦ": 934,
      "áĦĮ": 935,
      "ÑĤÐ¾": 936,
      "à°¦": 937,
      "à±ĩ": 938,
      "ãĥķ": 939,
      "ãĢĤ": 940,
      "ort": 941,
      "áĦĴ": 942,
      "à¸¥": 943,
      "ere": 944,
      "ĠÐµ": 945,
      "pp": 946,
      "are": 947,
      "ĠU": 948,
      "ÏĨ": 949,
      "ĠÐ·Ð°": 950,
      "ÖĢÕ": 951,
      "áŀı": 952,
      "Òĵ": 953,
      "Ġmo": 954,
      "à¸§": 955,
      "ĠáĦĭáħ": 956,
      "à³Ĩà³": 957,
      "à¤¦": 958,
      "Ò£": 959,
      "à¸Ķ": 960,
      "Ġà¤¹": 961,
      "à°Ł": 962,
      "ĠáĬ": 963,
      "Ġ×Ĳ": 964,
      "Ð¸Ð»": 965,
      "ĠÑĩ": 966,
      "Õ¥Õ": 967,
      "ĠØ´": 968,
      "Ġno": 969,
      "à®µ": 970,
      "ĠâĢĵ": 971,
      "ÙĪØ±": 972,
      "Ġja": 973,
      "Ġbe": 974,
      "Ð¸Ð½": 975,
      "à¦¼": 976,
      "Ġso": 977,
      "äº": 978,
      "Ø§ÙĪ": 979,
      "Ø·": 980,
      "ĠÐ´Ð°": 981,
      "áĥĺáĥ¡": 982,
      "Ïĩ": 983,
      "ãĢģ": 984,
      "à¤ļ": 985,
      "áĥĶáĥĳ": 986,
      "à±ĭ": 987,
      "za": 988,
      "ji": 989,
      "Ì£ÌĤ": 990,
      "Õ¸ÖĤÕ": 991,
      "ĠáĪ": 992,
      "£áĥ": 993,
      "áĢŀ": 994,
      "à²µ": 995,
      "Î·Î±": 996,
      "ÑĤÐ°": 997,
      "Ġque": 998,
      "Ø§ÙĬ": 999,
      "Þ°": 1000,
      "ali": 1001,
      "áŀĽ": 1002,
      "æľ": 1003,
      "ug": 1004,
      "ĠÑĪ": 1005,
      "àª®": 1006,
      "ãģĦ": 1007,
      "áĢħ": 1008,
      "Ð¸Ñı": 1009,
      "ĠW": 1010,
      "ĠãĤ": 1011,
      "ÙĪÙĨ": 1012,
      "áĢľ": 1013,
      "ĠâĢľ": 1014,
      "Â»": 1015,
      "à°¯": 1016,
      "à¦¬": 1017,
      "||": 1018,
      "zi": 1019,
      "ita": 1020,
      "Ġpar": 1021,
      "ÛĲ": 1022,
      "der": 1023,
      "à§°": 1024,
      "×©": 1025,
      "ate": 1026,
      "Ġpor": 1027,
      "ĠÎº": 1028,
      "à´²": 1029,
      "ite": 1030,
      "×ĳ": 1031,
      "Ø§ÛĮ": 1032,
      "Ġsi": 1033,
      "×ł": 1034,
      "Ð½Ñĭ": 1035,
      "áĢ½": 1036,
      "Ú¯": 1037,
      "à¸¢": 1038,
      "Ġver": 1039,
      "Î¡": 1040,
      "ãģĭ": 1041,
      "à½Ĥ": 1042,
      "áĦĤ": 1043,
      "Ð³Ð¾": 1044,
      "ze": 1045,
      "ãģĹ": 1046,
      "ÑģÐº": 1047,
      "à¤Ĺ": 1048,
      "Ã¦": 1049,
      "à¸ļ": 1050,
      "Ġq": 1051,
      "ini": 1052,
      "áħ¢": 1053,
      "ku": 1054,
      "à¨¤": 1055,
      "Ġam": 1056,
      "ata": 1057,
      "ãĤļ": 1058,
      "ba": 1059,
      "à½²": 1060,
      "ĠÒĽ": 1061,
      "Ġza": 1062,
      "ran": 1063,
      "àª¤": 1064,
      "àªµ": 1065,
      "ala": 1066,
      "vi": 1067,
      "áĨ¨": 1068,
      "áĬķ": 1069,
      "à¨¸": 1070,
      "ÎłÎ": 1071,
      "Ġdie": 1072,
      "Ġsex": 1073,
      "ele": 1074,
      "ÑĢÑĥ": 1075,
      "ĠØ®": 1076,
      "à¨¨": 1077,
      "à²Ĥ": 1078,
      "per": 1079,
      "yn": 1080,
      "Ġof": 1081,
      "Ġcom": 1082,
      "ell": 1083,
      "ĠÑį": 1084,
      "ï½": 1085,
      "ÏĪ": 1086,
      "à¯ĩ": 1087,
      "à¸´": 1088,
      "à°¸": 1089,
      "à²ķ": 1090,
      "ĠÑı": 1091,
      "Ġáī": 1092,
      "à¦®": 1093,
      "Ð²Ð¾": 1094,
      "Ġ×ľ": 1095,
      "ast": 1096,
      "à°¡": 1097,
      "à´Ĥ": 1098,
      "Ġke": 1099,
      "Ð¡": 1100,
      "àµĩ": 1101,
      "à¸Ĺ": 1102,
      "à»Ī": 1103,
      "Î¿Ïħ": 1104,
      "Ø§Ø¯": 1105,
      "Ġmu": 1106,
      "à½ĳ": 1107,
      "Ġil": 1108,
      "à§ģ": 1109,
      "à±Ĩ": 1110,
      "à²¯": 1111,
      "Ġpre": 1112,
      "Ð´Ñĭ": 1113,
      "ye": 1114,
      "Ġ×ŀ": 1115,
      "à¨²": 1116,
      "ĠØ§ÙĦÙħ": 1117,
      "àº²àº": 1118,
      "ï¾": 1119,
      "Ġba": 1120,
      "sk": 1121,
      "Ġà¨¦": 1122,
      "ĠÐ½Ðµ": 1123,
      "Ġho": 1124,
      "Ġand": 1125,
      "Ġáł": 1126,
      "20": 1127,
      "Ġà¤Ĩ": 1128,
      "Ġvo": 1129,
      "áį": 1130,
      "à½¼": 1131,
      "Ġà¨ķ": 1132,
      "Ä±n": 1133,
      "Ġvi": 1134,
      "ide": 1135,
      "Ð´Ðµ": 1136,
      "à¤£": 1137,
      "Ġor": 1138,
      "ĠÐ»": 1139,
      "Ġ×ĳ": 1140,
      "à¤Ł": 1141,
      "åı": 1142,
      "ÑĥÐ»": 1143,
      "ĠÐĴ": 1144,
      "à·Ļà·Ĭ": 1145,
      "Ġmen": 1146,
      "Ġà¨¸": 1147,
      "Úº": 1148,
      "Ġtil": 1149,
      "Þ¬": 1150,
      "Ġx": 1151,
      "łáĥ": 1152,
      "Ġli": 1153,
      "Ġas": 1154,
      "áĢ»": 1155,
      "ou": 1156,
      "à°ª": 1157,
      "ind": 1158,
      "ĠØŃ": 1159,
      "op": 1160,
      "Î±Î¹": 1161,
      "Ġve": 1162,
      "áĢ²": 1163,
      "ika": 1164,
      "ny": 1165,
      "à°µ": 1166,
      "çļ": 1167,
      "Ġiz": 1168,
      "Ġca": 1169,
      "ĠÙħÙĨ": 1170,
      "àª¯": 1171,
      "ãģŁ": 1172,
      "Ġdan": 1173,
      "Ð¾Ð¸": 1174,
      "ong": 1175,
      "res": 1176,
      "Þª": 1177,
      "à¸ķ": 1178,
      "áĢģ": 1179,
      "ÙĪÙĦ": 1180,
      "ĠÙĤ": 1181,
      "à©°": 1182,
      "ä»": 1183,
      "ãģ¨": 1184,
      "à©ĭ": 1185,
      "ĠáĦĢ": 1186,
      "Ġ\"": 1187,
      "ÙĬÙĨ": 1188,
      "ĠÙĥ": 1189,
      "Ġch": 1190,
      "Î½ÏĢ": 1191,
      "×Ļ×Ŀ": 1192,
      "ÙĬØ©": 1193,
      "à¸ª": 1194,
      "à¥Ī": 1195,
      "iti": 1196,
      "áĢ¬áĢ¸": 1197,
      "ont": 1198,
      "ys": 1199,
      "kan": 1200,
      "Ð¸Ð¼": 1201,
      "Ġà¦ķ": 1202,
      "ass": 1203,
      "çļĦ": 1204,
      "à¨¹": 1205,
      "Ùĵ": 1206,
      "àªķ": 1207,
      "×ķ×ª": 1208,
      "à¸°": 1209,
      "Ġod": 1210,
      "Ġni": 1211,
      "ama": 1212,
      "åħ": 1213,
      "à¶½": 1214,
      "à¬ķ": 1215,
      "Ġà¤¨": 1216,
      "Ġà¤ħ": 1217,
      "à¶§": 1218,
      "àª¿": 1219,
      "å¤": 1220,
      "ãĥ«": 1221,
      "áŁĭ": 1222,
      "ÉĻr": 1223,
      "à©±": 1224,
      "Ġ201": 1225,
      "Ġcu": 1226,
      "ĠÎ¸": 1227,
      "Ð½Ðµ": 1228,
      "Ġber": 1229,
      "ten": 1230,
      "lu": 1231,
      "be": 1232,
      "Ġ5": 1233,
      "à¨ķ": 1234,
      "Ġ×©": 1235,
      "Ġ4": 1236,
      "Ġmed": 1237,
      "à°Ĺ": 1238,
      "áŀ·": 1239,
      "à´±": 1240,
      "à½ĸ": 1241,
      "ãĥŃ": 1242,
      "à°®": 1243,
      "Ñī": 1244,
      "áĦĭáħµ": 1245,
      "à¯Ĩ": 1246,
      "ÑĤÐµ": 1247,
      "àºĻàº": 1248,
      "Ġà¤µ": 1249,
      "we": 1250,
      "à¤ľ": 1251,
      "itu": 1252,
      "Ġà¨¹": 1253,
      "pl": 1254,
      "âĢľ": 1255,
      "oc": 1256,
      "ĠÎ´": 1257,
      "ÛĮÙĨ": 1258,
      "Ġà®ª": 1259,
      "Â«": 1260,
      "ĠÐ¡": 1261,
      "ge": 1262,
      "Ð°Ð²": 1263,
      "Ø³Øª": 1264,
      "ene": 1265,
      "áŀĻ": 1266,
      "ãģĻ": 1267,
      "×ĵ": 1268,
      "Ø§Ø³": 1269,
      "áĢ®": 1270,
      "ÐµÐ´": 1271,
      "ale": 1272,
      "Øº": 1273,
      "à»ī": 1274,
      "à¬¨": 1275,
      "áĢ¡": 1276,
      "Ð»Ð°ÑĢ": 1277,
      "Ġtu": 1278,
      "all": 1279,
      "Ø§Ø¨": 1280,
      "Ġà¤¬": 1281,
      "áĢĬ": 1282,
      "ĠÑĢÐ°": 1283,
      "Þ¨": 1284,
      "à·ĥ": 1285,
      "ani": 1286,
      "à±Ģ": 1287,
      "Öģ": 1288,
      "ens": 1289,
      "Ġco": 1290,
      "ãģ¯": 1291,
      "Ġà·Ģ": 1292,
      "áĥķ": 1293,
      "à´ª": 1294,
      "Ġãĥ": 1295,
      "rat": 1296,
      "ile": 1297,
      "ff": 1298,
      "à¶¯": 1299,
      "à¸«": 1300,
      "Ġter": 1301,
      "à¸Ħ": 1302,
      "art": 1303,
      "àº±": 1304,
      "Ġà¦¸": 1305,
      "à«ģ": 1306,
      "ili": 1307,
      "áīµ": 1308,
      "pa": 1309,
      "àŃģ": 1310,
      "Ø¶": 1311,
      "à´®": 1312,
      "Õ¸Õ": 1313,
      "ãģ«": 1314,
      "ä½": 1315,
      "Ġà¶ļ": 1316,
      "ÑĥÑĢ": 1317,
      "ĠÎ¶": 1318,
      "Ġop": 1319,
      "ust": 1320,
      "áħ§": 1321,
      "Ġà¤¤": 1322,
      "ĠÐĲ": 1323,
      "à§ĩà¦¾": 1324,
      "Ġà°ª": 1325,
      "Ġim": 1326,
      "ÑĸÐ½": 1327,
      "ĠáĥĽ": 1328,
      "áĦĭáħ³": 1329,
      "Ġà¦¬": 1330,
      "ill": 1331,
      "ĠÐĳ": 1332,
      "ks": 1333,
      "Ġro": 1334,
      "×Ĺ": 1335,
      "era": 1336,
      "asi": 1337,
      "ĠÐ¿ÑĢÐ¾": 1338,
      "Ð¾ÑĤ": 1339,
      "ÙĨØ¯": 1340,
      "ÙĦÙī": 1341,
      "Ġki": 1342,
      "à¥Ĥ": 1343,
      "áŀĳ": 1344,
      "Ûİ": 1345,
      "und": 1346,
      "for": 1347,
      "à¬¤": 1348,
      "Ġà®ķ": 1349,
      "áĢļ": 1350,
      "Ġbu": 1351,
      "Ġàªķ": 1352,
      "ÑĥÐ½": 1353,
      "Ġpe": 1354,
      "áĢºáĢ¸": 1355,
      "ĠáĦī": 1356,
      "jo": 1357,
      "à½¢": 1358,
      "ÐµÐ¸": 1359,
      "Ġbo": 1360,
      "Ùķ": 1361,
      "ĠÛģ": 1362,
      "×ĺ": 1363,
      "ãĤ·": 1364,
      "Ġyang": 1365,
      "Ġth": 1366,
      "áĥ£áĥ": 1367,
      "Ġya": 1368,
      "Î¶Îµ": 1369,
      "à·Ĳ": 1370,
      "à²¸": 1371,
      "eni": 1372,
      "Ð³Ð°Ð½": 1373,
      "uc": 1374,
      "ÌĤÌĢ": 1375,
      "Ġsk": 1376,
      "áŀ»": 1377,
      "Ìĭ": 1378,
      "ann": 1379,
      "à°ļ": 1380,
      "áĢ±áĢ¬": 1381,
      "å®": 1382,
      "áŀĸ": 1383,
      "à¹Ħ": 1384,
      "ÙĩØ§": 1385,
      "ÐºÐ¸": 1386,
      "Ð½Ñı": 1387,
      "ĠÑģÐµ": 1388,
      "ber": 1389,
      "ĠÙģÙĬ": 1390,
      "Ġac": 1391,
      "Ġol": 1392,
      "à¨¦": 1393,
      "ena": 1394,
      "pe": 1395,
      "Ġà¦ª": 1396,
      "Ġom": 1397,
      "ÞĤ": 1398,
      "×§": 1399,
      "Ġdes": 1400,
      "Ð¾Ð´": 1401,
      "Ġà¹": 1402,
      "áĢ¾": 1403,
      "à¦¸": 1404,
      "Ġtr": 1405,
      "Ġdel": 1406,
      "Ġav": 1407,
      "one": 1408,
      "Ġsam": 1409,
      "à´µ": 1410,
      "ĠÐľ": 1411,
      "Ġà¤°": 1412,
      "bi": 1413,
      "à½Ħ": 1414,
      "yd": 1415,
      "Ð¼Ð°": 1416,
      "àºģ": 1417,
      "Ġang": 1418,
      "áŀĬ": 1419,
      "ÑĭÐ»": 1420,
      "Ġà¤ľ": 1421,
      "ãģª": 1422,
      "ons": 1423,
      "Ġdet": 1424,
      "Ġvan": 1425,
      "ĠÒ": 1426,
      "áĤ": 1427,
      "ãĥĥ": 1428,
      "ĠáĦĮ": 1429,
      "ĠÑĸ": 1430,
      "à´£": 1431,
      "à²³": 1432,
      "àºĩ": 1433,
      "Î·Î½": 1434,
      "åĪ": 1435,
      "ÖĦ": 1436,
      "Ġà·ĥ": 1437,
      "Ġà¤¦": 1438,
      "ĠØ§Ø³": 1439,
      "Ð¾Ð±": 1440,
      "ÑħÐ¼": 1441,
      "à½ĵ": 1442,
      "ÑģÐ¸": 1443,
      "Ġhe": 1444,
      "ĠÑĦ": 1445,
      "ord": 1446,
      "ĠÙħÛĮ": 1447,
      "à´³": 1448,
      "Ġà¥": 1449,
      "Ð¾Ð³": 1450,
      "ÐĴ": 1451,
      "ish": 1452,
      "à¤¡": 1453,
      "áĨ·": 1454,
      "Ġà¶´": 1455,
      "Ġà¨¨": 1456,
      "Ġpos": 1457,
      "Ù¾": 1458,
      "Ġkom": 1459,
      "eri": 1460,
      "Ġà®µ": 1461,
      "ĠÏĥ": 1462,
      "Ġà°ķ": 1463,
      "Ð°ÑĤÐ°": 1464,
      "Ġob": 1465,
      "Ġos": 1466,
      "Ġad": 1467,
      "à¬¬": 1468,
      "Þĩ": 1469,
      "Ú¾": 1470,
      "Õ¡Õ¯": 1471,
      "ÑįÑį": 1472,
      "ĠÎ¼": 1473,
      "Ġà¨µ": 1474,
      "ãģ¾": 1475,
      "nd": 1476,
      "ĠÂ«": 1477,
      "Ø°": 1478,
      "inn": 1479,
      "ore": 1480,
      "à¦¦": 1481,
      "àºĶ": 1482,
      "àº°": 1483,
      "áħ¡áĨ«": 1484,
      "ete": 1485,
      "Ġàªª": 1486,
      "iv": 1487,
      "ers": 1488,
      "áŀħ": 1489,
      "Ġsom": 1490,
      "à½´": 1491,
      "ĠZ": 1492,
      "Ġwa": 1493,
      "çĶ": 1494,
      "áłł": 1495,
      "àª²": 1496,
      "áŁĨ": 1497,
      "Ġà¤Ĺ": 1498,
      "ane": 1499,
      "Ġhar": 1500,
      "åĲ": 1501,
      "mi": 1502,
      "Õ¥ÖĢ": 1503,
      "à¤¬": 1504,
      "×¤": 1505,
      "Ì¦": 1506,
      "ess": 1507,
      "ÑģÑı": 1508,
      "Ð¸Ð·": 1509,
      "ima": 1510,
      "Ġ19": 1511,
      "ca": 1512,
      "áħ¦": 1513,
      "áŁģ": 1514,
      "che": 1515,
      "à¤§": 1516,
      "ĠÐļ": 1517,
      "áĥ¡": 1518,
      "ãĤĭ": 1519,
      "Õ¡Õµ": 1520,
      "à¤¶": 1521,
      "ĠÎł": 1522,
      "ãĤ¤": 1523,
      "áĢ«": 1524,
      "ako": 1525,
      "ÅĤ": 1526,
      "à©ģ": 1527,
      "àºŃ": 1528,
      "yo": 1529,
      "cio": 1530,
      "à·Ħ": 1531,
      "ãĤ¿": 1532,
      "à¸²à¸£": 1533,
      "à¦Ł": 1534,
      "up": 1535,
      "×Ľ": 1536,
      "Î·Î¸": 1537,
      "à²¡": 1538,
      "ente": 1539,
      "Ġà°µ": 1540,
      "à¹ģ": 1541,
      "ĠØ§ÙĪ": 1542,
      "Ġir": 1543,
      "Ġag": 1544,
      "av": 1545,
      "à®ķà®³": 1546,
      "Ġ×ķ": 1547,
      "mo": 1548,
      "Ø±ÙĬ": 1549,
      "à·ĵ": 1550,
      "ÐºÐ¾": 1551,
      "ÑĤÑĭ": 1552,
      "Ð°Ð·": 1553,
      "à®ļ": 1554,
      "ãĤ«": 1555,
      "bu": 1556,
      "Ġáĭ¨": 1557,
      "Ġkan": 1558,
      "Ġà°®": 1559,
      "à¸µà¹Ī": 1560,
      "ts": 1561,
      "ĠÐ±Ð¾Ð»": 1562,
      "ÙĪØ¯": 1563,
      "ĠÐ±Ñĥ": 1564,
      "Î·Îµ": 1565,
      "ÑĨÐ¸": 1566,
      "Ġbi": 1567,
      "×¡": 1568,
      "Ġti": 1569,
      "áĥĲáĥľ": 1570,
      "lik": 1571,
      "...": 1572,
      "Ġà®®": 1573,
      "Ġà®ħ": 1574,
      "Ġfra": 1575,
      "à¨¾à¨Ĥ": 1576,
      "à¹ĥ": 1577,
      "áĦĨ": 1578,
      "po": 1579,
      "ÐµÑģ": 1580,
      "Ġà°ħ": 1581,
      "ĠØ¨Ùĩ": 1582,
      "ĠÎ±ÏĢ": 1583,
      "Ø«": 1584,
      "ning": 1585,
      "áŀ¸": 1586,
      "à½º": 1587,
      "Ġpl": 1588,
      "à»Ģ": 1589,
      "áŀĩ": 1590,
      "nh": 1591,
      "à®¨": 1592,
      "ĠáĢ¡": 1593,
      "à¨¼": 1594,
      "à¹ĩ": 1595,
      "ise": 1596,
      "ÐĲ": 1597,
      "ĠØ§ÙĨ": 1598,
      "ĠÐ¢": 1599,
      "Ð°Ð´": 1600,
      "à³Ĩà³Ĥ": 1601,
      "áĥł": 1602,
      "age": 1603,
      "Ġàº": 1604,
      "áĦĥáħ¡": 1605,
      "Ġtra": 1606,
      "ation": 1607,
      "ĠÐŁ": 1608,
      "Ġáĥĵ": 1609,
      "ãĤ¢": 1610,
      "Ġge": 1611,
      "ler": 1612,
      "Ġbil": 1613,
      "ÌĽÌģ": 1614,
      "ÙĦÙĬ": 1615,
      "Ġmi": 1616,
      "Î²": 1617,
      "à©Ī": 1618,
      "à¸Ī": 1619,
      "atu": 1620,
      "bo": 1621,
      "Ġpri": 1622,
      "ĠÓ©": 1623,
      "à¾±": 1624,
      "Ġlo": 1625,
      "gi": 1626,
      "Ð¾Ð¶": 1627,
      "Ġgo": 1628,
      "à³ķ": 1629,
      "Ð°ÑĪ": 1630,
      "à¤·": 1631,
      "ard": 1632,
      "Ġ6": 1633,
      "Ñļ": 1634,
      "à¨Ĩ": 1635,
      "ãĥ©": 1636,
      "à½ĺ": 1637,
      "å°": 1638,
      "ela": 1639,
      "à®£": 1640,
      "Ġàª¸": 1641,
      "ÐºÑĥ": 1642,
      "à¦ª": 1643,
      "à´ļ": 1644,
      "Õ¿": 1645,
      "ier": 1646,
      "Ġà¤²": 1647,
      "ĠØ¯Ø±": 1648,
      "Ġáĥ¡": 1649,
      "Ø§Ùģ": 1650,
      "àª¸": 1651,
      "æĸ": 1652,
      "à¸·": 1653,
      "à¸¸": 1654,
      "ĠÕ°": 1655,
      "à§Ģ": 1656,
      "ÌĽÌ£": 1657,
      "ĠÚĨ": 1658,
      "ĠÚ¯": 1659,
      "adi": 1660,
      "Ġak": 1661,
      "ÐµÐ¿": 1662,
      "ĠÎ¸Î±": 1663,
      "à·Ļà·ı": 1664,
      "à¤ı": 1665,
      "ida": 1666,
      "ĠÐ´Ð¾": 1667,
      "àµĩà´¾": 1668,
      "Õ«Õ¶": 1669,
      "Î¹Î½": 1670,
      "Ġap": 1671,
      "áĦĩ": 1672,
      "ãĥª": 1673,
      "Î¹Î±": 1674,
      "áĪŃ": 1675,
      "Ġà°¸": 1676,
      "âĢ¦": 1677,
      "Ð°Ð±": 1678,
      "Ġden": 1679,
      "àª¾àªĤ": 1680,
      "à½ł": 1681,
      ").": 1682,
      "Ð²Ð¸": 1683,
      "ĠáĥĲáĥ": 1684,
      "à©Ĥ": 1685,
      "ck": 1686,
      "--": 1687,
      "Ġà®¤": 1688,
      "ona": 1689,
      "áŀ¾": 1690,
      "àºµ": 1691,
      "Ġà¦Ĩ": 1692,
      "Ġex": 1693,
      "ÛĨ": 1694,
      "Ġder": 1695,
      "Ø±ÛĮ": 1696,
      "Ġfo": 1697,
      "Ġus": 1698,
      "gan": 1699,
      "Ġga": 1700,
      "ĠØ§ÙĦØ§": 1701,
      "ĠÑĨ": 1702,
      "ÑĩÐ¸": 1703,
      "à½²à¼ĭ": 1704,
      "ĠIn": 1705,
      "æĪ": 1706,
      "Õ¡ÖĢ": 1707,
      "Ġà´ª": 1708,
      "áĢ¶": 1709,
      "Ġà®ļ": 1710,
      "tt": 1711,
      "áħ³áĨ«": 1712,
      "Ò¯Ò¯": 1713,
      "ÌĤÌī": 1714,
      "à¨®": 1715,
      "ãģĵ": 1716,
      "Ġà²®": 1717,
      "åľ": 1718,
      "Õµ": 1719,
      "Ġà¶¸": 1720,
      "à³Ĩà³ķ": 1721,
      "áĭį": 1722,
      "áĢ¹áĢ¸": 1723,
      "à¤¾à¤Ĥ": 1724,
      "ĠÐºÐ¾": 1725,
      "Â°": 1726,
      "áłłáł": 1727,
      "Ø±Ø¯": 1728,
      "asa": 1729,
      "Ġmin": 1730,
      "Ð¼Ð¸": 1731,
      "ĠÑĺ": 1732,
      "tr": 1733,
      "ici": 1734,
      "à¸Ńà¸ĩ": 1735,
      "Ð³Ð¸": 1736,
      "ua": 1737,
      "Ġà¤Ń": 1738,
      "à´Ļ": 1739,
      "ica": 1740,
      "Ø§Ùĩ": 1741,
      "ÙĬØ±": 1742,
      "ĠÛĮ": 1743,
      "à²®": 1744,
      "tor": 1745,
      "×Ĵ": 1746,
      "ÏĦÎ¹": 1747,
      "las": 1748,
      "ĠÐ¾ÑĤ": 1749,
      "áĢ°": 1750,
      "pi": 1751,
      "eta": 1752,
      "ÐĤ": 1753,
      "ĠÎ½": 1754,
      "ĠÐ°Ð»": 1755,
      "áŀľ": 1756,
      "Ð´Ð°Ð½": 1757,
      "ÐµÐ½Ð¸": 1758,
      "áģĭ": 1759,
      "yr": 1760,
      "ĠÃ": 1761,
      "ãģĨ": 1762,
      "áŀ¢": 1763,
      "ond": 1764,
      "Ġà¨ª": 1765,
      "ino": 1766,
      "ade": 1767,
      "ans": 1768,
      "Ġ:": 1769,
      "Ġpara": 1770,
      "ram": 1771,
      "×Ł": 1772,
      "Î»Î±": 1773,
      "Ġdat": 1774,
      "ÙĪÙħ": 1775,
      "Ġà¥¤": 1776,
      "Ġ10": 1777,
      "Ġà²¸": 1778,
      "Ġàª®": 1779,
      "ÑĪÐ¸": 1780,
      "à»Ģàº": 1781,
      "ĠÒ¯": 1782,
      "×Ŀ": 1783,
      "ĠY": 1784,
      "Ð»Ñı": 1785,
      "à½£": 1786,
      "Ġà¤¯": 1787,
      "à¶ľ": 1788,
      "Ġà¶ħ": 1789,
      "Ġut": 1790,
      "Ð°ÑĤÐ¸": 1791,
      "ĠÐ¿ÑĢÐµ": 1792,
      "Ġser": 1793,
      "ãģķ": 1794,
      "ĠÐ¿ÑĢÐ¸": 1795,
      "Ġem": 1796,
      "ila": 1797,
      "à´¸": 1798,
      "Ð¾Ñģ": 1799,
      "Ġeg": 1800,
      "isi": 1801,
      "ly": 1802,
      "áĨ¸": 1803,
      "Ð½Ð³": 1804,
      "áĪį": 1805,
      "ÑĥÑĥ": 1806,
      "áĢ²áĢ·": 1807,
      "pr": 1808,
      "ĠÑģÑĤ": 1809,
      "Ùİ": 1810,
      "áŁĤ": 1811,
      "àªŁ": 1812,
      "Ġà´ķ": 1813,
      "Õ¨": 1814,
      "ÎºÎ±": 1815,
      "Þ§": 1816,
      "à¸Ľ": 1817,
      "ãĤĴ": 1818,
      "ä¸Ģ": 1819,
      "ĠÐ±Ð¸": 1820,
      "ãĤĬ": 1821,
      "Ġkar": 1822,
      "ow": 1823,
      "oj": 1824,
      "Ġfa": 1825,
      "esti": 1826,
      "áĥļ": 1827,
      "ps": 1828,
      "Ø§Ø¹": 1829,
      "Ġà¬ķ": 1830,
      "rs": 1831,
      "Ġit": 1832,
      "Ġ7": 1833,
      "ãĥı": 1834,
      "Ġman": 1835,
      "int": 1836,
      "Ġà®ĩ": 1837,
      "ãĥŃãĤ¯": 1838,
      "ÑģÑĤÐ¸": 1839,
      "ĠÑĢÐµ": 1840,
      "ãĥĨ": 1841,
      "à¦ĩ": 1842,
      "ich": 1843,
      "Ġàª¤": 1844,
      "ach": 1845,
      "ĠÚ©ÛĮ": 1846,
      "Ġnu": 1847,
      "Ġmet": 1848,
      "áĢĸ": 1849,
      "ice": 1850,
      "Ġaf": 1851,
      "Ġ×¢": 1852,
      "à²Ł": 1853,
      "Ġvar": 1854,
      "mer": 1855,
      "áĢ®áĢ¸": 1856,
      "ĠÒ³": 1857,
      "àº»": 1858,
      "ĠáĦĥ": 1859,
      "âĢĺ": 1860,
      "aka": 1861,
      "Ø±ÙĪ": 1862,
      "Ġà¦®": 1863,
      "Ġsem": 1864,
      "àº§": 1865,
      "à¬®": 1866,
      "Ġà°ļ": 1867,
      "ĠÐĿ": 1868,
      "uz": 1869,
      "ÑįÐ½": 1870,
      "ven": 1871,
      "Ġmar": 1872,
      "Ø§ÙĤ": 1873,
      "æĹ": 1874,
      "áĪµ": 1875,
      "ĠáĦĴ": 1876,
      "ÐłÐ": 1877,
      "Ġum": 1878,
      "Õ¸ÖĤÕ´": 1879,
      "áŁĦ": 1880,
      "ãģı": 1881,
      "áŀĤ": 1882,
      "ÎµÎ¿": 1883,
      "Ġwe": 1884,
      "aj": 1885,
      "ĠÕ´": 1886,
      "à°¿à°Ĥ": 1887,
      "à¹Į": 1888,
      "Ð½Ñĸ": 1889,
      "Ø§Ø²": 1890,
      "à¸¹": 1891,
      "ÌĽÌĢ": 1892,
      "ĠÐ¸Ð·": 1893,
      "gu": 1894,
      "nu": 1895,
      "ĠÙĪØ§ÙĦ": 1896,
      "à¨£": 1897,
      "ãĤĵ": 1898,
      "Ġtha": 1899,
      "nos": 1900,
      "à¦ľ": 1901,
      "ĠâĢĺ": 1902,
      "Ġpod": 1903,
      "Ġà¨ľ": 1904,
      "que": 1905,
      "Ä§": 1906,
      "Ġay": 1907,
      "ĠÐ¾Ð±": 1908,
      "Ìģ,": 1909,
      "æĺ": 1910,
      "isa": 1911,
      "áĦĤáħ³áĨ«": 1912,
      "ĠáĦĭáħµ": 1913,
      "ĠáĥĴ": 1914,
      "Ġ'": 1915,
      "Ġà²ķ": 1916,
      "Ġpol": 1917,
      "áŀ¼": 1918,
      "Ġà¦ı": 1919,
      "ĠÑģÑĥ": 1920,
      "Õ¸ÖĤÕ©": 1921,
      "ori": 1922,
      "ĠáĦĩ": 1923,
      "ãĤ¦": 1924,
      "à¶´": 1925,
      "jen": 1926,
      "Ġàªľ": 1927,
      "Õ¥Õ¬": 1928,
      "ry": 1929,
      "Ġpas": 1930,
      "ÑħÐ¸": 1931,
      "ami": 1932,
      "val": 1933,
      "ĠÐ±Ð°": 1934,
      "Ġmem": 1935,
      "áĢĨ": 1936,
      "Õ«Õ": 1937,
      "ith": 1938,
      "Ġà¬¸": 1939,
      "à¬²": 1940,
      "Ġby": 1941,
      "ĠàªĽ": 1942,
      "Ġsh": 1943,
      "ÑĢÑĭ": 1944,
      "àµģà´Ĥ": 1945,
      "Ġbir": 1946,
      "so": 1947,
      "ĠÚ©ÛĴ": 1948,
      "ora": 1949,
      "Ġmas": 1950,
      "ĠÑĤÐ°": 1951,
      "ĠØ²": 1952,
      "áĪĿ": 1953,
      "lan": 1954,
      "lig": 1955,
      "à¥ĩà¤Ĥ": 1956,
      "Õ¡ÖĢÕ": 1957,
      "men": 1958,
      "ĠÐ²Ð°": 1959,
      "ÐºÑĸ": 1960,
      "ÐµÐ·": 1961,
      "han": 1962,
      "Ð¸ÑĤÐµ": 1963,
      "Ð´Ñĥ": 1964,
      "tic": 1965,
      "Ġles": 1966,
      "Ġed": 1967,
      "Ġhet": 1968,
      "oni": 1969,
      "Ġà®¨": 1970,
      "tem": 1971,
      "),": 1972,
      "ÑĢÐ°Ð½": 1973,
      "Ġ8": 1974,
      "Ġpra": 1975,
      "à¦Ľ": 1976,
      "à¨µ": 1977,
      "ista": 1978,
      "Ġà°¨": 1979,
      "ym": 1980,
      "ĠØ§ÙĦØª": 1981,
      "ãģį": 1982,
      "áĦĴáħ¡": 1983,
      "ÏĦÎ±": 1984,
      "ĠÐĶ": 1985,
      "ui": 1986,
      "à¨ľ": 1987,
      "Ġuz": 1988,
      "ãĥ¬": 1989,
      "ĠáĦĨ": 1990,
      "ato": 1991,
      "ĠÐŀ": 1992,
      "ÉĻn": 1993,
      "una": 1994,
      "ÑģÐ¿": 1995,
      "à¸Ĥ": 1996,
      "Ġà¬ª": 1997,
      "ÐĿ": 1998,
      "å¹": 1999,
      "à¤¥": 2000,
      "Ġ0": 2001,
      "Ġaz": 2002,
      "à±Ĥ": 2003,
      "red": 2004,
      "Ġest": 2005,
      "ĠÎ³": 2006,
      "Ġà¨¤": 2007,
      "uri": 2008,
      "Ġinter": 2009,
      "áĥĶáĥļ": 2010,
      "à¦Ĺ": 2011,
      "ĠÃ¾": 2012,
      "áĥĽ": 2013,
      "Ð´Ñĸ": 2014,
      "Ó©ÑĢ": 2015,
      "áĨ»": 2016,
      "Ġ.": 2017,
      "Ġab": 2018,
      "Ġà¨®": 2019,
      "áĥĲáĥĽ": 2020,
      "è¿": 2021,
      "à¯ĩà®¾": 2022,
      "ãģ£": 2023,
      "Ò±": 2024,
      "Ġà¨ħ": 2025,
      "Ġáīł": 2026,
      "ÑĽ": 2027,
      "ĠÐ±Ð°Ð¸": 2028,
      "ĠàªĨ": 2029,
      "Î¾Î±": 2030,
      "Ġtre": 2031,
      "àŃŁ": 2032,
      "Ġkon": 2033,
      "aga": 2034,
      "Ġà¦¹": 2035,
      "Ġ,": 2036,
      "ett": 2037,
      "Ð»Ñĸ": 2038,
      "áĥĵ": 2039,
      "zo": 2040,
      "unt": 2041,
      "Ġà®İ": 2042,
      "ĠÕ¸": 2043,
      "ÑĩÐ°": 2044,
      "ãĤĤ": 2045,
      "ĠÎ¿": 2046,
      "Ð»Ðµ": 2047,
      "ÑįÑĢ": 2048,
      "áł¤": 2049,
      "à¸³": 2050,
      "áħ³áĨ¯": 2051,
      "Ġà¦¨": 2052,
      "000": 2053,
      "tik": 2054,
      "à¨ļ": 2055,
      "Ð·Ð¸": 2056,
      "ll": 2057,
      "Ðļ": 2058,
      "Ð°ÑĢÐ°": 2059,
      "å¥": 2060,
      "ÚĨ": 2061,
      "ĠØµ": 2062,
      "Ġàªħ": 2063,
      "man": 2064,
      "Ø§Ø¡": 2065,
      "sta": 2066,
      "åĽ": 2067,
      "ft": 2068,
      "Ġà¶¯": 2069,
      "×¦": 2070,
      "ĠâĢŀ": 2071,
      "àªª": 2072,
      "åŃ": 2073,
      "àºļ": 2074,
      "eli": 2075,
      "Ġà´µ": 2076,
      "ÏģÎ±": 2077,
      "ĠÕ¯": 2078,
      "àª£": 2079,
      "ĠÔ": 2080,
      "ken": 2081,
      "Ġhu": 2082,
      "Ġà²¨": 2083,
      "Ġtem": 2084,
      "à¦¶": 2085,
      "äºº": 2086,
      "ÑıÑĢ": 2087,
      "ĠÑģÐ¾": 2088,
      "Ġik": 2089,
      "áī½": 2090,
      "yt": 2091,
      "ĠÐ¾Ð´": 2092,
      "Î»Îµ": 2093,
      "Ð»Ñĥ": 2094,
      "Ġ9": 2095,
      "ãĤī": 2096,
      "à½Ķ": 2097,
      "ĠÄĳa": 2098,
      "amp": 2099,
      "áĦĭáħ¦": 2100,
      "Ûĩ": 2101,
      "ado": 2102,
      "Ġau": 2103,
      "Ġà¤ī": 2104,
      "ins": 2105,
      "ame": 2106,
      "ÑĨÑĮ": 2107,
      "Ġmga": 2108,
      "åĬ": 2109,
      "à¬¹": 2110,
      "du": 2111,
      "áł¢": 2112,
      "Ġres": 2113,
      "à¸ģà¸²à¸£": 2114,
      "ĠÑĤÐ¾": 2115,
      "Ġporno": 2116,
      "ÑĻ": 2117,
      "à¦¹": 2118,
      "ÙĩÙħ": 2119,
      "Ġsv": 2120,
      "ĠÐ²Ð¾": 2121,
      "ĠAn": 2122,
      "Ġà¶±": 2123,
      "ĠÕ§": 2124,
      "àª¹": 2125,
      "ert": 2126,
      "ÐºÑĤ": 2127,
      "×ķ×¨": 2128,
      "áħ¡áĨ¼": 2129,
      "ex": 2130,
      "zen": 2131,
      "ÏĦÎµ": 2132,
      "19": 2133,
      "isk": 2134,
      "ÎºÎµ": 2135,
      "Ġnie": 2136,
      "10": 2137,
      "Ġyn": 2138,
      "ev": 2139,
      "Ø¸": 2140,
      "Ġà¤ķà¤°": 2141,
      "ĠÐ£": 2142,
      "co": 2143,
      "ep": 2144,
      "Ðľ": 2145,
      "ÛĮØ¯": 2146,
      "ult": 2147,
      "ĠáĬł": 2148,
      "hat": 2149,
      "Ð°ÑĢÑĭ": 2150,
      "ÐŁ": 2151,
      "do": 2152,
      "à¨Ĺ": 2153,
      "àº¡": 2154,
      "ä¿": 2155,
      "éĩ": 2156,
      "rt": 2157,
      "Ġmat": 2158,
      "ÏĥÎ»": 2159,
      "Þĥ": 2160,
      "Ġpu": 2161,
      "Ġpag": 2162,
      "Ġà°¤": 2163,
      "bl": 2164,
      "ÎłÎ¥": 2165,
      "å¾": 2166,
      "è¦": 2167,
      "áĥľ": 2168,
      "ãĤĮ": 2169,
      "Ġny": 2170,
      "Õ¡Õ´": 2171,
      "Ġà´¸": 2172,
      "sen": 2173,
      "ãĤ³": 2174,
      "ove": 2175,
      "æī": 2176,
      "Ġju": 2177,
      "àº¥": 2178,
      "ĠÕ¥": 2179,
      "ÐµÑĪ": 2180,
      "Ġnga": 2181,
      "Ġàªµ": 2182,
      "ÛĶ": 2183,
      "ÑįÐ³": 2184,
      "Ø§ØŃ": 2185,
      "áŁĩ": 2186,
      "à¤ĸ": 2187,
      "ĠØ§Ø³Øª": 2188,
      "fa": 2189,
      "ÌĪÌģ": 2190,
      "ky": 2191,
      "å¸": 2192,
      "iu": 2193,
      "Ġà¦¦": 2194,
      "ÑĭÐ·": 2195,
      "Ġà²ħ": 2196,
      "áĢĳ": 2197,
      "ula": 2198,
      "áħª": 2199,
      "Ð¢": 2200,
      "Ö·": 2201,
      "Ġ×Ľ": 2202,
      "áĥĲáĥĵ": 2203,
      "ĠØ·": 2204,
      "Ġjo": 2205,
      "den": 2206,
      "à¸ŀ": 2207,
      "ÏģÎ¿": 2208,
      "por": 2209,
      "Â¨": 2210,
      "ĠÐ¸Ð½": 2211,
      "Ð¸Ñģ": 2212,
      "ÏģÎ¹": 2213,
      "Ġein": 2214,
      "ä¹": 2215,
      "Ð²Ð°Ð½": 2216,
      "ĠáĬ¥": 2217,
      "à¦·": 2218,
      "áł¡": 2219,
      "áĦĭáħ³áĨ¯": 2220,
      "iem": 2221,
      "ãģĳ": 2222,
      "ake": 2223,
      "ova": 2224,
      "fe": 2225,
      "Ġkas": 2226,
      "Ġbes": 2227,
      "Ġvide": 2228,
      "ĠÑģÐ°": 2229,
      "ano": 2230,
      "ÞĪ": 2231,
      "ĠØ¹ÙĦÙī": 2232,
      "ĠÐ¿ÑĢÐ°": 2233,
      "iri": 2234,
      "ht": 2235,
      "ĠØ¨Ø±": 2236,
      "ØªØ±": 2237,
      "ÏģÎµ": 2238,
      "ĠaÃ°": 2239,
      "ÑİÐ¼": 2240,
      "Ġdal": 2241,
      "ema": 2242,
      "dan": 2243,
      "cht": 2244,
      "à¨Ł": 2245,
      "ĠÑĺÐµ": 2246,
      "à¸Ĭ": 2247,
      "uma": 2248,
      "à¼į": 2249,
      "go": 2250,
      "ÑĨÐ°": 2251,
      "ito": 2252,
      "åº": 2253,
      "Ġà´ħ": 2254,
      "áĪĪ": 2255,
      "éĢ": 2256,
      "Ø§Ø´": 2257,
      "ĠAl": 2258,
      "Ġà¨ĩ": 2259,
      "ER": 2260,
      "à¯Ĩà®¾": 2261,
      "Ðŀ": 2262,
      "åį": 2263,
      "áĥ¢": 2264,
      "à®Ļ": 2265,
      "fer": 2266,
      "ĠÐ¼Ð°": 2267,
      "æĿ": 2268,
      "Ġvis": 2269,
      "à¨ª": 2270,
      "Ð¼ÐµÐ½": 2271,
      "Ġdis": 2272,
      "Ġnas": 2273,
      "ilm": 2274,
      "ÑĩÐµ": 2275,
      "ÙĪÙĬ": 2276,
      "à¬¸": 2277,
      "ÏĦÎ¿": 2278,
      "à¤Ī": 2279,
      "Â¨Ìģ": 2280,
      "Ġek": 2281,
      "à¯į.": 2282,
      "ÐµÐ³": 2283,
      "à¤Ń": 2284,
      "Ġà¬¬": 2285,
      "Ġlu": 2286,
      "Ð½Ð´": 2287,
      "Ð°Ð»Ñĭ": 2288,
      "Ġfe": 2289,
      "ãĥĬ": 2290,
      "Ġmass": 2291,
      "ike": 2292,
      "áĬĵ": 2293,
      "àŃĩà¬¾": 2294,
      "áŀ½": 2295,
      "any": 2296,
      "kl": 2297,
      "Ð°Ð»Ð¸": 2298,
      "ras": 2299,
      "Ġesc": 2300,
      "Ð°Ð½Ð°": 2301,
      "ento": 2302,
      "ret": 2303,
      "ãĥ¼ãĤ¹": 2304,
      "Ġà´¨": 2305,
      "Ġ×Ļ": 2306,
      "AN": 2307,
      "ÑĥÑĤ": 2308,
      "iko": 2309,
      "áĦīáħ¥": 2310,
      "ä¼": 2311,
      "àª¥": 2312,
      "ĠØ§ÙĦØ¹": 2313,
      "áĦĮáħµ": 2314,
      "Ġ200": 2315,
      "âĦ": 2316,
      "Ð°ÑĢÐ¸": 2317,
      "Ð²Ðµ": 2318,
      "æľī": 2319,
      "Ðĺ": 2320,
      "iy": 2321,
      "sp": 2322,
      "ÙĬØ¯": 2323,
      "ĠÞĩ": 2324,
      "Ä±r": 2325,
      "Ġà²¹": 2326,
      "tiv": 2327,
      "à«ģàªĤ": 2328,
      "è¡": 2329,
      "Ø±Ø¨": 2330,
      "Ðĳ": 2331,
      "Ġà¤¶": 2332,
      "Ð°Ð»Ð°": 2333,
      "Ð»Ð¾": 2334,
      "ĠÙħØ¹": 2335,
      "iga": 2336,
      "ime": 2337,
      "ÑįÐ»": 2338,
      "Ġoch": 2339,
      "à¶«": 2340,
      "à¦¼à§ĩ": 2341,
      "ĠÐ¼Ñĥ": 2342,
      "Ġà´®": 2343,
      "Ð°Ð»ÑĮ": 2344,
      "ren": 2345,
      "Ð°Ð½Ð´": 2346,
      "zy": 2347,
      "Ø§ÙĨÛĮ": 2348,
      "ĠÐ²ÐĤ": 2349,
      "à¹Ĥ": 2350,
      "Ġsta": 2351,
      "áĦİ": 2352,
      "ØªÙĩ": 2353,
      "eld": 2354,
      "×ĸ": 2355,
      "ÙĦÙħ": 2356,
      "Ìģ.": 2357,
      "à¬ĩ": 2358,
      "use": 2359,
      "com": 2360,
      "ÑħÑĬ": 2361,
      "ih": 2362,
      "ns": 2363,
      "àªľ": 2364,
      "Ġàª¹": 2365,
      "àªĹ": 2366,
      "Õ¸ÖĤÕ©Õµ": 2367,
      "à¸²à¸¡": 2368,
      "áĦĲ": 2369,
      "Ġgu": 2370,
      "ÑĺÐµ": 2371,
      "ÙĦÙĩ": 2372,
      "ĠÎ»": 2373,
      "ãĤ£": 2374,
      "esi": 2375,
      "Úĵ": 2376,
      "ĠÐĺ": 2377,
      "Ġmag": 2378,
      "áĥĲáĥ¡": 2379,
      "Þī": 2380,
      "Ġri": 2381,
      "Õ¡Õ¿": 2382,
      "onal": 2383,
      "vat": 2384,
      "pat": 2385,
      "àª¦": 2386,
      "éģ": 2387,
      "jem": 2388,
      "à¸²à¸ģ": 2389,
      "ĠáĢĢ": 2390,
      "áĦĢáħ©": 2391,
      "els": 2392,
      "áĥĶáĥľ": 2393,
      "ben": 2394,
      "rav": 2395,
      "ãģĪ": 2396,
      "ole": 2397,
      "ĠØ§Ø²": 2398,
      "à¸²à¸ĩ": 2399,
      "ige": 2400,
      "ÑĺÐ°": 2401,
      "ÛĮØ±": 2402,
      "Ð½Ðº": 2403,
      "áĦħáħ©": 2404,
      "oma": 2405,
      "Î¾Î½": 2406,
      "Ð±Ð¸": 2407,
      "Ġà¨²": 2408,
      "Ġà¦¤": 2409,
      "su": 2410,
      "iste": 2411,
      "ros": 2412,
      "Ġval": 2413,
      "rit": 2414,
      "Ġmer": 2415,
      "å·": 2416,
      "ĠÄĳo": 2417,
      "à³Ĥ": 2418,
      "ĠÑģÐ¿": 2419,
      "amb": 2420,
      "à²ª": 2421,
      "Ġmil": 2422,
      "Ġà»": 2423,
      "Ġpot": 2424,
      "ãģĿ": 2425,
      "ese": 2426,
      "Ġbl": 2427,
      "Î¼Îµ": 2428,
      "áĥĲáĥłáĥ": 2429,
      "Ġà²ª": 2430,
      "mas": 2431,
      "Ġà¨¬": 2432,
      "Ġmod": 2433,
      "cia": 2434,
      "Õ¸ÖĤÕ¶": 2435,
      "âĢĵ": 2436,
      "aya": 2437,
      "àº´": 2438,
      "Ġ15": 2439,
      "áĪĺ": 2440,
      "ĠSt": 2441,
      "ĠÎ¸Î±Î·": 2442,
      "kt": 2443,
      "Ġyo": 2444,
      "Ġáĥł": 2445,
      "âĢļ": 2446,
      "áŀİ": 2447,
      "zu": 2448,
      "au": 2449,
      "ÑģÐ°": 2450,
      "agi": 2451,
      "áĦĭáħ´": 2452,
      "ĠÐ±Ð¾": 2453,
      "Ð°Ð½Ñĭ": 2454,
      "áĢ·áĢº": 2455,
      "áĥĲáĥķ": 2456,
      "Ġ×¤": 2457,
      "fi": 2458,
      "ãģĤ": 2459,
      "åĨ": 2460,
      "ãģĬ": 2461,
      "×Ļ×Ļ×": 2462,
      "imo": 2463,
      "het": 2464,
      "Ġund": 2465,
      "Ġà¦ħ": 2466,
      "àª¡": 2467,
      "ÌĨ,": 2468,
      "ĥ½": 2469,
      "ÙĢ": 2470,
      "ĠQ": 2471,
      "ãģ¡": 2472,
      "ola": 2473,
      "ars": 2474,
      "à¨Ī": 2475,
      "à±ĸ": 2476,
      "à±Ĩà±ĸ": 2477,
      "ØªÛĮ": 2478,
      "Ġeta": 2479,
      "Ġmal": 2480,
      "gen": 2481,
      "áŀģ": 2482,
      "ĠMa": 2483,
      "Ġà¶Ń": 2484,
      "Þİ": 2485,
      "akan": 2486,
      "Î¼Î±": 2487,
      "à±ģ.": 2488,
      "à¸²à¸¢": 2489,
      "min": 2490,
      "à©į": 2491,
      "áī°": 2492,
      "ÑĶ": 2493,
      "oll": 2494,
      "ip": 2495,
      "xx": 2496,
      "àºª": 2497,
      "ĠÙħÛĮÚº": 2498,
      "tion": 2499,
      "ĠØĮ": 2500,
      "ĠÎ¹": 2501,
      "cha": 2502,
      "urs": 2503,
      "ãĥ¼ãĥ": 2504,
      "áħ¥áĨ«": 2505,
      "Ġà½": 2506,
      "har": 2507,
      "Î¡Îł": 2508,
      "å¤§": 2509,
      "ÏĢÎ¹": 2510,
      "ĠÑĢÐ°Ð·": 2511,
      "à®´": 2512,
      "ÑĪÐµ": 2513,
      "ÙĦÛĮ": 2514,
      "Ġtak": 2515,
      "ĠÑĤÑĥ": 2516,
      "Î¾Î·": 2517,
      "ĠDe": 2518,
      "à¶¶": 2519,
      "ÐĶ": 2520,
      "les": 2521,
      "à²¿à³ķ": 2522,
      "Õ¶Õ¥ÖĢ": 2523,
      "à°¿.": 2524,
      "ban": 2525,
      "Ð¾Ð¿": 2526,
      "Ø§Ø¬": 2527,
      "ĠÐ¾ÑĢ": 2528,
      "Ð°Ð½Ð¸": 2529,
      "à¸²à¸Ļ": 2530,
      "áĭ«": 2531,
      "ÑĤÐµÑĢ": 2532,
      "Õ½": 2533,
      "ĠÙħÙĪ": 2534,
      "ire": 2535,
      "tuk": 2536,
      "áŀī": 2537,
      "à¬ª": 2538,
      "ĠáĮ": 2539,
      "èĢ": 2540,
      "ĠÑİ": 2541,
      "Ð¼Ðµ": 2542,
      "itt": 2543,
      "Ġche": 2544,
      "olog": 2545,
      "ede": 2546,
      "Ġà²¬": 2547,
      "ÙĨØ§": 2548,
      "Ġbar": 2549,
      "ww": 2550,
      "Â½": 2551,
      "ĠÙ¾Ùĩ": 2552,
      "Ð»Ñİ": 2553,
      "Ġcho": 2554,
      "Ġsel": 2555,
      "×ķ×Ł": 2556,
      "ker": 2557,
      "ÎłÎķ": 2558,
      "Ġkun": 2559,
      "Õ´": 2560,
      "Ġ12": 2561,
      "Ġuna": 2562,
      "nya": 2563,
      "Ġkat": 2564,
      "ĠáĢŀ": 2565,
      "áĥĿáĥĽ": 2566,
      "àª¶": 2567,
      "áłŃ": 2568,
      "ãģ¤": 2569,
      "Ð¼Ð¾": 2570,
      "ĠÐ²Ð¸": 2571,
      "ĠáĢĻ": 2572,
      "Ġàª°": 2573,
      "ash": 2574,
      "Õ¾": 2575,
      "udi": 2576,
      "ÞĨ": 2577,
      "ĠX": 2578,
      "áŀĲ": 2579,
      "Ġà¤ļ": 2580,
      "Ġà·Ħ": 2581,
      "áĢ¹áĢ±": 2582,
      "Î»Î·": 2583,
      "ura": 2584,
      "à²Ĺà²³": 2585,
      "à¦¼à¦¾": 2586,
      "Ġ×©×ľ": 2587,
      "ment": 2588,
      "áĢ±áĢ¸": 2589,
      "yl": 2590,
      "ĠÎºÎ±Î¹": 2591,
      "ãģ¸": 2592,
      "à¨¬": 2593,
      "Õ¡Õ½": 2594,
      "esta": 2595,
      "Ġsl": 2596,
      "ĠÐºÑĥ": 2597,
      "ãĤŃ": 2598,
      "....": 2599,
      "ĠvÉĻ": 2600,
      "Ø¨Ø±": 2601,
      "Ã¸r": 2602,
      "ÑĭÐ½Ð´Ð°": 2603,
      "ement": 2604,
      "çī": 2605,
      "21": 2606,
      "ÛĮÚº": 2607,
      "Ġthu": 2608,
      "à¬£": 2609,
      "line": 2610,
      "var": 2611,
      "anje": 2612,
      "àºĹ": 2613,
      "ļáĥĺ": 2614,
      "à¦§": 2615,
      "ÑģÑĭ": 2616,
      "Ð¨": 2617,
      "net": 2618,
      "×ķ×ľ": 2619,
      "Ġei": 2620,
      "áĦĢáħ¡": 2621,
      "Ġce": 2622,
      "à°·": 2623,
      "Ð±Ð¾": 2624,
      "oz": 2625,
      "ue": 2626,
      "à©Ĥà©°": 2627,
      "áĦīáħµ": 2628,
      "Î¾Îµ": 2629,
      "ÑģÑĤÐ¾": 2630,
      "áĭŃ": 2631,
      "ÑĨÑĸ": 2632,
      "Ġàª¨": 2633,
      "Ġsin": 2634,
      "usi": 2635,
      "Ġà¦ķà¦°": 2636,
      "çĽ": 2637,
      "Ġ18": 2638,
      "à°ľ": 2639,
      "àµĢ": 2640,
      "ĠÐ¼Ðµ": 2641,
      "eks": 2642,
      "ãģĽ": 2643,
      "áŀł": 2644,
      "Ġatt": 2645,
      "åĩ": 2646,
      "Ġ×ĵ": 2647,
      "Ġvy": 2648,
      "à²¬": 2649,
      "áĥ®": 2650,
      "ors": 2651,
      "Ġà¶ľ": 2652,
      "ãģ²": 2653,
      "ĠÐ°ÑĢ": 2654,
      "ner": 2655,
      "Ò¯ÑĢ": 2656,
      "ãĤµ": 2657,
      "Ġmeng": 2658,
      "Ġsal": 2659,
      "IN": 2660,
      "ĠÐºÐ¸": 2661,
      "Õ¥ÖĢÕ": 2662,
      "ĠÐĵ": 2663,
      "à³Ĩà³Ĥà³ķ": 2664,
      "anc": 2665,
      "enti": 2666,
      "Ġáĥ¨": 2667,
      "Ġvel": 2668,
      "ãĥĴ": 2669,
      "×Ļ×¨": 2670,
      "Ġ|": 2671,
      "à±ģà°Ĥ": 2672,
      "ĠÛ": 2673,
      "th": 2674,
      "anda": 2675,
      "ĠáĥĵáĥĲ": 2676,
      "js": 2677,
      "ÑģÑĤÐ°": 2678,
      "ĠâĢĶ": 2679,
      "Ġchi": 2680,
      "ĠÕ¶": 2681,
      "ÑĤÑĥ": 2682,
      "ĠÐłÐ": 2683,
      "ÏĦÎ·": 2684,
      "ÛķØ±": 2685,
      "Ġà°°": 2686,
      "ĠÎºÎµ": 2687,
      "ÑģÐµ": 2688,
      "ĠÎ¾": 2689,
      "å¼": 2690,
      "à¬¥": 2691,
      "Î½Î¹": 2692,
      "ĠØ¨Ø§ÙĦ": 2693,
      "ÏĥÎ·": 2694,
      "Ð»Ñĭ": 2695,
      "Ġàª¬": 2696,
      "ĠÐ´Ðµ": 2697,
      "Ġà¤Ĺà¤°": 2698,
      "à«ĩ.": 2699,
      "Ø¹Ø¯": 2700,
      "ity": 2701,
      "ĠÐ²Ñĭ": 2702,
      "engan": 2703,
      "áī¥": 2704,
      "ãģ»": 2705,
      "ink": 2706,
      "Ġbr": 2707,
      "àŃĢ": 2708,
      "Ð¿Ñİ": 2709,
      "imi": 2710,
      "à¦ļ": 2711,
      "Ġà¹Ģà¸": 2712,
      "Ù¹": 2713,
      "Ġáĥĺ": 2714,
      "mu": 2715,
      "let": 2716,
      "ÉĻl": 2717,
      "à¦¡": 2718,
      "Ġ×ł": 2719,
      "à¾²": 2720,
      "uen": 2721,
      "áŀĴ": 2722,
      "ÑĸÐ·": 2723,
      "201": 2724,
      "Õ¡Õ¯Õ¡Õ¶": 2725,
      "Ġkor": 2726,
      "à±Ĭ": 2727,
      "áĢŀáĢĬ": 2728,
      "åĴ": 2729,
      "ied": 2730,
      "ende": 2731,
      "Ġprod": 2732,
      "Ġaut": 2733,
      "ste": 2734,
      "Ġà¤ı": 2735,
      "pos": 2736,
      "rom": 2737,
      "wo": 2738,
      "ÌĽÌī": 2739,
      "Ġvol": 2740,
      "vis": 2741,
      "ÉĻt": 2742,
      "elt": 2743,
      "Ġ/": 2744,
      "à¨¿à©±": 2745,
      "ĠÛģÛĴ": 2746,
      "Ġkont": 2747,
      "Î½Î±": 2748,
      "Ġvir": 2749,
      "ä¸į": 2750,
      "eka": 2751,
      "ĠÑĢ": 2752,
      "áĥĲáĥł": 2753,
      "ãģµ": 2754,
      "inen": 2755,
      "rad": 2756,
      "ÐµÐ½ÑĤ": 2757,
      "Ġà¦ľ": 2758,
      "ratis": 2759,
      "ÙħØ§": 2760,
      "ÎµÎ»": 2761,
      "ĠÖ": 2762,
      "Úµ": 2763,
      "Ġreg": 2764,
      "Ġini": 2765,
      "ĠÙĦÙĩ": 2766,
      "ĠÐ±Ð°ÑĢ": 2767,
      "sh": 2768,
      "à´¦": 2769,
      "à¬Ł": 2770,
      "Ġà¨°": 2771,
      "ct": 2772,
      "Þ©": 2773,
      "Ġbet": 2774,
      "Ġchu": 2775,
      "bil": 2776,
      "Ò¯Ð½": 2777,
      "Ð¾Ð´Ð¸": 2778,
      "áĢĲáĢļ": 2779,
      "áĦĭáħ¥": 2780,
      "ÉĻs": 2781,
      "Ġson": 2782,
      "vu": 2783,
      "ante": 2784,
      "Ġuntuk": 2785,
      "ĠÐ¼ÐµÐ½": 2786,
      "Ð¾Ðº": 2787,
      "æĺ¯": 2788,
      "ris": 2789,
      "Ġeen": 2790,
      "cu": 2791,
      "lub": 2792,
      "ĠÐ¼Ð¾Ð¶": 2793,
      "uh": 2794,
      "ĠÎ·Î½ÏĢ": 2795,
      "Ġtal": 2796,
      "Öī": 2797,
      "Ġcha": 2798,
      "par": 2799,
      "ĠÐ¾Ð¿": 2800,
      "ĠÎµÎ¹": 2801,
      "ĠÐ´Ð°ÑĢ": 2802,
      "Ġdin": 2803,
      "ÙĪÙĪ": 2804,
      "àº²àºĻàº": 2805,
      "Ġsch": 2806,
      "aks": 2807,
      "Ð£": 2808,
      "elo": 2809,
      "áħ¬": 2810,
      "ĠÚ©Ùĩ": 2811,
      "ĠÏĦÎ¿": 2812,
      "ÑĤÑĮ": 2813,
      "Ð½Ð±": 2814,
      "ĠCh": 2815,
      "ÙĨÛĮ": 2816,
      "Ġing": 2817,
      "áħ§áĨ«": 2818,
      "ĠPro": 2819,
      "ĠØº": 2820,
      "áŁħ": 2821,
      "Ġàªķàª°": 2822,
      "à¤³": 2823,
      "nik": 2824,
      "ĠáĢ±": 2825,
      "ä¸Ń": 2826,
      "ÐµÐ²": 2827,
      "pt": 2828,
      "Ð¾Ð»Ð¸": 2829,
      "ger": 2830,
      "Ò¯Ð¸": 2831,
      "ÑĭÑĢ": 2832,
      "ĠØªÙĪ": 2833,
      "nie": 2834,
      "ÙĦØ§": 2835,
      "Ð½Ð¸Ð¸": 2836,
      "áĥĺáĥĹ": 2837,
      "lÄ±": 2838,
      "Ġà¶¶": 2839,
      "Ġà¬®": 2840,
      "Ð¾Ð²Ð°": 2841,
      "áĪ¨": 2842,
      "ÑĥÐ´": 2843,
      "son": 2844,
      "×Ļ×ª": 2845,
      "ÓĻÑĢ": 2846,
      "ÙĲ": 2847,
      "Ó©Ð½": 2848,
      "Ġali": 2849,
      "áĭµ": 2850,
      "Õ¯": 2851,
      "âĦ¢": 2852,
      "alar": 2853,
      "ĠÙ¾Ø±": 2854,
      "tir": 2855,
      "ÙħÙĦ": 2856,
      "ĠÎ²": 2857,
      "ĨÐł": 2858,
      "Ðĵ": 2859,
      "30": 2860,
      "Ġbas": 2861,
      "Ġgen": 2862,
      "ĠØ§ÙĦØ³": 2863,
      "land": 2864,
      "Ġjed": 2865,
      "à²£": 2866,
      "à·ħ": 2867,
      "oli": 2868,
      "áĤĶ": 2869,
      "Ġmis": 2870,
      "alo": 2871,
      "Ġfu": 2872,
      "Ġpen": 2873,
      "à°¬": 2874,
      "æ°": 2875,
      "ĠMar": 2876,
      "zer": 2877,
      "chen": 2878,
      "Ġwat": 2879,
      "Ø¨ÙĬ": 2880,
      "å¿": 2881,
      "Ġraz": 2882,
      "ĠÐ¥": 2883,
      "å¯": 2884,
      "ĠÑģÐ¸": 2885,
      "áĥĹ": 2886,
      "ĠáĢĲ": 2887,
      "ose": 2888,
      "Î¹Î¹": 2889,
      "ÑİÐº": 2890,
      "Ġescort": 2891,
      "yk": 2892,
      "Ġhi": 2893,
      "Ġkho": 2894,
      "à´·": 2895,
      "Ġà¤ªà¤°": 2896,
      "Ġfin": 2897,
      "ÑĥÑģ": 2898,
      "ãĥ£": 2899,
      "ĠØ§ÙĦØŃ": 2900,
      "Ġà¨ī": 2901,
      "áĦĤáħµ": 2902,
      "Ð±Ð°": 2903,
      "Ð½Ð¿": 2904,
      "Ġpat": 2905,
      "led": 2906,
      "jer": 2907,
      "ÐµÑĢÐ¸": 2908,
      "Ġà¶ĳ": 2909,
      "à¥ĭà¤Ĥ": 2910,
      "ces": 2911,
      "ĠáĢķ": 2912,
      "ÛĮÚ©": 2913,
      "ÑĸÐ»": 2914,
      "áĭ°": 2915,
      "ĠáĪĺ": 2916,
      "æĢ": 2917,
      "ÑĤÐ°ÑĢ": 2918,
      "ÏĢÎ¿": 2919,
      "ÑļÐµ": 2920,
      "àº·": 2921,
      "åĳ": 2922,
      "eti": 2923,
      "áĦĴáħ¢": 2924,
      "áĮĪ": 2925,
      "ÙĩØ±": 2926,
      "ĠÚ©Ø±": 2927,
      "àºŃàºĩ": 2928,
      "aren": 2929,
      "Î·Î·": 2930,
      "àª§": 2931,
      "amo": 2932,
      "Ġdar": 2933,
      "12": 2934,
      "ĠØ¨Ø§": 2935,
      "Ġdengan": 2936,
      "ãĥ¡": 2937,
      "Ġher": 2938,
      "Ġgr": 2939,
      "ÙĨÙī": 2940,
      "áĥĿáĥĳ": 2941,
      "ĠØ±Ø§": 2942,
      "Ġà²µ": 2943,
      "ÌĨ.": 2944,
      "ÙĪØ§": 2945,
      "ĠáĢľ": 2946,
      "à»į": 2947,
      "æŃ": 2948,
      "50": 2949,
      "×¢×¨": 2950,
      "ÑĸÐ´": 2951,
      "ĠÑĢÐ¾": 2952,
      "ãĤĪ": 2953,
      "pre": 2954,
      "ĠÎ¼Îµ": 2955,
      "à¦ĸ": 2956,
      "ÑĩÑĭ": 2957,
      "ings": 2958,
      "ĠÄĳe": 2959,
      "ÑĸÑĢ": 2960,
      "Ġprost": 2961,
      "ÐµÐ»ÑĮ": 2962,
      "ira": 2963,
      "orm": 2964,
      "ÐºÐµ": 2965,
      "Ġkw": 2966,
      "ÙĨÙĬ": 2967,
      "kin": 2968,
      "à¦¥": 2969,
      "ÑģÑĤÐ²": 2970,
      "à¸¥à¸°": 2971,
      "ien": 2972,
      "nt": 2973,
      "ÑĪÐ°": 2974,
      "Ð³Ñĥ": 2975,
      "à¸£à¸°": 2976,
      "Ġtur": 2977,
      "angan": 2978,
      "Ġà®İà®©": 2979,
      "Ø±Ùģ": 2980,
      "ĠÑī": 2981,
      "Ġ30": 2982,
      "à¦£": 2983,
      "----": 2984,
      "Î¸Îµ": 2985,
      "ÉĻk": 2986,
      "ĠÐĹ": 2987,
      "ES": 2988,
      "ĠØ§ÙĪØ±": 2989,
      "lic": 2990,
      "yon": 2991,
      "Ġsie": 2992,
      "ÙĪÚº": 2993,
      "Ġent": 2994,
      "æĪĳ": 2995,
      "ĠÕ¡Õ": 2996,
      "Ġfre": 2997,
      "ÑĨÐ¸Ñı": 2998,
      "æķ": 2999,
      "olo": 3000,
      "Î½Î¿": 3001,
      "áĦĥáħ©": 3002,
      "à»ģ": 3003,
      "Ġà¤Ľ": 3004,
      "tra": 3005,
      "à¤ł": 3006,
      "àº«": 3007,
      "à²·": 3008,
      "elle": 3009,
      "åľ¨": 3010,
      "à¸·à¹Ī": 3011,
      "ÑĥÐ¼": 3012,
      "ket": 3013,
      "ĠÏĦÎ¿Ïħ": 3014,
      "ome": 3015,
      "à¦Ĥ": 3016,
      "ĠáĦİ": 3017,
      "à¯Ģ": 3018,
      "à½Ĥà½¦": 3019,
      "ĠNe": 3020,
      "à¬¦": 3021,
      "à¸¶": 3022,
      "ãĥŀ": 3023,
      "ãģ¿": 3024,
      "Ä±s": 3025,
      "Ð½Ñĥ": 3026,
      "Ð½Ð¸Ð½Ð³": 3027,
      "aman": 3028,
      "à®ªà®Ł": 3029,
      "à²¹": 3030,
      "ãĤª": 3031,
      "åĵ": 3032,
      "à»ĥ": 3033,
      "Ġà°Ĩ": 3034,
      "Ġtie": 3035,
      "à¸Ńà¸Ļ": 3036,
      "Ġnhu": 3037,
      "âĢŀ": 3038,
      "eko": 3039,
      "ÌĽÌĥ": 3040,
      "à¨¡": 3041,
      "Ġnha": 3042,
      "tim": 3043,
      "Ðķ": 3044,
      "éĽ": 3045,
      "Ġmassage": 3046,
      "Ġtro": 3047,
      "inger": 3048,
      "Ġtid": 3049,
      "ĠLe": 3050,
      "Ġur": 3051,
      "ĠÑĤÐ°Ðº": 3052,
      "Ó©Ð»": 3053,
      "ÑģÐºÐ¸": 3054,
      "åĢ": 3055,
      "ÐµÑĤÐ¾": 3056,
      "ÞĮ": 3057,
      "jek": 3058,
      "ĠÎºÎ±": 3059,
      "à³Ĩ.": 3060,
      "ÎºÎ¿": 3061,
      "èĩ": 3062,
      "adh": 3063,
      "ĠÐºÐ¾Ð¼": 3064,
      "áĥĲáĥļ": 3065,
      "×ķ×ł": 3066,
      "Ð°ÑĤÑĮ": 3067,
      "van": 3068,
      "ÑĢÑħ": 3069,
      "ĠÐ°Ð¸": 3070,
      "oto": 3071,
      "Ġtar": 3072,
      "×Ļ×ł": 3073,
      "ĠáĦĤ": 3074,
      "EN": 3075,
      "à¸ĸ": 3076,
      "Ø§Ø±ÛĮ": 3077,
      "Ġmeg": 3078,
      "tig": 3079,
      "Ġà¨Ĺ": 3080,
      "à¶©": 3081,
      "Ġnak": 3082,
      "Ð°Ñħ": 3083,
      "Ø¯Ùĩ": 3084,
      "pu": 3085,
      "Ġà¨ķà¨°": 3086,
      "fic": 3087,
      "ĠØ§ÛĮÙĨ": 3088,
      "ĠÏħ": 3089,
      "ãĤģ": 3090,
      "Ġà¤ĩ": 3091,
      "Ġ×Ĵ": 3092,
      "ÙĬÙĦ": 3093,
      "áł¨": 3094,
      "ĠÄĳu": 3095,
      "Ð°ÒĽ": 3096,
      "Ġdos": 3097,
      "Ġnag": 3098,
      "emb": 3099,
      "áŀĹ": 3100,
      "æĻ": 3101,
      "aran": 3102,
      "áĦĮáħ¥": 3103,
      "Ġkur": 3104,
      "ĠØ§ÙĦØ¬": 3105,
      "AR": 3106,
      "ero": 3107,
      "à¹Ģà¸¥": 3108,
      "à¹Ħà¸Ķ": 3109,
      "Ð´Ð¾": 3110,
      "Ġgod": 3111,
      "hie": 3112,
      "ØªÙħ": 3113,
      "à¦Ń": 3114,
      "Ġà®ī": 3115,
      "ÒĵÑĭ": 3116,
      "Ġnon": 3117,
      "ÙĨÙĩ": 3118,
      "ĠLa": 3119,
      "ç»": 3120,
      "Ð°Ð¿": 3121,
      "Ġà´¤": 3122,
      "ando": 3123,
      "áĬĲ": 3124,
      "à¹Ģà¸Ľ": 3125,
      "æĹ¥": 3126,
      "áĦĳ": 3127,
      "áĪ«": 3128,
      "Õ¥Õ¶": 3129,
      "Ġáĥ¡áĥĲáĥ": 3130,
      "Ġpla": 3131,
      "ĠÏĢÎ±": 3132,
      "áĦīáħ³": 3133,
      "ÙĪÛĮ": 3134,
      "Ð³Ðµ": 3135,
      "ĠÑĤÐµ": 3136,
      "Ð½Ð¼": 3137,
      "å±": 3138,
      "att": 3139,
      "Ġvideo": 3140,
      "åĮ": 3141,
      "ĠÎłÎ": 3142,
      "vel": 3143,
      "à¬Ļ": 3144,
      "Î½Î·": 3145,
      "áĥĶáĥ¡": 3146,
      "è¨": 3147,
      "ÑģÑĤÐ°Ð½": 3148,
      "rz": 3149,
      "àµ½": 3150,
      "à¤ģ": 3151,
      "ille": 3152,
      "Ġero": 3153,
      "áĥłáĥ": 3154,
      "áĥĶáĥĳáĥĺáĥ¡": 3155,
      "à¥ĩ.": 3156,
      "Ð´Ð°ÑĢ": 3157,
      "ãģ¾ãģĻ": 3158,
      "ãĥĺ": 3159,
      "Ġkr": 3160,
      "áĦĴáħ¡áĨ«": 3161,
      "Ġsm": 3162,
      "Ġ11": 3163,
      "fo": 3164,
      "áĮį": 3165,
      "22": 3166,
      "áĦĭáħ³áĨ«": 3167,
      "ĠÚ©ÙĪ": 3168,
      "gram": 3169,
      "ÑįÐ¼": 3170,
      "ÒĵÐ°Ð½": 3171,
      "à°§": 3172,
      "iss": 3173,
      "AL": 3174,
      "aliz": 3175,
      "chi": 3176,
      "ÑıÑĤ": 3177,
      "áĦħáħµ": 3178,
      "pro": 3179,
      "Ġsek": 3180,
      "Ġinfor": 3181,
      "Ð¾Ð»ÑĮ": 3182,
      "Ø¯Ø§": 3183,
      "ĠÏĦÎ·": 3184,
      "Ġup": 3185,
      "inu": 3186,
      "ÑģÑĮ": 3187,
      "áĢŃáĢ¯áĢ·": 3188,
      "iki": 3189,
      "Ġàªı": 3190,
      "Ġ×Ķ×ŀ": 3191,
      "ä¸Ĭ": 3192,
      "ç§": 3193,
      "áł¯": 3194,
      "Ġà¤ĸ": 3195,
      "ÙĪÙĩ": 3196,
      "ÑĨÑĭ": 3197,
      "¨áĥĺ": 3198,
      "org": 3199,
      "ÏĢÎ·": 3200,
      "ĠØ³ÛĴ": 3201,
      "áŁĶ": 3202,
      "ãĥĥãĥĪ": 3203,
      "Ġà°ī": 3204,
      "ws": 3205,
      "à¨ĸ": 3206,
      "nes": 3207,
      "Ġ..": 3208,
      "áĪĽ": 3209,
      "è¯": 3210,
      "Ã¦r": 3211,
      "Ġwas": 3212,
      "Õ¸Õ¾": 3213,
      "ĠÙħØŃ": 3214,
      "Õ¡Öģ": 3215,
      "ãĤĦ": 3216,
      "à¹ĥà¸«": 3217,
      "ĠØ§Ùħ": 3218,
      "urg": 3219,
      "ĠÐ´Ð¸": 3220,
      "Ġà¶½": 3221,
      "Â·": 3222,
      "Ùĭ": 3223,
      "àµĤ": 3224,
      "ÑĪÑĭ": 3225,
      "áīł": 3226,
      "Ġsy": 3227,
      "æĬ": 3228,
      "à°¶": 3229,
      "ÑİÐ¿": 3230,
      "wn": 3231,
      "à¯Ĥ": 3232,
      "ande": 3233,
      "nih": 3234,
      "Õ¡Õ®": 3235,
      "àµ¼": 3236,
      "ase": 3237,
      "æĦ": 3238,
      "Ġhal": 3239,
      "Ġtran": 3240,
      "ĠÙĦÙĦ": 3241,
      "Ġ14": 3242,
      "11": 3243,
      "éĸ": 3244,
      "Ġdhe": 3245,
      "å¹´": 3246,
      "Ø§Ùĥ": 3247,
      "Ġlos": 3248,
      "une": 3249,
      "ĠÐ¾Ð½": 3250,
      "Ð½Ð¾Ð³Ð¾": 3251,
      "ÑħÑĢ": 3252,
      "ÒĵÐ°": 3253,
      "ĠNa": 3254,
      "este": 3255,
      "ĠÐ½Ð¸": 3256,
      "à«Ĥ": 3257,
      "à¤°à¤ķ": 3258,
      "ÙĪØ¨": 3259,
      "asta": 3260,
      "lad": 3261,
      "ĠÎĳ": 3262,
      "Ġall": 3263,
      "Ġker": 3264,
      "Ġà´İ": 3265,
      "Ġ×ĸ": 3266,
      "ãĥ»": 3267,
      "dir": 3268,
      "à¹ĥà¸Ļ": 3269,
      "eme": 3270,
      "Þģ": 3271,
      "azi": 3272,
      "jed": 3273,
      "alt": 3274,
      "äºĨ": 3275,
      "fr": 3276,
      "iku": 3277,
      "éĻ": 3278,
      "jon": 3279,
      "ãĥĽ": 3280,
      "áĭ²": 3281,
      "Ġkad": 3282,
      "ÎºÎ·": 3283,
      "ix": 3284,
      "ĠÕ«": 3285,
      "áĥĺáĥľ": 3286,
      "Ø¯Ø±": 3287,
      "áĪĭ": 3288,
      "áħ®áĨ«": 3289,
      "Ġ×Ĺ": 3290,
      "anya": 3291,
      "ĠáĥĻ": 3292,
      "Î¾Î¹": 3293,
      "Ġàªħàª¨": 3294,
      "Ġmoz": 3295,
      "unk": 3296,
      "å½": 3297,
      "Ð¾ÑĢÐ¸": 3298,
      "à¬³": 3299,
      "Î¼Î¹": 3300,
      "Î·Î±Î·": 3301,
      "Ġà¦¯": 3302,
      "ĠÕº": 3303,
      "ÛĮÙħ": 3304,
      "Ġmit": 3305,
      "ØªÙĬ": 3306,
      "àºķ": 3307,
      "à®µà®°": 3308,
      "Ġà°ĩ": 3309,
      "Ġdit": 3310,
      "ãĥ¥": 3311,
      "ull": 3312,
      "Ġ×§": 3313,
      "ÐµÑĤÐµ": 3314,
      "Ġ×Ĳ×ª": 3315,
      "mat": 3316,
      "ä»¥": 3317,
      "oda": 3318,
      "ÏĢÎµ": 3319,
      "è®": 3320,
      "×ķ×ĵ": 3321,
      "Ġsig": 3322,
      "áŀ¶áŁĨ": 3323,
      "Ġpha": 3324,
      "Ġagus": 3325,
      "Ð½Ð¾ÑģÑĤ": 3326,
      "ĠAr": 3327,
      "Ġgratis": 3328,
      "ĠSa": 3329,
      "ĠáĢĽ": 3330,
      "à¤¼": 3331,
      "Ġye": 3332,
      "ette": 3333,
      "à¦ĵ": 3334,
      "ï¼ļ": 3335,
      "ĠÕ¿": 3336,
      "oh": 3337,
      "áģĬ": 3338,
      "ÙħÙĨ": 3339,
      "çľ": 3340,
      "Õ¸Õ²": 3341,
      "Ð½ÑĭÑħ": 3342,
      "áĥĲáĥª": 3343,
      "Ġnaj": 3344,
      "its": 3345,
      "à¶°": 3346,
      "ãĤ¨": 3347,
      "ãĥģ": 3348,
      "æĶ": 3349,
      "Ġji": 3350,
      "Ùı": 3351,
      "éĿ": 3352,
      "à©ĭà¨Ĥ": 3353,
      "Ġpres": 3354,
      "Ġ16": 3355,
      "ds": 3356,
      "Ġdem": 3357,
      "aki": 3358,
      "ule": 3359,
      "ure": 3360,
      "Ġsw": 3361,
      "Õ¡Õ¾": 3362,
      "ude": 3363,
      "Ð»ÐµÐº": 3364,
      "Ì¨,": 3365,
      "yan": 3366,
      "Ġez": 3367,
      "port": 3368,
      "åĩº": 3369,
      "Ġà¤Ĩà¤¹": 3370,
      "Ö¸": 3371,
      "Ø±Ùĩ": 3372,
      "à¤Ľ": 3373,
      "nen": 3374,
      "áĦĢáħµ": 3375,
      "igh": 3376,
      "ĠáĥĹ": 3377,
      "à·Ļà·ıà·Ĭ": 3378,
      "ĠÐ¿Ð¾Ð´": 3379,
      "ank": 3380,
      "ãĥĥãĤ¯": 3381,
      "enta": 3382,
      "æ³": 3383,
      "áĦħáħ³áĨ¯": 3384,
      "ÑģÐ»": 3385,
      "edi": 3386,
      "Ð¥": 3387,
      "åĺ": 3388,
      "ç´": 3389,
      "à¤«": 3390,
      "à¤ıà¤ķ": 3391,
      "akt": 3392,
      "cial": 3393,
      "áŀļáŀĶ": 3394,
      "Ġnem": 3395,
      "Ġgra": 3396,
      "lin": 3397,
      "ĠÐ³Ñį": 3398,
      "ĠØ§ÙĦÙģ": 3399,
      "Î¶Î·": 3400,
      "ego": 3401,
      "Ġnje": 3402,
      "Ġà¹ģ": 3403,
      "ÑĢÐ°Ð²": 3404,
      "pres": 3405,
      "dy": 3406,
      "ØªÙī": 3407,
      "Õ¤": 3408,
      "Õ¸ÖĢ": 3409,
      "vers": 3410,
      "Ġà¤¸à¤®": 3411,
      "áĪļ": 3412,
      "leg": 3413,
      "ÞĲ": 3414,
      "áŀķ": 3415,
      "Ġtek": 3416,
      "ÑĭÐ¼": 3417,
      "Ġsvo": 3418,
      "Ġmus": 3419,
      "Ġmai": 3420,
      "áĢ¯áĢ¶": 3421,
      "ãĥĭ": 3422,
      "jes": 3423,
      "ĠRe": 3424,
      "Ġmak": 3425,
      "Ġàª²": 3426,
      "sz": 3427,
      "hol": 3428,
      "áĨº": 3429,
      "Ġ×¨": 3430,
      "å¥½": 3431,
      "à²ļ": 3432,
      "Ġind": 3433,
      "Ġà§": 3434,
      "ĠÚ©Ûģ": 3435,
      "ĠÏĨ": 3436,
      "Ġà²¤": 3437,
      "àª¬": 3438,
      "çĶ¨": 3439,
      "ÛķÙĪ": 3440,
      "ĠÙħØ§": 3441,
      "anja": 3442,
      "áħ§áĨ¼": 3443,
      "Ġinc": 3444,
      "Ġseg": 3445,
      "âĢĶ": 3446,
      "kom": 3447,
      "ĠSe": 3448,
      "jet": 3449,
      "pis": 3450,
      "ott": 3451,
      "Ð»Ð¸Ðº": 3452,
      "Ġnet": 3453,
      "Ġgia": 3454,
      "Ġste": 3455,
      "Ġnov": 3456,
      "nic": 3457,
      "Ġbel": 3458,
      "ÚŃ": 3459,
      "Ġbat": 3460,
      "Ġà¦Ĺ": 3461,
      "ĠÎ·Î½": 3462,
      "ĠÎ±ÏĢÎ¿": 3463,
      "yi": 3464,
      "ÐºÑĬ": 3465,
      "ĠÐ°Ð´": 3466,
      "Ð³Ñĸ": 3467,
      "è²": 3468,
      "ĠÐķ": 3469,
      "ĠÑģÐ°Ð¼": 3470,
      "lÉĻr": 3471,
      "Ġà¦ļ": 3472,
      "áŀ¹": 3473,
      "Ġà°¦": 3474,
      "à²¦à²°": 3475,
      "áī³": 3476,
      "Ġáŀĵ": 3477,
      "Ġsc": 3478,
      "Ġsed": 3479,
      "Ä±nÄ±": 3480,
      "Ø§Ø®": 3481,
      "Ġà¨Ĩ": 3482,
      "Ġà¬ı": 3483,
      "Ġàª¦": 3484,
      "ĠÙĩÙħ": 3485,
      "ãĤı": 3486,
      "Ġà°²": 3487,
      "Ġok": 3488,
      "ode": 3489,
      "Ġà²Ĩ": 3490,
      "idh": 3491,
      "vor": 3492,
      "à½¼à¼ĭ": 3493,
      "ĠÐ¨": 3494,
      "Ġhai": 3495,
      "Ġ100": 3496,
      "âĢĿ.": 3497,
      "yg": 3498,
      "åķ": 3499,
      "mis": 3500,
      "à¬ľ": 3501,
      "ĠÎ½Î±": 3502,
      "Ġonline": 3503,
      "à¸ľ": 3504,
      "ĠÑĪÑĤÐ¾": 3505,
      "Ð¼Ñĥ": 3506,
      "vid": 3507,
      "Ġkam": 3508,
      "Ġà¦¶": 3509,
      "àª³": 3510,
      "àºį": 3511,
      "ÛķÚ©": 3512,
      "alan": 3513,
      "ilo": 3514,
      "áĢºáģĭ": 3515,
      "nost": 3516,
      "atur": 3517,
      "à¬Ĺ": 3518,
      "à¬Ľ": 3519,
      "Ð°ÑĤÑĭ": 3520,
      "ÑĺÑĥ": 3521,
      "ĠÐ¼Ð¸": 3522,
      "ats": 3523,
      "à¸±à¹ī": 3524,
      "ÑĤÑĸ": 3525,
      "à¸Ńà¸¢": 3526,
      "Ø§Øµ": 3527,
      "ĠÎĶ": 3528,
      "áĢĺ": 3529,
      "æł": 3530,
      "ern": 3531,
      "×ķ×ĳ": 3532,
      "Ġà¬ķà¬°": 3533,
      "Ò·": 3534,
      "ä¾": 3535,
      "uv": 3536,
      "Ġ13": 3537,
      "ald": 3538,
      "Õ¸ÖĢÕ": 3539,
      "ydd": 3540,
      "hen": 3541,
      "ä¿Ĥ": 3542,
      "ĠÐ°Ð·": 3543,
      "æĥ": 3544,
      "Ġkol": 3545,
      "ÑģÑĥ": 3546,
      "áĥĶáĥł": 3547,
      "nosti": 3548,
      "Ġà²ĩ": 3549,
      "Ġyou": 3550,
      "Ġà¬¨": 3551,
      "à¶Ĥ": 3552,
      "ON": 3553,
      "à¬·": 3554,
      "Ġaan": 3555,
      "ĠThe": 3556,
      "jas": 3557,
      "Ġà°¬": 3558,
      "ĠÐºÐ°": 3559,
      "è¦ģ": 3560,
      "tre": 3561,
      "wi": 3562,
      "Ġdig": 3563,
      "Â²": 3564,
      "23": 3565,
      "åİ": 3566,
      "ĠÕ£": 3567,
      "à¶ºà¶ļ": 3568,
      "ÐµÐ½Ð¸Ñı": 3569,
      "ÏīÎ½": 3570,
      "áħ¡áĨ¯": 3571,
      "ÙĦØ§Ùħ": 3572,
      "Ġsz": 3573,
      "Î´Îµ": 3574,
      "à´ŀ": 3575,
      "Õ¥Õ¿": 3576,
      "Ġorgan": 3577,
      "Ġtri": 3578,
      "Ġáĥŀ": 3579,
      "Ġist": 3580,
      "bet": 3581,
      "ÙĪÙĤ": 3582,
      "isti": 3583,
      "Î¹Îµ": 3584,
      "ÑĬÑĢ": 3585,
      "ĠÐºÑħÐ¼": 3586,
      "Þį": 3587,
      "Ġdol": 3588,
      "àºµà»Ī": 3589,
      "inin": 3590,
      "Ġáģ": 3591,
      "fu": 3592,
      "ĠÙĦØ§": 3593,
      "à½¡": 3594,
      "Ġà°Ĺ": 3595,
      "à¸ĵ": 3596,
      "Ġ17": 3597,
      "Ġkoji": 3598,
      "à¤ĩ": 3599,
      "à·ģ": 3600,
      "ÏĪÎ»": 3601,
      "Ġbol": 3602,
      "Ġrec": 3603,
      "à½ºà¼ĭ": 3604,
      "ĠÐºÐ°ÑĢ": 3605,
      "è§": 3606,
      "×Ļ×ľ": 3607,
      "ÓĻÐ½": 3608,
      "Ġmes": 3609,
      "apa": 3610,
      "áį¡": 3611,
      "Ġgi": 3612,
      "ÐĽ": 3613,
      "ĠØªØ±": 3614,
      "åī": 3615,
      "ĠØ¹ÙĨ": 3616,
      "ÑĨÐµ": 3617,
      "lam": 3618,
      "wer": 3619,
      "Ġpi": 3620,
      "ĠáĥĶ": 3621,
      "×ķ×Ĳ": 3622,
      "æİ": 3623,
      "Ġef": 3624,
      "Ġà¤«": 3625,
      "Ø³ÛĮ": 3626,
      "her": 3627,
      "nog": 3628,
      "Ġwith": 3629,
      "ĠÐ±ÐµÑĢ": 3630,
      "âĢĿ,": 3631,
      "ÑİÐ¸": 3632,
      "ĠÐ½ÑĮ": 3633,
      "Ø³ÙĬ": 3634,
      "Ġdon": 3635,
      "à²ľ": 3636,
      "àºŀ": 3637,
      "Ġsec": 3638,
      "Ġnam": 3639,
      "à»Ħ": 3640,
      "ĠÐ¿Ð°": 3641,
      "__": 3642,
      "Ġngu": 3643,
      "Ġfac": 3644,
      "à°£": 3645,
      "als": 3646,
      "Ð»Ð°ÑĢÐ¸": 3647,
      "bas": 3648,
      "ÑĭÒ£": 3649,
      "èµ": 3650,
      "ÑįÑħ": 3651,
      "Ð¶Ð¸": 3652,
      "ÑģÑĤÐ°Ð²": 3653,
      "åĪ°": 3654,
      "à½´à¼ĭ": 3655,
      "Ġkap": 3656,
      "à¯į,": 3657,
      "Ġsur": 3658,
      "Ùĳ": 3659,
      "àªĪ": 3660,
      "ĠÙħØ±": 3661,
      "Ġprof": 3662,
      "ÐµÐ½Ð¸Ðµ": 3663,
      "àºĽ": 3664,
      "cija": 3665,
      "Ġleg": 3666,
      "Ð¾Ð½Ð¸": 3667,
      "Ġhel": 3668,
      "à°³": 3669,
      "ÙħØ¯": 3670,
      "dz": 3671,
      "ĠÐºÐ¾Ð½": 3672,
      "Ð¾Ð²Ð¸": 3673,
      "Ġuk": 3674,
      "Ġlang": 3675,
      "ĠÕ¤": 3676,
      "×ļ": 3677,
      "ÙĪØ§ÙĨ": 3678,
      "Ġthat": 3679,
      "osi": 3680,
      "Ġru": 3681,
      "àºĤ": 3682,
      "mar": 3683,
      "Ġsen": 3684,
      "Ġkal": 3685,
      "à§ĩà¥¤": 3686,
      "Ġlas": 3687,
      "Ð»Ð°Ð½": 3688,
      "ĠÙħØ´": 3689,
      "çĶŁ": 3690,
      "wan": 3691,
      "Ġà²İ": 3692,
      "rac": 3693,
      "Ð°Ð»Ð°ÑĢ": 3694,
      "àµį.": 3695,
      "ÙĪØ²": 3696,
      "áħ©áĨ¼": 3697,
      "Ġover": 3698,
      "Î¡Î¡": 3699,
      "OR": 3700,
      "Ġà¤¥": 3701,
      "ÏĢÎ±": 3702,
      "à¬¡": 3703,
      "áł¦": 3704,
      "anta": 3705,
      "Ġà¬Ĩ": 3706,
      "à²¶": 3707,
      "ĠÐ°Ð½": 3708,
      "Ġà¬¦": 3709,
      "aba": 3710,
      "cz": 3711,
      "vl": 3712,
      "Îĳ": 3713,
      "uni": 3714,
      "áł·": 3715,
      "Þĭ": 3716,
      "ĠØ§ÙĦØ´": 3717,
      "ĠÚª": 3718,
      "AT": 3719,
      "Ġdag": 3720,
      "los": 3721,
      "ãģĹãģ¦": 3722,
      "vol": 3723,
      "Ġweb": 3724,
      "àº²àºĻ": 3725,
      "áĢĿ": 3726,
      "àºĦ": 3727,
      "ĠÐ»Ð¸": 3728,
      "à¹Ģà¸ģ": 3729,
      "Ġà´ļ": 3730,
      "Ò³Ð¾Ð¸": 3731,
      "ĠØ§ÙĦÙĤ": 3732,
      "Ġà¬ħ": 3733,
      "Ø¯Ùħ": 3734,
      "ĠEn": 3735,
      "Ġata": 3736,
      "Ð³ÐµÐ½": 3737,
      "ĠÐĽ": 3738,
      "vin": 3739,
      "à´§": 3740,
      "Ġsus": 3741,
      "Î¸Î·": 3742,
      "Úĺ": 3743,
      "Ġdari": 3744,
      "áĥĴ": 3745,
      "Ġà¶º": 3746,
      "Ð¶Ðµ": 3747,
      "àªļ": 3748,
      "ï¼ģ": 3749,
      "Ġàª¶": 3750,
      "Ġdating": 3751,
      "áĥĶáĥĳáĥĲ": 3752,
      "ÌĨÌģ": 3753,
      "Ġsol": 3754,
      "Ġà®Ĩ": 3755,
      "Ġà¶ļà¶»": 3756,
      "ÛķÛĮ": 3757,
      "ãĢĮ": 3758,
      "è¡Į": 3759,
      "ĠÎ·ÎµÎ¿": 3760,
      "Õ¸ÖĤÕ©ÕµÕ¸ÖĤÕ¶": 3761,
      "ulu": 3762,
      "ĠTo": 3763,
      "Ø¯ÙĬ": 3764,
      "Ø§Ú©": 3765,
      "ld": 3766,
      "ÑģÐ°Ð½": 3767,
      "éĥ½": 3768,
      "Ġ25": 3769,
      "Ġà¤ħà¤¸": 3770,
      "ores": 3771,
      "Ġpal": 3772,
      "Ġ×ª": 3773,
      "Úª": 3774,
      "ÛķÙĨ": 3775,
      "Ġze": 3776,
      "çĻ": 3777,
      "Ġdob": 3778,
      "ST": 3779,
      "Ġdru": 3780,
      "ÑĦÐ¸": 3781,
      "ella": 3782,
      "In": 3783,
      "à¤ī": 3784,
      "Âµ": 3785,
      "jec": 3786,
      "Ð¾Ð³Ð¾": 3787,
      "Ġfl": 3788,
      "larÄ±": 3789,
      "Ġnos": 3790,
      "ÑĥÐ±": 3791,
      "ãĢį": 3792,
      "ph": 3793,
      "ĠÏĢÎµ": 3794,
      "ĠÐºÑħÐ¼ÑħÑĬ": 3795,
      "uks": 3796,
      "Ġid": 3797,
      "ĠÐ´Ð»Ñı": 3798,
      "elu": 3799,
      "pon": 3800,
      "ÑģÑĸ": 3801,
      "kar": 3802,
      "len": 3803,
      "ĠÐ¿ÐµÑĢ": 3804,
      "ĠBe": 3805,
      "15": 3806,
      "rum": 3807,
      "áĢ½áĢ±": 3808,
      "ĠÕ¢": 3809,
      "Ġty": 3810,
      "ÞĢ": 3811,
      "Ġare": 3812,
      "ÑįÐ´": 3813,
      "pan": 3814,
      "à²§": 3815,
      "Ġger": 3816,
      "áĥĺáĥļ": 3817,
      "Ð¾Ð·": 3818,
      "ĠÐ±Ð¸Ð»": 3819,
      "Ġtan": 3820,
      "ãĤį": 3821,
      "ikan": 3822,
      "Ġà¤ıà¤ķ": 3823,
      "ĠØ§ÙĦØ¨": 3824,
      "Ñķ": 3825,
      "ÐºÐ°Ð·": 3826,
      "Ġten": 3827,
      "ÒĻ": 3828,
      "nom": 3829,
      "áĨ¸áĦĤáħµ": 3830,
      "Ð³Ð¸Ð¸": 3831,
      "ĠØ¬ÙĬ": 3832,
      "Ġà°İ": 3833,
      "áŀĵáŀĢ": 3834,
      "à¸Ĥà¸Ńà¸ĩ": 3835,
      "alah": 3836,
      "áĨ»áĦĥáħ¡": 3837,
      "ss": 3838,
      "met": 3839,
      "ĠÚ©Ø§": 3840,
      "tif": 3841,
      "ĠáĢħ": 3842,
      "ÙĦÙĥ": 3843,
      "Ġà¬¹": 3844,
      "èª": 3845,
      "ï¼ī": 3846,
      "wy": 3847,
      "ÑĥÐ²": 3848,
      "rd": 3849,
      "Ġpart": 3850,
      "Ġsit": 3851,
      "ĠÎ¡": 3852,
      "à¤°à¤¤": 3853,
      "ĠTa": 3854,
      "ron": 3855,
      "Ð»Ð¸Ð¸": 3856,
      "à½Ģ": 3857,
      "ï¼Ī": 3858,
      "ĠÐºÐ°Ðº": 3859,
      "ĠCom": 3860,
      "ĠSo": 3861,
      "ãĤĻãĢģ": 3862,
      "nis": 3863,
      "Ġdom": 3864,
      "Ġot": 3865,
      "Ġcons": 3866,
      "Ġgy": 3867,
      "Ġà¶ĩ": 3868,
      "ĠÑĢÑĥ": 3869,
      "Ġpred": 3870,
      "Ġapp": 3871,
      "ĠÐ¸Ð»Ð¸": 3872,
      "ĠÐ°Ð²": 3873,
      "Ġà¨ħà¨¤": 3874,
      "áĨ¸áĦĤáħµáĦĥáħ¡": 3875,
      "×ķ×¢": 3876,
      "Ġ[": 3877,
      "kor": 3878,
      "à¬¶": 3879,
      "ĠHa": 3880,
      "Ġfi": 3881,
      "hal": 3882,
      "Ġtho": 3883,
      "Õ§": 3884,
      "ĠáĦĭáħ¡": 3885,
      "Ġ×ľ×Ķ": 3886,
      "áĦĭáħŃ": 3887,
      "bar": 3888,
      "Ġdalam": 3889,
      "uje": 3890,
      "Ġ50": 3891,
      "ÙĪØ¹": 3892,
      "Ġ24": 3893,
      "áĦĭáħ§": 3894,
      "à¤¹à¤°": 3895,
      "Ġkul": 3896,
      "Ð°Ð»Ñĸ": 3897,
      "ÙĢÙĢ": 3898,
      "Ð´Ð·": 3899,
      "Ġspe": 3900,
      "à¤¯à¤ķ": 3901,
      "ĠÐºÓ©": 3902,
      "åı¯": 3903,
      "!!": 3904,
      "çķ": 3905,
      "ĠMe": 3906,
      "ĠÏī": 3907,
      "à¯ģ.": 3908,
      "æĽ": 3909,
      "Ġà´ĩ": 3910,
      "Ġà¤Ķ": 3911,
      "ãĥĬãĤ¿": 3912,
      "åĺħ": 3913,
      "Ġesta": 3914,
      "ÙħØ§ÙĨ": 3915,
      "Ġamb": 3916,
      "ÑĭÐ»Ñĭ": 3917,
      "áĢĴ": 3918,
      "Ġbez": 3919,
      "200": 3920,
      "Ġkwa": 3921,
      "hr": 3922,
      "à¤µà¤°": 3923,
      "áĢŃáĢ¯áĢ¸": 3924,
      "Ġtru": 3925,
      "ĠÕ¸ÖĤ": 3926,
      "ĠÏĩ": 3927,
      "ĠØ§ÙĦÙĨ": 3928,
      "pen": 3929,
      "Î»Î¿": 3930,
      "dÉĻ": 3931,
      "eto": 3932,
      "çĦ": 3933,
      "à¨§": 3934,
      "eke": 3935,
      "ĠÞī": 3936,
      "à¨¿à©°": 3937,
      "Ġvec": 3938,
      "áĢ·áĢ¹": 3939,
      "à¥Į": 3940,
      "ÑİÐ±": 3941,
      "Ú©ÛĮ": 3942,
      "Ġdas": 3943,
      "áĬŃ": 3944,
      "Ġsto": 3945,
      "Ġtot": 3946,
      "ĠÎ¶Îµ": 3947,
      "ux": 3948,
      "iÃ°": 3949,
      "àº¹": 3950,
      "ÐµÐ½Ð°": 3951,
      "ãĥ¼ãĥĪ": 3952,
      "áĦħáħ¡": 3953,
      "ãĥŁ": 3954,
      "Ġpun": 3955,
      "Ġou": 3956,
      "ØŁ": 3957,
      "à¹Ģà¸£": 3958,
      "18": 3959,
      "æŀ": 3960,
      "à¬§": 3961,
      "Ġsim": 3962,
      "Ò»": 3963,
      "ĠÕ¸ÖĢ": 3964,
      "Ø§Ù¾": 3965,
      "ÑĢÐ°ÑĤ": 3966,
      "Ġci": 3967,
      "áī£": 3968,
      "ĠØ¯Ùĩ": 3969,
      "áĦĭáħ¡": 3970,
      "Ġà´Ĩ": 3971,
      "áĦĮáħ¡": 3972,
      "×ĳ×¨": 3973,
      "à¤°à¤®": 3974,
      "Ä±m": 3975,
      "áĭİ": 3976,
      "Ġhan": 3977,
      "áĭ®": 3978,
      "å°±": 3979,
      "Ð³Ñĭ": 3980,
      "ÌĤÌĥ": 3981,
      "ĠØªÙĩ": 3982,
      "ãĥ¢": 3983,
      "idi": 3984,
      "ator": 3985,
      "iau": 3986,
      "áĥĶáĥĽ": 3987,
      "gy": 3988,
      "çİ": 3989,
      "Ġvu": 3990,
      "illa": 3991,
      "ukan": 3992,
      "ĠáĦĳ": 3993,
      "Ġà¦ī": 3994,
      "by": 3995,
      "áŁī": 3996,
      "ĠÚ©ÛĲ": 3997,
      "à´¶": 3998,
      "Ġà¦°": 3999,
      "à½ŀ": 4000,
      "ÐĹ": 4001,
      "Ġpom": 4002,
      "ï¾ŀ": 4003,
      "ĠSu": 4004,
      "æ¯": 4005,
      "ÑĥÐ¿": 4006,
      "Î³Î±": 4007,
      "è©": 4008,
      "áĤı": 4009,
      "ÙħØ±": 4010,
      "izi": 4011,
      "Ġfrauen": 4012,
      "ĠÚĨÛĲ": 4013,
      "àº¸": 4014,
      "uru": 4015,
      "áĥĿáĥ¡": 4016,
      "ĠÓĻ": 4017,
      "Î¼Î¿": 4018,
      "Ð´Ð°Ð¸": 4019,
      "xa": 4020,
      "irt": 4021,
      "ĠÐ¿ÑĢÐµÐ´": 4022,
      "lag": 4023,
      "anu": 4024,
      "ĠØ¯ÛĮ": 4025,
      "ÑĢÐµÐ´": 4026,
      "Ġges": 4027,
      "Ġfir": 4028,
      "à²µà²°": 4029,
      "ular": 4030,
      "èĩª": 4031,
      "ble": 4032,
      "ĠÎ£": 4033,
      "Ġqe": 4034,
      "à´Ĺ": 4035,
      "à°¹": 4036,
      "MA": 4037,
      "àºĪ": 4038,
      "Ø³Ùħ": 4039,
      "áħ®áĨ¯": 4040,
      "EL": 4041,
      "Ø¯Ùī": 4042,
      "ÑĢÐ¸Ð¸": 4043,
      "áĢ»áĢ¬áĢ¸": 4044,
      "Ġmel": 4045,
      "Ġà¤ĺ": 4046,
      "iek": 4047,
      "lt": 4048,
      "Ġcar": 4049,
      "14": 4050,
      "ĠÐłÐĨÐł": 4051,
      "ĠÎ¶ÏĢ": 4052,
      "à¾Ĵ": 4053,
      "ãĤ±": 4054,
      "åĪĨ": 4055,
      "ãģŃ": 4056,
      "Ġà¶»": 4057,
      "Ġcan": 4058,
      "ÌĪ,": 4059,
      "å¤ļ": 4060,
      "æµ": 4061,
      "Î¸Î±": 4062,
      "vad": 4063,
      "Ġvoor": 4064,
      "Ġaj": 4065,
      "kk": 4066,
      "Ġfil": 4067,
      "Õ¡Õ£": 4068,
      "raz": 4069,
      "ÙĩÙĩ": 4070,
      "ÑİÑĤ": 4071,
      "nak": 4072,
      "ĠàªĹ": 4073,
      "áĭĪ": 4074,
      "ÑıÑħ": 4075,
      "ingen": 4076,
      "Ġà¬°": 4077,
      "ÑıÐ¸": 4078,
      "omi": 4079,
      "×Ļ×§": 4080,
      "Ġoo": 4081,
      "à¥Īà¤Ĥ": 4082,
      "24": 4083,
      "ect": 4084,
      "Ġcas": 4085,
      "Ó©Ó©": 4086,
      "ãģ£ãģ¦": 4087,
      "Ð¿Ðµ": 4088,
      "Î»Î¹": 4089,
      "à²¿à²Ĥ": 4090,
      "ĠÐŃ": 4091,
      "åĶ": 4092,
      "à¸Ħà¸§": 4093,
      "áĥ£áĥł": 4094,
      "IC": 4095,
      "ĠáĦīáħµ": 4096,
      "Ġtam": 4097,
      "ÐºÐ°Ð½": 4098,
      "Î±ÏĤ": 4099,
      "ÑıÐ½": 4100,
      "ĠÑģÐ²Ð¾": 4101,
      "ves": 4102,
      "ÙĨØª": 4103,
      "ske": 4104,
      "Õ¡Õ°": 4105,
      "çĲ": 4106,
      "ĠÐ¾Ñģ": 4107,
      "uro": 4108,
      "ĠÎ·ÎµÎ»": 4109,
      "Î·Î¸Î·": 4110,
      "×Ļ×©": 4111,
      "Ġáĥ£áĥ": 4112,
      "ÎŁ": 4113,
      "Ġpov": 4114,
      "áįį": 4115,
      "à¸Ńà¸ģ": 4116,
      "bor": 4117,
      "æĸ¹": 4118,
      "×Ļ×Ł": 4119,
      "Ð¼Ð°ÑĤ": 4120,
      "Ì¨.": 4121,
      "ono": 4122,
      "Ġaur": 4123,
      "Ð½Ð¾Ð¸": 4124,
      "Ġà¤Ķà¤°": 4125,
      "ĠÞĨ": 4126,
      "ä¸ĭ": 4127,
      "Ġzu": 4128,
      "Ð¸ÑĢ": 4129,
      "ĠÐ³Ð¾": 4130,
      "ĠUn": 4131,
      "ÑĥÐ²Ð°": 4132,
      "\".": 4133,
      "rem": 4134,
      "ĠÏĦÎ·ÏĤ": 4135,
      "Ġà¦Ń": 4136,
      "áĪ°": 4137,
      "ls": 4138,
      "Ð±Ðµ": 4139,
      "Ġide": 4140,
      "×Ļ×Ķ": 4141,
      "pet": 4142,
      "ãģĹãģŁ": 4143,
      "åŃĲ": 4144,
      "ĠáĬ¨": 4145,
      "uta": 4146,
      "ĠPar": 4147,
      "ç«": 4148,
      "Ġkl": 4149,
      "Ġ×Ķ×Ĳ": 4150,
      "æľ¬": 4151,
      "Ú¯Ø±": 4152,
      "Ġcont": 4153,
      "Ġmy": 4154,
      "Ġdia": 4155,
      "Ġfilm": 4156,
      "áĥĿáĥľ": 4157,
      "Ġcor": 4158,
      "Ġitu": 4159,
      "Ä±nda": 4160,
      "Ġinst": 4161,
      "ico": 4162,
      "Ð³ÑĢÐ°": 4163,
      "Ð¾Ñħ": 4164,
      "áĦĭáħµáĨ«": 4165,
      "iai": 4166,
      "sch": 4167,
      "ild": 4168,
      "Ġgal": 4169,
      "Ġword": 4170,
      "Ð¸Ð»Ð¸": 4171,
      "ido": 4172,
      "idad": 4173,
      "Ð½Ð¸Ðº": 4174,
      "ÑįÐ¸": 4175,
      "Ġgro": 4176,
      "indi": 4177,
      "ume": 4178,
      "ĠBu": 4179,
      "Ø§Ø·": 4180,
      "àº¥àº°": 4181,
      "Ġili": 4182,
      "à·Ĥ": 4183,
      "Ġsve": 4184,
      "Ġpour": 4185,
      "alis": 4186,
      "ĠÐĸ": 4187,
      "Ġopp": 4188,
      "å®¶": 4189,
      "åĲĮ": 4190,
      "vet": 4191,
      "åľ°": 4192,
      "ii": 4193,
      "ones": 4194,
      "ĠIs": 4195,
      "Ġeste": 4196,
      "Ġair": 4197,
      "áĦĢáħª": 4198,
      "usa": 4199,
      "ĠTe": 4200,
      "kat": 4201,
      "Ġmul": 4202,
      "iden": 4203,
      "Ø³ØªØ§ÙĨ": 4204,
      "ĠÙĦÛķ": 4205,
      "àºĬ": 4206,
      "Ġáĥ¬": 4207,
      "áĥĶáĥĳáĥĺ": 4208,
      "ĠØªØŃ": 4209,
      "ãĥ¼ãĥ«": 4210,
      "Ġcol": 4211,
      "ä½ľ": 4212,
      "Õ¬": 4213,
      "áĪħ": 4214,
      "ãĤĩ": 4215,
      "Ġ×¡": 4216,
      "Ġkha": 4217,
      "àµĨà´¾": 4218,
      "Ġul": 4219,
      "\",": 4220,
      "æĸ°": 4221,
      "Ġeller": 4222,
      "áĥ§": 4223,
      "Ġmay": 4224,
      "Ð´Ð°Ð¼": 4225,
      "×Ļ×ķ×ª": 4226,
      "ÎĹ": 4227,
      "Ġqua": 4228,
      "iks": 4229,
      "åĭ": 4230,
      "ĠÕ½": 4231,
      "uda": 4232,
      "Ġ×¢×ľ": 4233,
      "åĽ½": 4234,
      "ï¿": 4235,
      "Ġvas": 4236,
      "enc": 4237,
      "æ¸": 4238,
      "ÙĪØª": 4239,
      "ÄĲ": 4240,
      "áŁĦáŁĩ": 4241,
      "ãĤ§": 4242,
      "Ð¶Ð°": 4243,
      "ĠÔ±": 4244,
      "ĠÐ²Ðµ": 4245,
      "Ġbak": 4246,
      "ĠÕ¾": 4247,
      "Ġah": 4248,
      "Ġras": 4249,
      "Ġpoz": 4250,
      "osten": 4251,
      "ster": 4252,
      "ĠÏģ": 4253,
      "13": 4254,
      "ĠÑģÐ²": 4255,
      "à´ķà´³": 4256,
      "ĠÑħÐ¾": 4257,
      "ä¼ļ": 4258,
      "yar": 4259,
      "Ð°Ð³": 4260,
      "ÛĮØ´": 4261,
      "bat": 4262,
      "Õ£": 4263,
      "elen": 4264,
      "Ġale": 4265,
      "16": 4266,
      "àº²àº¡": 4267,
      "br": 4268,
      "rec": 4269,
      "ĠâĢĻ": 4270,
      "à½Ĩ": 4271,
      "Õ¡Õ¬": 4272,
      "Ġhab": 4273,
      "pas": 4274,
      "Ġpent": 4275,
      "ÑĥÑĩ": 4276,
      "à©ľ": 4277,
      "ĠÎ»Î±": 4278,
      "Ġkes": 4279,
      "ĠáĪĪ": 4280,
      "sion": 4281,
      "ĠØ¬ÙĪ": 4282,
      "ÙĩÙĬ": 4283,
      "ÙĴ": 4284,
      "áĢ¹áģĭ": 4285,
      "nim": 4286,
      "Ġud": 4287,
      "eda": 4288,
      "ams": 4289,
      "çĤ": 4290,
      "ÑĥÑĪ": 4291,
      "à½ģ": 4292,
      "inta": 4293,
      "ĠáĢĶ": 4294,
      "ĠCo": 4295,
      "api": 4296,
      "Î´Î·": 4297,
      "Ġpros": 4298,
      "ĠØ§Ùģ": 4299,
      "ï¿½": 4300,
      "Ø°Ø§": 4301,
      "Ġpop": 4302,
      "à¹Ħà¸¡": 4303,
      "ãĤ«ãĥĬãĤ¿": 4304,
      "inc": 4305,
      "ĠãĤ¢": 4306,
      "Ġfel": 4307,
      "ÉĻy": 4308,
      "ĠÙĨÛĴ": 4309,
      "Ú¾ÛĮ": 4310,
      "å¦": 4311,
      "Ġ×ľ×Ĳ": 4312,
      "ĠÐ´ÐºÑĬ": 4313,
      "Ġtas": 4314,
      "æĮ": 4315,
      "ÙĪØ³": 4316,
      "ider": 4317,
      "ĠÒ³Ð°Ð¼": 4318,
      "à´¨à´¤": 4319,
      "Ø§Ø±Ùĩ": 4320,
      "é«": 4321,
      "unc": 4322,
      "jar": 4323,
      "Î·Î¿": 4324,
      "ÙħÙĬ": 4325,
      "oko": 4326,
      "ser": 4327,
      "Ġtel": 4328,
      "Ġstr": 4329,
      "à¸Īà¸°": 4330,
      "ÑģÑĤÐ²Ð¾": 4331,
      "áĮ¥": 4332,
      "ĠáĥłáĥĿáĥĽ": 4333,
      "UR": 4334,
      "ĠØ§ÙĦØ¯": 4335,
      "áŁĥ": 4336,
      "ĠØªØ¹": 4337,
      "ãĥ§": 4338,
      "ĠÎĵ": 4339,
      "ÎĦ": 4340,
      "æ²": 4341,
      "iza": 4342,
      "åĴĮ": 4343,
      "Ø±Ùī": 4344,
      "áĢŁ": 4345,
      "Ġdr": 4346,
      "Ġvie": 4347,
      "ÙĨÛĴ": 4348,
      "ĠLi": 4349,
      "Ġtidak": 4350,
      "Ð¼Ñĸ": 4351,
      "ãĤ»": 4352,
      "Þ®": 4353,
      "ĠÏĦÎ·Î½": 4354,
      "Ð°ÑĢÑĤ": 4355,
      "Ġnan": 4356,
      "eth": 4357,
      "ÑĺÐ¸": 4358,
      "Ð¼Ñĭ": 4359,
      "áĥĶáĥķ": 4360,
      "Ġà¦²": 4361,
      "ayo": 4362,
      "ĠáĬ¥áĬķ": 4363,
      "Ġà²°": 4364,
      "ĠÐ¿Ð¾Ð»": 4365,
      "ØªØŃ": 4366,
      "Ġvil": 4367,
      "Ġgj": 4368,
      "rak": 4369,
      "Ġ×¦": 4370,
      "áį¢": 4371,
      "pun": 4372,
      "ĠÕ¡Õµ": 4373,
      "ogra": 4374,
      "æĻĤ": 4375,
      "IT": 4376,
      "ĠDa": 4377,
      "Ġfer": 4378,
      "Ġlag": 4379,
      "ÑįÑįÑĢ": 4380,
      "Ġmot": 4381,
      "ãģķãĤĵ": 4382,
      "ĠÐ¿Ð¾Ð²": 4383,
      "yu": 4384,
      "Ġhog": 4385,
      "ĠEl": 4386,
      "åł": 4387,
      "áĥĺáĥĵ": 4388,
      "ĠáĦĢáħ¡": 4389,
      "Ġikke": 4390,
      "Ó©Ð³": 4391,
      "tar": 4392,
      "ãĥł": 4393,
      "Ġved": 4394,
      "Ġcomo": 4395,
      "Ûĭ": 4396,
      "à¤ķà¤°": 4397,
      "ÑģÐºÐ°": 4398,
      "åģ": 4399,
      "ĠDi": 4400,
      "Ġà°ħà°¨": 4401,
      "×ķ×ŀ": 4402,
      "ska": 4403,
      "Ġpan": 4404,
      "èĥ½": 4405,
      "Ð°ÑĤÐ¾": 4406,
      "Ú«": 4407,
      "ÐµÑĢÐ°": 4408,
      "ãĥ³ãĥĪ": 4409,
      "gov": 4410,
      "ÑĤÐ°Ð½": 4411,
      "ĠÎ·ÏĥÎ»": 4412,
      "ĠÏĢÎ¾Î½": 4413,
      "ÉĻm": 4414,
      "ral": 4415,
      "ÌĪ.": 4416,
      "25": 4417,
      "é£": 4418,
      "Ø§Ø³Øª": 4419,
      "Ġhier": 4420,
      "Ġpub": 4421,
      "àªĸ": 4422,
      "ĠáĥĲáĥł": 4423,
      "Ġic": 4424,
      "Ġà°ľ": 4425,
      "Ø±Ø©": 4426,
      "Ġà¨ļ": 4427,
      "zt": 4428,
      "áīĢ": 4429,
      "lov": 4430,
      "ĠÎļ": 4431,
      "Î³Îµ": 4432,
      "ÙģÙĬ": 4433,
      "ĠÙĪØ±": 4434,
      "Ì£ÌĨ": 4435,
      "áĢ½áĢ¬": 4436,
      "ÙĤÙĬ": 4437,
      "gra": 4438,
      "onta": 4439,
      "Ġà®ĩà®°": 4440,
      "¾áĢĢ": 4441,
      "Õ¸ÖĤÕ©ÕµÕ¡Õ¶": 4442,
      "Ġuch": 4443,
      "ĠØ°": 4444,
      "ĠPr": 4445,
      "Ġseb": 4446,
      "æ¬": 4447,
      "è´": 4448,
      "itet": 4449,
      "ĠáŀĶ": 4450,
      "ĠÏĥÏħ": 4451,
      "é¡": 4452,
      "//": 4453,
      "ament": 4454,
      "ĠÐ±ÐµÐ»": 4455,
      "Ġàª¹àª¤": 4456,
      "odi": 4457,
      "ĠÑıÐº": 4458,
      "ĠNo": 4459,
      "áĢ¼áĢ®áĢ¸": 4460,
      "Î»Î½": 4461,
      "à³ģ.": 4462,
      "jum": 4463,
      "Ø§Ø±ÙĬ": 4464,
      "Ġqui": 4465,
      "ĠÒļ": 4466,
      "Ġporn": 4467,
      "OL": 4468,
      "ĠDet": 4469,
      "uto": 4470,
      "sc": 4471,
      "ĠviÃ°": 4472,
      "ãĥİ": 4473,
      "à¸µà¹ī": 4474,
      "ĠáĦĮáħµ": 4475,
      "war": 4476,
      "Ġ...": 4477,
      "Ġ&": 4478,
      "Ð²ÐµÑĢ": 4479,
      "Ð³Ð°ÑĢ": 4480,
      "Ġâ": 4481,
      "Ġthi": 4482,
      "ĠPa": 4483,
      "Õ¢": 4484,
      "alu": 4485,
      "gar": 4486,
      "à§Ī": 4487,
      "ÏĢÎ½": 4488,
      "Ġset": 4489,
      "Î¶ÎµÎ¿": 4490,
      "Ø¨ÙĦ": 4491,
      "edd": 4492,
      "ÙĨØ³": 4493,
      "Ġnot": 4494,
      "ĠØ§ÙĦØ®": 4495,
      "à¸Ļà¸Ĺ": 4496,
      "Ø§Ø¶": 4497,
      "Ġkaz": 4498,
      "ãĤĢ": 4499,
      "Ð»ÐµÐ½": 4500,
      "enter": 4501,
      "à´¹": 4502,
      "Ð´ÐµÑĢ": 4503,
      "åĵģ": 4504,
      "ĠÐ¤": 4505,
      "Ò¡": 4506,
      "ç¨": 4507,
      "lat": 4508,
      "Ġ2020": 4509,
      "yen": 4510,
      "×Ļ×ĳ": 4511,
      "à°²à°¨": 4512,
      "Ġnor": 4513,
      "à¾±à½²à¼ĭ": 4514,
      "ç¾": 4515,
      "ĠVi": 4516,
      "æĭ": 4517,
      "éĹ": 4518,
      "ÑģÑĭÐ½": 4519,
      "Ġ199": 4520,
      "Ġham": 4521,
      "ÏģÎ·": 4522,
      "Ð¿Ð½": 4523,
      "ĠÑģÑĬ": 4524,
      "ulle": 4525,
      "Ð¸ÑĤÑĮ": 4526,
      "Ġoc": 4527,
      "Ġchat": 4528,
      "Ġkra": 4529,
      "17": 4530,
      "áħŃ": 4531,
      "Ð»ÐµÐ´": 4532,
      "Ġswinger": 4533,
      "àº²àºį": 4534,
      "ÐłÑķ": 4535,
      "Ġhad": 4536,
      "anga": 4537,
      "uli": 4538,
      "è¾": 4539,
      "Ð½Ð°Ð¸": 4540,
      "Ġprim": 4541,
      "Ð½ÑĭÐµ": 4542,
      "Ġãĥķ": 4543,
      "OS": 4544,
      "Ġfar": 4545,
      "Ġà¤Ł": 4546,
      "à²¦à²²": 4547,
      "ĠØ§ÙĦÙĥ": 4548,
      "Ġprobl": 4549,
      "Ma": 4550,
      "Ġhor": 4551,
      "ĠÙĨÙĩ": 4552,
      "à§±": 4553,
      "ĠÐ½Ð¾": 4554,
      "ÛĮØª": 4555,
      "Ġass": 4556,
      "ĠvÃ¦": 4557,
      "ĠÐ¼Ð¾": 4558,
      "ĠØ¨Ûķ": 4559,
      "Ġcre": 4560,
      "Ġnek": 4561,
      "eren": 4562,
      "Ġdok": 4563,
      "âĢł": 4564,
      "ted": 4565,
      "ãĥ¯": 4566,
      "ÑĴ": 4567,
      "Ġà¶ī": 4568,
      "andi": 4569,
      "Ø±Ø§": 4570,
      "áĪª": 4571,
      "Ð°Ð¼Ð°": 4572,
      "Ġneg": 4573,
      "Ð´ÐµÐ½": 4574,
      "ados": 4575,
      "à¨ĩ": 4576,
      "Õº": 4577,
      "ãĥĦ": 4578,
      "Ġprostitu": 4579,
      "æĪĲ": 4580,
      "Õ¥ÖĢÕ¨": 4581,
      "Ġdec": 4582,
      "ange": 4583,
      "ĠHo": 4584,
      "Ġcer": 4585,
      "çµ": 4586,
      "eno": 4587,
      "Ġpak": 4588,
      "ĠÎ´Îµ": 4589,
      "àª·": 4590,
      "ÙĤØ©": 4591,
      "Â»,": 4592,
      "ĠÐ¸ÑĪ": 4593,
      "äºĭ": 4594,
      "àµ»": 4595,
      "Ġlib": 4596,
      "Ġbah": 4597,
      "Ġtele": 4598,
      "rk": 4599,
      "ĠáĭĪ": 4600,
      "Ġ2019": 4601,
      "uti": 4602,
      "×¨×Ĳ": 4603,
      "iten": 4604,
      "ÑħÐ°": 4605,
      "erg": 4606,
      "çŃ": 4607,
      "Ġgan": 4608,
      "ÏĢÎµÎ¹": 4609,
      "Ġáłª": 4610,
      "à½ĸà½¦": 4611,
      "ĠÙħØ³": 4612,
      "Ġann": 4613,
      "åħ¥": 4614,
      "kel": 4615,
      "áĬł": 4616,
      "Ò¯Ð»": 4617,
      "Ò³Ð¾": 4618,
      "ight": 4619,
      "ÑĭÐ¿": 4620,
      "omo": 4621,
      "ekt": 4622,
      "atan": 4623,
      "lj": 4624,
      "rn": 4625,
      ".âĢĿ": 4626,
      "odo": 4627,
      "áĮł": 4628,
      "à¸§à¸¢": 4629,
      "ĠáĭŃ": 4630,
      "Ð·Ð°": 4631,
      "ÑļÐ°": 4632,
      "uss": 4633,
      "à¶³": 4634,
      "AS": 4635,
      "if": 4636,
      "unn": 4637,
      "×ķ×Ŀ": 4638,
      "ĠÑĤÐ¸": 4639,
      "IS": 4640,
      "à¥ĥ": 4641,
      "vit": 4642,
      "Ġtrans": 4643,
      "áĭ¨": 4644,
      "áĥĶáĥĹ": 4645,
      "ÛĮÙĩ": 4646,
      "àº²àºĩ": 4647,
      "Ð´Ð¸Ð½": 4648,
      "åŁ": 4649,
      "Ġole": 4650,
      "Ġkaj": 4651,
      "bol": 4652,
      "ĠAd": 4653,
      "áł³": 4654,
      "ÑĭÐ¸": 4655,
      "yang": 4656,
      "ÙĨÚ¯": 4657,
      "à´´": 4658,
      "ĠÕ¡Õ¶": 4659,
      "Ġsob": 4660,
      "Ġvid": 4661,
      "Ġ2018": 4662,
      "Ġnav": 4663,
      "à°Ń": 4664,
      "ook": 4665,
      "Ġcare": 4666,
      "://": 4667,
      "Ġwer": 4668,
      "Ð¿ÑĤ": 4669,
      "ÑģÑĤÐ²Ð°": 4670,
      "ria": 4671,
      "ED": 4672,
      "Ð°Ð¼Ð¸": 4673,
      "áĭ³": 4674,
      "Ġako": 4675,
      "ath": 4676,
      "èĪ": 4677,
      "à¸Ħà¸§à¸²à¸¡": 4678,
      "à·ĸ": 4679,
      "urt": 4680,
      "yy": 4681,
      "áĥĲáĥ®": 4682,
      "à¬¯": 4683,
      "ĠQu": 4684,
      "Úķ": 4685,
      "lav": 4686,
      "Ð°ÑģÑĤ": 4687,
      "ÙĦÙĪ": 4688,
      "Ġada": 4689,
      "Î½Îµ": 4690,
      "ÐµÑĤÐ¸": 4691,
      "La": 4692,
      "kon": 4693,
      "ĠÙĪÙĬ": 4694,
      "ĠÐ°Ðº": 4695,
      "æ´": 4696,
      "lis": 4697,
      "ĠGo": 4698,
      "ĠÐ´Ñĥ": 4699,
      "Î³Î¹": 4700,
      "à¸¹à¹ī": 4701,
      "ÛĮØ§": 4702,
      "Ġ40": 4703,
      "¯áĨ«": 4704,
      "Õ¥Õ½": 4705,
      "ĠÎķ": 4706,
      "Ġgir": 4707,
      "osh": 4708,
      "Ð½Ð¾Ð¼": 4709,
      "rez": 4710,
      "áĬ¨": 4711,
      "ents": 4712,
      "ÏĥÎ¹": 4713,
      "Ġinte": 4714,
      "áĢ¾áĢ¬": 4715,
      "cije": 4716,
      "áŁģáŁĩ": 4717,
      "áĦı": 4718,
      "Ġfic": 4719,
      "ÙĦØ©": 4720,
      "ary": 4721,
      "Ġà®Ĵ": 4722,
      "à¸«à¸Ļ": 4723,
      "ĠØ¨Ø¹Ø¯": 4724,
      "Ġakan": 4725,
      "Ġhas": 4726,
      "áĦīáħ¡": 4727,
      "àµ¾": 4728,
      "Ġáī°": 4729,
      "Ġproduk": 4730,
      "ÐºÐ¾Ð²": 4731,
      "ĠÛģÛĮÚº": 4732,
      "aku": 4733,
      "åĢĭ": 4734,
      "áĭİáī½": 4735,
      "ÑīÐµ": 4736,
      "ÑĢÐ¾Ð²": 4737,
      "à¬ģ": 4738,
      "amente": 4739,
      "Ġbal": 4740,
      "áģ¾áĢĢ": 4741,
      "ÑĨÑĨÐ°": 4742,
      "à¶¢": 4743,
      "ÓĻÐ½Ðµ": 4744,
      "iji": 4745,
      "Ġtill": 4746,
      "à¤¢": 4747,
      "ÑĨÐ¸Ð¸": 4748,
      "Ġbie": 4749,
      "oki": 4750,
      "áħ³áĨ¼": 4751,
      "osti": 4752,
      "ĠÕ¥Õ¶": 4753,
      "áĥĲáĥĹ": 4754,
      "Ġseks": 4755,
      "èĤ": 4756,
      "Ð½Ð¾Ð²": 4757,
      "Ġàª¥": 4758,
      "áĥ£áĥļ": 4759,
      "Ġ?": 4760,
      "ĠÏĢÏģÎ¿": 4761,
      "ĠØ§ÙĦØµ": 4762,
      "jel": 4763,
      "Õ¶Õ¥ÖĢÕ«": 4764,
      "Ø¨Ùĩ": 4765,
      "ÑĪÑĥ": 4766,
      "×Ļ×ĵ": 4767,
      "ĠáĦīáħ¡": 4768,
      "ĠÑĥÑĩ": 4769,
      "ĠÐ°Ð¼": 4770,
      "Ġinn": 4771,
      "ÑĸÐ½Ñĸ": 4772,
      "ĠÎŁ": 4773,
      "Ð½Ð¸Ñħ": 4774,
      "à©Ģà¨Ĥ": 4775,
      "ĠÚ©Ø±Ø¯": 4776,
      "àµģ.": 4777,
      "ÞĬ": 4778,
      "Ġtab": 4779,
      "mes": 4780,
      "vas": 4781,
      "sti": 4782,
      "áĥĶáĥłáĥ": 4783,
      "Ġunder": 4784,
      "ilis": 4785,
      "Ġalle": 4786,
      "Ġà¤°à¤¹": 4787,
      "ĠáĦĭáħµáĨ»": 4788,
      "ÑĤÐ¸Ð²": 4789,
      "Ġtut": 4790,
      "áĦĢáħ¦": 4791,
      "áĢľáĢĬ": 4792,
      "ÙĪØ¬": 4793,
      "ÏĥÎ¿": 4794,
      "åĲĪ": 4795,
      "Ġdur": 4796,
      "usta": 4797,
      "Ġtrong": 4798,
      "áĥĻ": 4799,
      "ance": 4800,
      "Ð»ÐµÐ¼": 4801,
      "ĠÐ¶Ð¸": 4802,
      "Ġnad": 4803,
      "áĥĺáĥĲ": 4804,
      "ple": 4805,
      "ÑģÑĤÑĭ": 4806,
      "ÑĸÐ²": 4807,
      "aro": 4808,
      "ĠÙħØª": 4809,
      "ĠÎľ": 4810,
      "æ±": 4811,
      "ische": 4812,
      "uj": 4813,
      "Î´Î¹": 4814,
      "à¸ĭ": 4815,
      "Ġeu": 4816,
      "Ġà¦ĵ": 4817,
      "Ġeng": 4818,
      "áĥĿáĥķ": 4819,
      "à·Ĵ.": 4820,
      "Ġcam": 4821,
      "Ġins": 4822,
      "å°ı": 4823,
      "Ġprogram": 4824,
      "inga": 4825,
      "à´Ļà´³": 4826,
      "Ġmor": 4827,
      "Ð±Ñİ": 4828,
      "ĠÎ³Î¹Î±": 4829,
      "áĢ³": 4830,
      "à¬ļ": 4831,
      "Ġnes": 4832,
      "Ġvon": 4833,
      "Ġmog": 4834,
      "ĠáŀĢ": 4835,
      "áĥª": 4836,
      "ĠÐ´ÑĢÑĥ": 4837,
      "ÑĤÐº": 4838,
      "Â³": 4839,
      "ski": 4840,
      "à¤ªà¤¨": 4841,
      "Ġsan": 4842,
      "iniz": 4843,
      "Ġnec": 4844,
      "Õ¥Öģ": 4845,
      "Ġà¤ħà¤¨": 4846,
      "ĠáĬĲ": 4847,
      "Õ¹": 4848,
      "çŁ": 4849,
      "áĦĤáħ¡": 4850,
      "Ġà¶Ĩ": 4851,
      "ĠÙĦÙĬ": 4852,
      "áħ®áĨ¨": 4853,
      "oks": 4854,
      "éĥ": 4855,
      "ĠÐ¸Ð¼": 4856,
      "Ð¿Ð¸": 4857,
      "à½ļ": 4858,
      "ãĤĨ": 4859,
      "form": 4860,
      "Ġperson": 4861,
      "ĠÚ©Ø§Ø±": 4862,
      "áĩ": 4863,
      "Î½Ïĩ": 4864,
      "ute": 4865,
      "åŃ¦": 4866,
      "Ġà¬¤": 4867,
      "Ġts": 4868,
      "ÑĩÐ½Ð¾": 4869,
      "ÌĦ,": 4870,
      "ĠÐ§": 4871,
      "áĥ£áĥļáĥĺ": 4872,
      "æīĭ": 4873,
      "Ġsar": 4874,
      "del": 4875,
      "ãĥ³ãĤ¯": 4876,
      "ÑĢÐµÐº": 4877,
      "ĠáĢĨ": 4878,
      "áĢ°áĢ¸": 4879,
      "à½ĳà½Ħ": 4880,
      "60": 4881,
      "tern": 4882,
      "ulo": 4883,
      "áĪī": 4884,
      "å®ļ": 4885,
      "ork": 4886,
      "áĥ¥": 4887,
      "Ò¯Ò¯Ð»": 4888,
      "à¤¿à¤Ĥ": 4889,
      "old": 4890,
      "ĠØ¶": 4891,
      "à¬Ń": 4892,
      "ĠÙĪØ§": 4893,
      "Ð±Ñĥ": 4894,
      "ĠáŀĬ": 4895,
      "Ġpeng": 4896,
      "De": 4897,
      "fin": 4898,
      "Ġegy": 4899,
      "Ġned": 4900,
      "Ø§ÙĨØ¯": 4901,
      "Ġsub": 4902,
      "áħ©áĨ¨": 4903,
      "Ġpers": 4904,
      "ÐłÂµ": 4905,
      "à¤¤à¤°": 4906,
      "Ġáĥķ": 4907,
      "à¹ģà¸¥à¸°": 4908,
      "àªı": 4909,
      "Ð³Ò¯Ð¸": 4910,
      "Õ¡ÕŃ": 4911,
      "Ġhand": 4912,
      "Ð±ÐµÐº": 4913,
      "Ø§ÙĨÙĬ": 4914,
      "put": 4915,
      "áĥĳ": 4916,
      "Ð¸Ð¼Ð°": 4917,
      "×Ļ×ĺ": 4918,
      "Ġà²¦": 4919,
      "ÑĤÐ°Ð¸": 4920,
      "åĶĶ": 4921,
      "åīį": 4922,
      "ĠÐ°Ñģ": 4923,
      "Ġtai": 4924,
      "åħ¬": 4925,
      "áĦĭáħ®": 4926,
      "Ġ21": 4927,
      "Ð½ÑĭÐ¸": 4928,
      "áĥĲáĥ¢": 4929,
      "ĠHe": 4930,
      "Ġà²ľ": 4931,
      "Ġparti": 4932,
      "áĢ¯áĢ¶áĢ¸": 4933,
      "Ġhy": 4934,
      "ÙĪØ´": 4935,
      "Õ¥Õ²": 4936,
      "Ð©": 4937,
      "Õ©": 4938,
      "Ġska": 4939,
      "urop": 4940,
      "Ġgar": 4941,
      "ÙĥÙĨ": 4942,
      "æĿ¥": 4943,
      "ÛķØª": 4944,
      "Ġune": 4945,
      "ÏĦÎ±Î¹": 4946,
      "ÑīÐ¸": 4947,
      "Ġà»ģ": 4948,
      "áŁĲ": 4949,
      "åĸ": 4950,
      "lay": 4951,
      "ĠáĦīáħ®": 4952,
      "ÎłÎŁ": 4953,
      "Ġuit": 4954,
      "Ġpon": 4955,
      "Ġben": 4956,
      "ÞŃ": 4957,
      "Ġsag": 4958,
      "ÑĩÐµÐ½": 4959,
      "æı": 4960,
      "Ð¼Ð°Ð½": 4961,
      "Ġgru": 4962,
      "ÑģÑįÐ½": 4963,
      "'s": 4964,
      "ĠÙģÙī": 4965,
      "ĸáĥĶ": 4966,
      "etu": 4967,
      "Ã°ur": 4968,
      "å¾Ĺ": 4969,
      "éĺ": 4970,
      "Ġsing": 4971,
      "Ġhogy": 4972,
      "áĢ¼áĢ±áĢ¬": 4973,
      "entes": 4974,
      "áī¸": 4975,
      "à½Ĳ": 4976,
      "Ġkao": 4977,
      "Ġph": 4978,
      "Ġà´İà´¨": 4979,
      "ĠÑĩÑĤÐ¾": 4980,
      "ID": 4981,
      "Ġban": 4982,
      "Ġãĥı": 4983,
      "Ġpada": 4984,
      "Ġhis": 4985,
      "Ð½ÑĦ": 4986,
      "Ġvai": 4987,
      "áīħ": 4988,
      "ely": 4989,
      "à©Īà¥¤": 4990,
      "ĠÐ±Ñĭ": 4991,
      "ush": 4992,
      "Ð²Ð°ÑĢ": 4993,
      "Ä±z": 4994,
      "Ġsis": 4995,
      "Ġà²Ĺ": 4996,
      "Ð½Ð¸ÑĤÐµ": 4997,
      "Ġnap": 4998,
      "à´ľ": 4999,
      "ĠáĦĭáħ§": 5000,
      "Ġug": 5001,
      "Ġout": 5002,
      "lah": 5003,
      "ets": 5004,
      "Ġlig": 5005,
      "Ġà¦¸à¦®": 5006,
      "juc": 5007,
      "à¦ģ": 5008,
      "Ġgl": 5009,
      "ÏĢÎ¹Î½": 5010,
      "ĠÙĪÙĤ": 5011,
      "ÑįÑĤ": 5012,
      "Ġbro": 5013,
      "Ġih": 5014,
      "ĠÙħÙĤ": 5015,
      "ĠÑĩÐµ": 5016,
      "mun": 5017,
      "ĠáĦĢáħ¥": 5018,
      "ç¤": 5019,
      "×Ļ×Ĳ": 5020,
      "kov": 5021,
      "ÑģÑĤÐ¾Ð½": 5022,
      "ĠÑĤÓ©": 5023,
      "ĠàªĨàªµ": 5024,
      "osa": 5025,
      "ital": 5026,
      "Ø®Øª": 5027,
      "kur": 5028,
      "ĠÐºÐ¾Ð¼Ð¿": 5029,
      "emi": 5030,
      "à¹Ģ": 5031,
      "Î±Î¿": 5032,
      "Ø§ÙĨÙĩ": 5033,
      "jih": 5034,
      "é«ĺ": 5035,
      "Ġtik": 5036,
      "ĠOn": 5037,
      "Õ¡Õ¼": 5038,
      "ÛķÙħ": 5039,
      "ĠØ®ÙĦ": 5040,
      "**": 5041,
      "Ð¾Ð»Ð¾Ð³": 5042,
      "ĠáĦĴáħ¡": 5043,
      "ÑĢÐ°Ð·": 5044,
      "áĢ¾áĢŃ": 5045,
      "Ð²Ð°ÑĤ": 5046,
      "Ġerotik": 5047,
      "Ġbon": 5048,
      "vec": 5049,
      "Ġdir": 5050,
      "ÏģÏī": 5051,
      "à©Į": 5052,
      "Ð»Ð°ÑĤ": 5053,
      "Ġà¬ľ": 5054,
      "ÐºÑħ": 5055,
      "Ġpentru": 5056,
      "áĥĶáĥĵ": 5057,
      "ĠÐ½Ð°Ð¿": 5058,
      "à°¾à°Ĥ": 5059,
      "ÙĦØ³": 5060,
      "ĠØ¨ÙĨ": 5061,
      "ãĥ³ãĤ¹": 5062,
      "Ġà¦¹à¦¯": 5063,
      "Ú»": 5064,
      "Ġtim": 5065,
      "enn": 5066,
      "ĠAm": 5067,
      "ĠáĦĮáħ¥": 5068,
      "Õ¡Õ¶Õ«": 5069,
      "Ġà¦¥": 5070,
      "ums": 5071,
      "ric": 5072,
      "Õ¡Õº": 5073,
      "AM": 5074,
      "Ġant": 5075,
      "ĠáĢģ": 5076,
      "Ø±Øª": 5077,
      "ä½ł": 5078,
      "ÑĥÐ½Ð´": 5079,
      "Ø§Ø§": 5080,
      "Ġinf": 5081,
      "ÕĿ": 5082,
      "æľĢ": 5083,
      "ĠÐ±ÐµÐ·": 5084,
      "Ġà¨ĸ": 5085,
      "Ø±Ùħ": 5086,
      "ï½¨": 5087,
      "ĠÐ±Ð¸ÑĢ": 5088,
      "ahan": 5089,
      "af": 5090,
      "Ġpolit": 5091,
      "ĠÑĤÑĥÑĢ": 5092,
      "Ð´ÑĭÐ½": 5093,
      "Ġmon": 5094,
      "Ġ22": 5095,
      "ä»ĸ": 5096,
      "Ġsak": 5097,
      "ez": 5098,
      "à¹Ģà¸Ķ": 5099,
      "ĠÙħØ¬": 5100,
      "ges": 5101,
      "ÑĥÐ»ÑĮ": 5102,
      "à¶ºà¶±": 5103,
      "ĠÖĩ": 5104,
      "Ġjuga": 5105,
      "áĥĺáĥł": 5106,
      "ĠÑĩÐ¸": 5107,
      "àªŃ": 5108,
      "Ġsho": 5109,
      "uko": 5110,
      "inde": 5111,
      "à¥ī": 5112,
      "Î²Î±": 5113,
      "Ġdeg": 5114,
      "Ġish": 5115,
      "ÙĦØ¨": 5116,
      "jn": 5117,
      "áģĢ": 5118,
      "ãĤĥ": 5119,
      "Ġev": 5120,
      "×ķ×§": 5121,
      "Ġlie": 5122,
      "ĠÐºÐµÐ»": 5123,
      "Ġhie": 5124,
      "ĠÐ¾Ð¸": 5125,
      "æľĪ": 5126,
      "à¸į": 5127,
      "ack": 5128,
      "ĠSex": 5129,
      "ĠØ¹ÙĦÙĬ": 5130,
      "Ġnhie": 5131,
      "Ø³Ø¨": 5132,
      "ĠDie": 5133,
      "Ġ2017": 5134,
      "Ġris": 5135,
      "áĥĺáĥª": 5136,
      "à¤¨à¤ķ": 5137,
      "Ġred": 5138,
      "ater": 5139,
      "Ġà¤Ĩà¤£": 5140,
      "ªáĭ²": 5141,
      "Ġbeg": 5142,
      "Ġà¤¡": 5143,
      "Ġà¤Ĩà¤ª": 5144,
      "ĠÒ»": 5145,
      "çĲĨ": 5146,
      "uf": 5147,
      "Ġhem": 5148,
      "ãģĻãĤĭ": 5149,
      "èī": 5150,
      "ÑħÐµ": 5151,
      "ĠÑĤÒ¯": 5152,
      "Ã°a": 5153,
      "àªĵ": 5154,
      "ace": 5155,
      "Ġà®ħà®¤": 5156,
      "ĊĊ": 5157,
      "ĠÐ°ÑĤ": 5158,
      "Ġproc": 5159,
      "Ġwh": 5160,
      "ÑİÐ»": 5161,
      "Ĥ¬": 5162,
      "ÎłÎĻ": 5163,
      "ÑİÑĬ": 5164,
      "×ł×Ļ": 5165,
      "Ġbud": 5166,
      "sio": 5167,
      "obil": 5168,
      "ÑĸÐ¼": 5169,
      "Â».": 5170,
      "×ķ×¤": 5171,
      "Ġàªªàª°": 5172,
      "Ġ23": 5173,
      "Ġinforma": 5174,
      "áĬ«": 5175,
      "áĥĿáĥĵ": 5176,
      "ÑİÑĢ": 5177,
      "à¨ħ": 5178,
      "ved": 5179,
      "esa": 5180,
      "Ġstud": 5181,
      "ĠÐ¾Ð»": 5182,
      "Ġsum": 5183,
      "ĠÐ¶ÓĻÐ½Ðµ": 5184,
      "Ġbad": 5185,
      "ÛĮØ²": 5186,
      "Ġdei": 5187,
      "×Ļ×¢": 5188,
      "ĠáĦĲ": 5189,
      "Ġkosten": 5190,
      "áĢ±áĢ¬áĢº": 5191,
      "lÉĻ": 5192,
      "Ġáĭ«": 5193,
      "ĠJa": 5194,
      "ĠÏĢÎ¿Ïħ": 5195,
      "ĠÐ¿Ð°ÑĢ": 5196,
      "lus": 5197,
      "Ġà¶ĩà¶Ń": 5198,
      "Ð²Ñĸ": 5199,
      "ĠTh": 5200,
      "anas": 5201,
      "Ð¾ÑĤÐ¾": 5202,
      "Ð´ÑĭÒ£": 5203,
      "ÙĩÙĨ": 5204,
      "à¾Ł": 5205,
      "reg": 5206,
      "Ġmol": 5207,
      "ðŁ": 5208,
      "oti": 5209,
      "áĪ³": 5210,
      "ÐŃ": 5211,
      "has": 5212,
      "Ġáĥĳ": 5213,
      "Î³Î·": 5214,
      "ÙĩÙĪ": 5215,
      "Ġerot": 5216,
      "à¸Ħà¸£": 5217,
      "èģ": 5218,
      "Ġqil": 5219,
      "Ġbag": 5220,
      "çº": 5221,
      "áĢ¯áĢŃ": 5222,
      "ÐµÑĤÑģÑı": 5223,
      "ÛĮØ³": 5224,
      "ĠBa": 5225,
      "Ġcel": 5226,
      "Ġzd": 5227,
      "eder": 5228,
      "à§Ĥ": 5229,
      "Ġpost": 5230,
      "of": 5231,
      "itar": 5232,
      "ister": 5233,
      "Ð¿Ð°": 5234,
      "Ø§ÙĦÙĬ": 5235,
      "uke": 5236,
      "Ġà¸ģ": 5237,
      "ĠPer": 5238,
      "Î·Î¸Î±": 5239,
      "ĠÙħÙĦ": 5240,
      "ªáĭ²áĭ®": 5241,
      "ET": 5242,
      "Ġà¤®à¤¹": 5243,
      "Ġfyr": 5244,
      "ĠÏĢÎ½ÏĢ": 5245,
      "Ġroz": 5246,
      "Ġdil": 5247,
      "Ø±Ùĥ": 5248,
      "Ġserv": 5249,
      "ĠTu": 5250,
      "Ġà¸Ĺ": 5251,
      "ÒĽÐ°": 5252,
      "Ġend": 5253,
      "rag": 5254,
      "Ġgre": 5255,
      "âĺ": 5256,
      "ĠÕĢ": 5257,
      "Ä±l": 5258,
      "Ġpie": 5259,
      "Ġbh": 5260,
      "orn": 5261,
      "æ¥": 5262,
      "40": 5263,
      "Ġaus": 5264,
      "ÑģÑĢ": 5265,
      "ĠBo": 5266,
      "Ġgel": 5267,
      "Ġalt": 5268,
      "Ġà¨ĩà¨¸": 5269,
      "Ġpok": 5270,
      "à¾Ĵà¾±": 5271,
      "Ġprin": 5272,
      "ĠÑģÐ°Ð¸": 5273,
      "Ġà´Ĵ": 5274,
      "onn": 5275,
      "tis": 5276,
      "Ġà¤ĩà¤¸": 5277,
      "ual": 5278,
      "à¹Ģà¸ŀ": 5279,
      "áĦĭáħ³áĦħáħ©": 5280,
      "à¹Ģà¸Ĥ": 5281,
      "Ø¯Ø§Ø±": 5282,
      "Ġupp": 5283,
      "idade": 5284,
      "tek": 5285,
      "hay": 5286,
      "Ġfan": 5287,
      "80": 5288,
      "ych": 5289,
      "tid": 5290,
      "ÙģØª": 5291,
      "endo": 5292,
      "áĥĶáĥĳáĥ¡": 5293,
      "Ġtom": 5294,
      "Ð¾ÑĢÑĤ": 5295,
      "Ġig": 5296,
      "ĠKa": 5297,
      "Ġbisa": 5298,
      "ãģ¬": 5299,
      "itz": 5300,
      "ului": 5301,
      "Ð½Ð°Ñı": 5302,
      "enu": 5303,
      "Ġfam": 5304,
      "ĠÕ©": 5305,
      "ÃŁ": 5306,
      "Ġcent": 5307,
      "rek": 5308,
      "ovi": 5309,
      "Ġà¨²à¨Ī": 5310,
      "Ð½Ð¸Ð¼": 5311,
      "jan": 5312,
      "nem": 5313,
      "áŀĦáŀĢ": 5314,
      "áĥ¨áĥĺ": 5315,
      "egi": 5316,
      "Ġkir": 5317,
      "ÐłÐµ": 5318,
      ".,": 5319,
      "çĿ": 5320,
      "Ð¿Ð¾": 5321,
      "ĠÎ´Î·Î±": 5322,
      "ĠÎ±Ïħ": 5323,
      "éķ": 5324,
      "ĠKo": 5325,
      "ï¼Ł": 5326,
      "à®¸": 5327,
      "Ġnis": 5328,
      "Ġoy": 5329,
      "idan": 5330,
      "Ġkel": 5331,
      "cer": 5332,
      "Ġfol": 5333,
      "iro": 5334,
      "áĥĲáĥłáĥĹ": 5335,
      "ĠÄĲ": 5336,
      "ĠÐ°Ð¶": 5337,
      "ĠãĤ·": 5338,
      "ĠÙĩØ§ÛĮ": 5339,
      "rin": 5340,
      "ĠØ§ÙĬ": 5341,
      "pada": 5342,
      "ÐºÑĢÐ°": 5343,
      "ĠÐ·Ð½Ð°": 5344,
      "ÏĪÎ¹": 5345,
      "Ġà¶¢": 5346,
      "ĠSch": 5347,
      "ãĥ¼ãĤ·": 5348,
      "åħ¨": 5349,
      "à§ĥ": 5350,
      "à¹Ħà¸Ľ": 5351,
      "å¿ĥ": 5352,
      "ĠàªŃ": 5353,
      "tas": 5354,
      "Ġáį": 5355,
      "Ġà¦ıà¦ķ": 5356,
      "ĠÙĪØª": 5357,
      "à¨¥": 5358,
      "áŀŁáŀĺ": 5359,
      "Ġfr": 5360,
      "à¸Ł": 5361,
      "áĦĮáħ¡áĨ¼": 5362,
      "Â±": 5363,
      "ÙħØ¹": 5364,
      "ÙħØ©": 5365,
      "Ġà·ĥà¶¸": 5366,
      "Ġ2021": 5367,
      "ĠÎ·Î±": 5368,
      "iter": 5369,
      "ania": 5370,
      "è½": 5371,
      "Ġtin": 5372,
      "aye": 5373,
      "Ð½ÑĭÐ¼": 5374,
      "rg": 5375,
      "Ġà¶Ķ": 5376,
      "bal": 5377,
      "ĠáĦĢáħµ": 5378,
      "burg": 5379,
      "×ķ×©": 5380,
      "ĠÐ¶Ð°": 5381,
      "Ġwie": 5382,
      "ĠAz": 5383,
      "ĠÐ½Ð°ÑĢ": 5384,
      "Ġdik": 5385,
      "à¶±à¶º": 5386,
      "ĠÒ·": 5387,
      "Ġint": 5388,
      "Ġmais": 5389,
      "ãģĵãģ¨": 5390,
      "ĠÐ´ÐµÐ¿": 5391,
      "ãģªãģĦ": 5392,
      "áĤķ": 5393,
      "ĠÐ¯": 5394,
      "ÑģÐ¾": 5395,
      "jal": 5396,
      "ĠØ§Ø¨": 5397,
      "é¢": 5398,
      "Î¶Î¹": 5399,
      "Ø¨Ø§Ø±": 5400,
      "Ġmun": 5401,
      "nek": 5402,
      "osta": 5403,
      "ÛĪ": 5404,
      "itas": 5405,
      "áŁĢ": 5406,
      "yor": 5407,
      "ĠAnd": 5408,
      "ÎĶ": 5409,
      "à½ħ": 5410,
      "Ġpap": 5411,
      "itat": 5412,
      "áĢ¾áĢ¯": 5413,
      "Ġlj": 5414,
      "Ġanal": 5415,
      "AC": 5416,
      "ÐµÑĤÐ°": 5417,
      "ign": 5418,
      "Ð°ÑģÐ¸": 5419,
      "ÐµÐ»Ð¸": 5420,
      "rod": 5421,
      "éł": 5422,
      "à¸²à¸§": 5423,
      "å£": 5424,
      "ãĥį": 5425,
      "tura": 5426,
      "ĠÎµÏĢÎ¹": 5427,
      "Ġlok": 5428,
      "tur": 5429,
      "rie": 5430,
      "ling": 5431,
      "áĦĥáħ³áĨ¯": 5432,
      "Ġform": 5433,
      "Ġyour": 5434,
      "Ø¯Ø©": 5435,
      "Ġ×ĺ": 5436,
      "ĠÙĥØ§ÙĨ": 5437,
      "ĠÑĪÑĥ": 5438,
      "Ġgw": 5439,
      "ĠAs": 5440,
      "à°¥": 5441,
      "à¸Ľà¸£à¸°": 5442,
      "Þ¬.": 5443,
      "å¸Ĥ": 5444,
      "Ð½Ð»": 5445,
      "ÑħÐ¾Ð´": 5446,
      "ĠØ¨Ø±Ø§ÛĮ": 5447,
      "áī¸áĭį": 5448,
      "ĠÞĢ": 5449,
      "ĠBar": 5450,
      "à³Ĩà³ĸ": 5451,
      "itel": 5452,
      "ĠSh": 5453,
      "ÉĻc": 5454,
      "ĠáĦĢáħ³": 5455,
      "ä¸º": 5456,
      "ÏĨÎ¿": 5457,
      "Ġkita": 5458,
      "cie": 5459,
      "Na": 5460,
      "ining": 5461,
      "Õ¡Õ¦": 5462,
      "ĠáĦĭáħ¥": 5463,
      "ĠáĢĳ": 5464,
      "é»": 5465,
      "ÑģÑĤÑĮ": 5466,
      "Ġà°Ī": 5467,
      "Ġstra": 5468,
      "ĠMo": 5469,
      "ĠáĢĴ": 5470,
      "Ġfrom": 5471,
      "Ġmom": 5472,
      "Ġáīªáĭ²áĭ®": 5473,
      "ĠÏĥÏĦÎ¿": 5474,
      "×ķ×Ĺ": 5475,
      "aza": 5476,
      "dag": 5477,
      "Ġisang": 5478,
      "ario": 5479,
      "Ġà¬¯": 5480,
      "éļ": 5481,
      "×ł×ķ": 5482,
      "cip": 5483,
      "lim": 5484,
      "Ġdh": 5485,
      "Ġà»Ģ": 5486,
      "ØµÙĦ": 5487,
      "Ġari": 5488,
      "ÑĬÐ»": 5489,
      "ç½": 5490,
      "ago": 5491,
      "èĢħ": 5492,
      "Ġpul": 5493,
      "anti": 5494,
      "ÙģØ±": 5495,
      "Ġyra": 5496,
      "à¾Ĳ": 5497,
      "ÑĢÑı": 5498,
      "ĠØ§Ø¹": 5499,
      "éĿ¢": 5500,
      "Ġbli": 5501,
      "ä¸ª": 5502,
      "ijn": 5503,
      "rik": 5504,
      "Ġnar": 5505,
      "larÄ±n": 5506,
      "Ġcap": 5507,
      "à´¡": 5508,
      "Ġee": 5509,
      "à¥Īà¥¤": 5510,
      "Ġlah": 5511,
      "ĠDu": 5512,
      "Ġrad": 5513,
      "Ġ×ĳ×ŀ": 5514,
      "vy": 5515,
      "áĦĭáħ¦áĦīáħ¥": 5516,
      "Ġbor": 5517,
      "ÙĦÙģ": 5518,
      "à®ªà®¤": 5519,
      "Ġhot": 5520,
      "Ġiyo": 5521,
      "×Ļ×¡": 5522,
      "Ã°i": 5523,
      "ÏģÎµÎ¹": 5524,
      "Ġima": 5525,
      "Õ¡Õ²": 5526,
      "Ð´Ð°Ð»": 5527,
      "à²Ń": 5528,
      "Ġwo": 5529,
      "Ġauf": 5530,
      "igen": 5531,
      "Ġà¨¹à¨¨": 5532,
      "unda": 5533,
      "bb": 5534,
      "Ð±Ñĭ": 5535,
      "×ķ×¡": 5536,
      "Ð²ÐĤ": 5537,
      "è¶": 5538,
      "ÙħÙĩ": 5539,
      "éĩİ": 5540,
      "ç¥": 5541,
      "Ġà¦ķà§°": 5542,
      "ç®": 5543,
      "Ġkin": 5544,
      "Ġskal": 5545,
      "Ġà¬Ń": 5546,
      "Ð¾Ð¼Ñĥ": 5547,
      "áŀļáŀĶáŀŁ": 5548,
      "ÐµÐ½Ð¾": 5549,
      "ÓĻÐ¼": 5550,
      "ãĤ½": 5551,
      "áĪ²": 5552,
      "Ġhave": 5553,
      "bang": 5554,
      "è³": 5555,
      "áĥĿáĥļ": 5556,
      "àº½": 5557,
      "ĠÐºÒ¯": 5558,
      "uku": 5559,
      "but": 5560,
      "lash": 5561,
      "Ġrel": 5562,
      "Ġbiz": 5563,
      "ĠÐ¿Ð¾Ð¼": 5564,
      "à»Ĥ": 5565,
      "ÒĽÐ¸": 5566,
      "à·Ģà¶±": 5567,
      "Ġkab": 5568,
      "áĪĨ": 5569,
      "ÑĥÑİ": 5570,
      "Õ´Õ¡Õ¶": 5571,
      "à¨«": 5572,
      "à¸ł": 5573,
      "Ġáĥ®": 5574,
      "ĠÕ°Õ¡Õ´": 5575,
      "ĠØ®ÙĪ": 5576,
      "ĠÐ³Ð°ÑĢ": 5577,
      "ĠØªØ§": 5578,
      "ãģĭãĤī": 5579,
      "Ø§Ø¯Ùĩ": 5580,
      "uld": 5581,
      "ÚĪ": 5582,
      "Ġtag": 5583,
      "Ð½Ð¾ÑģÑĤÐ¸": 5584,
      "Ġà¦ªà¦°": 5585,
      "áĥ¬": 5586,
      "ĠÓ©Ð·": 5587,
      "Ġgeb": 5588,
      "ĠÑģÐ¼": 5589,
      "Xxx": 5590,
      "Ġthis": 5591,
      "Ġvs": 5592,
      "à±Ĩà°Ĥ": 5593,
      "Ġfot": 5594,
      "Ġinv": 5595,
      "ç¬": 5596,
      "à·Ģà¶Ń": 5597,
      "à¥Ģà¤Ĥ": 5598,
      "Ġáĭ¨áĪļ": 5599,
      "ÐµÐ»Ðµ": 5600,
      "åºĹ": 5601,
      "×©×¨": 5602,
      "ÙĬÙĪ": 5603,
      "Ġuc": 5604,
      "ĠÒ¯Ð¸": 5605,
      "à²¥": 5606,
      "Ġpoc": 5607,
      "fon": 5608,
      "reb": 5609,
      "Ġzap": 5610,
      "àº®": 5611,
      "ÑħÐ¾": 5612,
      "uba": 5613,
      "Ġzo": 5614,
      "Ġthai": 5615,
      "umu": 5616,
      "ØªØ§": 5617,
      "Ø®Øµ": 5618,
      "Ġdans": 5619,
      "Ġals": 5620,
      "ĠÐ³Ð¸": 5621,
      "ĠãĥĪ": 5622,
      "Ġloc": 5623,
      "Ġà¨Ń": 5624,
      "ĠÐ±ÑĥÐ»": 5625,
      "ĠÐ²ÑĸÐ´": 5626,
      "........": 5627,
      "rol": 5628,
      "Ġãģ¦": 5629,
      "Ġatau": 5630,
      "ĠÖĦ": 5631,
      "Î£": 5632,
      "asti": 5633,
      "àºģàº²àºĻàº": 5634,
      "Ð¾ÑĢÑĭ": 5635,
      "ĠàŃ": 5636,
      "ĠØ§ÙĦØ°": 5637,
      "ĠØ§Ø®": 5638,
      "ations": 5639,
      "Ġanda": 5640,
      "ĠÎ±ÏĢÏĨ": 5641,
      "Ġcy": 5642,
      "Ø¹ÙĦ": 5643,
      "ĠÉĻ": 5644,
      "Ð¸Ðº": 5645,
      "Õ¸Õ¶": 5646,
      "à¸ĺ": 5647,
      "ĠáĬ¥áĬĵ": 5648,
      "Ġdam": 5649,
      "ç¶": 5650,
      "ãģ£ãģŁ": 5651,
      "hl": 5652,
      "Ġoper": 5653,
      "ej": 5654,
      "áĢ¡áĢĲ": 5655,
      "áĦĩáħ©": 5656,
      "Ġcum": 5657,
      "áĦĴáħª": 5658,
      "Ġà¸ª": 5659,
      "Ġao": 5660,
      "áł¬": 5661,
      "Î½Î±Î¹": 5662,
      "à³Ĩà³Ĥà²Ĥ": 5663,
      "dal": 5664,
      "à¨ī": 5665,
      "ĠÄĳi": 5666,
      "ĠÕŃ": 5667,
      "ĠÙĩÙĪ": 5668,
      "áģ¿": 5669,
      "ĠØ§ØŃ": 5670,
      "à¹Ģà¸§": 5671,
      "Ġtul": 5672,
      "ÑĩÐ¸Ð½": 5673,
      "Ġ2016": 5674,
      "--------": 5675,
      "ĠÓ": 5676,
      "ÑĪÑĤ": 5677,
      "Ġkung": 5678,
      "Ġpin": 5679,
      "ĠáĢĸ": 5680,
      "ØºØ§ÙĨ": 5681,
      "ogle": 5682,
      "ĠCon": 5683,
      "à¸²à¸ª": 5684,
      "ĠÙħØ¯": 5685,
      "è¿Ļ": 5686,
      "esu": 5687,
      "Ġsitu": 5688,
      "ativ": 5689,
      "ĠÐ±Ò¯": 5690,
      "ĠØªÙħ": 5691,
      "ĠÏĤ": 5692,
      "Ġpel": 5693,
      "Ġvin": 5694,
      "cel": 5695,
      "ĠÕ¹": 5696,
      "Ġnum": 5697,
      "à¤ªà¤°": 5698,
      "áĦĮáħ®": 5699,
      "tav": 5700,
      "xt": 5701,
      "AD": 5702,
      "ays": 5703,
      "Úĳ": 5704,
      "Ð½ÑĭÒ£": 5705,
      "imas": 5706,
      "utt": 5707,
      "ideo": 5708,
      "esto": 5709,
      "ÙħØ§ÙĦ": 5710,
      "Ġhom": 5711,
      "Ġuchun": 5712,
      "get": 5713,
      "ÑĢÐµÐ¼": 5714,
      "áĦĢáħ³": 5715,
      "ĠÞĪ": 5716,
      "Ġgeile": 5717,
      "lich": 5718,
      "âĢ¢": 5719,
      "ĠØ¨Ø¯": 5720,
      "å¥³": 5721,
      "Ð·Ðµ": 5722,
      "Ø§Ø±Ø¯": 5723,
      "×Ļ×Ļ×Ŀ": 5724,
      "Ð§": 5725,
      "ĠVer": 5726,
      "àº²àºĶ": 5727,
      "Ġgam": 5728,
      "Ġàªĸ": 5729,
      "à©ģà©±": 5730,
      "ĠgÄ§": 5731,
      "isten": 5732,
      "ĠÎ³Î·Î±": 5733,
      "ĠØªÙĤ": 5734,
      "ĠáĪĽ": 5735,
      "ĠáĦĮáħ®": 5736,
      "áłłáłŃ": 5737,
      "lac": 5738,
      "ÐłÐĨÐł": 5739,
      "lari": 5740,
      "Ú¯ÛĮ": 5741,
      "ĠÙĨÛģ": 5742,
      "áĥĿáĥł": 5743,
      "Ġov": 5744,
      "Ġ27": 5745,
      "ĠFran": 5746,
      "ĠPol": 5747,
      "ãĤħ": 5748,
      "Ġwill": 5749,
      "Ġstar": 5750,
      "ÑĭÐ½Ð°": 5751,
      "àº²àºģ": 5752,
      "ĠãĤ¹": 5753,
      "áĭĭ": 5754,
      "bus": 5755,
      "Ġsab": 5756,
      "à»įà»Ī": 5757,
      "Ġ+": 5758,
      "à®µà®¤": 5759,
      "Ġà¹ģà¸¥à¸°": 5760,
      "Ġsau": 5761,
      "igi": 5762,
      "Ġà´°": 5763,
      "ĠØ§ÙĦØªÙĬ": 5764,
      "×¢×ł": 5765,
      "ĠÑİÐ¼": 5766,
      "çī©": 5767,
      "gal": 5768,
      "Ġplan": 5769,
      "bih": 5770,
      "Ġvit": 5771,
      "à¬Ĥ": 5772,
      "ĠÎ·Îµ": 5773,
      "ç¾İ": 5774,
      "fs": 5775,
      "ĠÐ¿Ð¾ÑĤ": 5776,
      "cion": 5777,
      "Ġà´ī": 5778,
      "Ġ×ĳ×Ĳ": 5779,
      "Ð½Ñį": 5780,
      "Ġsud": 5781,
      "áĥĿáĥłáĥ": 5782,
      "ĠÚ©ÙĨ": 5783,
      "emo": 5784,
      "ĠJe": 5785,
      "else": 5786,
      "×Ļ×ŀ": 5787,
      "ĠØ±ÙĪ": 5788,
      "áĥķáĥĶáĥļ": 5789,
      "ÙħÛĮ": 5790,
      "eter": 5791,
      "rer": 5792,
      "à·ı.": 5793,
      "ox": 5794,
      "Ġwy": 5795,
      "å·¥": 5796,
      "kaz": 5797,
      "ĠØ¨ÙĬ": 5798,
      "Ġà¦ĩ": 5799,
      "à´Ń": 5800,
      "à²µà²¨": 5801,
      "ĠÐ²ÐĤÑĻ": 5802,
      "æ¨": 5803,
      "Õ¡Õ½Õ¿": 5804,
      "Ġkut": 5805,
      "ĠÑģÐ»Ñĥ": 5806,
      "ÙĪØ±Ø¯": 5807,
      "Ġkre": 5808,
      "Ġáĥľ": 5809,
      "ĠÕ«ÖĢ": 5810,
      "ĠãĤ³": 5811,
      "à½ķ": 5812,
      "Ġlan": 5813,
      "å§": 5814,
      "Ð°Ð»ÑĭÒĽ": 5815,
      "IL": 5816,
      "Õ¡ÕµÕ«Õ¶": 5817,
      "ĠÕ·": 5818,
      "ÏĥÎµÎ¹": 5819,
      "à¤ĺ": 5820,
      "ee": 5821,
      "ĠáĥĲáĥĽ": 5822,
      "kol": 5823,
      "kal": 5824,
      "issa": 5825,
      "Ġà¨«": 5826,
      "Ð³Ð¾Ð²": 5827,
      "Ġáł³": 5828,
      "Ð»Ð°Ð´Ð¸": 5829,
      "ĠáĢ»": 5830,
      "isen": 5831,
      "æĢ§": 5832,
      "ĠSp": 5833,
      "ĠÞĦ": 5834,
      "mek": 5835,
      "ĠØ«": 5836,
      "Ġà¬Ĺ": 5837,
      "ĠÏĦÎ±": 5838,
      "ĠÐ¶Ð°Ð½Ð°": 5839,
      "ĠÐ³ÑĢÐ°": 5840,
      "áłłáł¨": 5841,
      "hod": 5842,
      "aca": 5843,
      "×ľ×Ĳ": 5844,
      "hy": 5845,
      "ÐµÐ¼Ð¸": 5846,
      "ĠÑĥÐ»": 5847,
      "áŀ¡": 5848,
      "lja": 5849,
      "ĠPor": 5850,
      "Ġadalah": 5851,
      "bre": 5852,
      "Ġaug": 5853,
      "à¤°à¤£": 5854,
      "over": 5855,
      "ĠAng": 5856,
      "ÙĬÙģ": 5857,
      "ĠÐ´Ð°Ð²": 5858,
      "ÕŃ": 5859,
      "áŀĨ": 5860,
      "Ġáĥ©": 5861,
      "áĮĭ": 5862,
      "Ġsil": 5863,
      "à¸´à¹Ī": 5864,
      "ĠÐ±Ð°ÑĪ": 5865,
      "AV": 5866,
      "Ð½ÑĨ": 5867,
      "ĠÐºÐ¾Ð»": 5868,
      "à¤µà¤¸": 5869,
      "áħ¡áĨ": 5870,
      "imin": 5871,
      "à¤¾.": 5872,
      "Ġàªļ": 5873,
      "ĠÑĪÐ°": 5874,
      "ĠEx": 5875,
      "à¤ľà¤¨": 5876,
      "à¦ł": 5877,
      "Ð»Ð°Ñħ": 5878,
      "åĬĽ": 5879,
      "nolog": 5880,
      "able": 5881,
      "áŀĵáŀĶ": 5882,
      "æ³ķ": 5883,
      "Ġà¤¤à¤°": 5884,
      "sto": 5885,
      "Ġons": 5886,
      "Ð°Ð·Ð¸": 5887,
      "ĠÎ±Î»": 5888,
      "Ø¨Ø¯": 5889,
      "mail": 5890,
      "hir": 5891,
      "Ġàªªàª£": 5892,
      "ÑĤÑįÐ¸": 5893,
      "ï½¼": 5894,
      "The": 5895,
      "ĠÐºÑĢÐ°": 5896,
      "Ġ60": 5897,
      "ĠÐ¼Ð°Ñģ": 5898,
      "åĲį": 5899,
      "fen": 5900,
      "ĠVa": 5901,
      "ï½°": 5902,
      "ÏĥÎµ": 5903,
      "ĠÐ´Ð¾Ð±": 5904,
      "ĠÙĥÙĦ": 5905,
      "ĠÐ°Ð±": 5906,
      "essa": 5907,
      "ÙĨØ¬": 5908,
      "Ġwar": 5909,
      "ektr": 5910,
      "Ġdra": 5911,
      "tie": 5912,
      "ĠÙħØµ": 5913,
      "ĠÐ³Ð¾Ð´Ð¸": 5914,
      "club": 5915,
      "mak": 5916,
      "ĠÐ±Ð°Ñģ": 5917,
      "à´¬": 5918,
      "isch": 5919,
      "ĠMu": 5920,
      "ÑģÐ±": 5921,
      "ms": 5922,
      "Ġáł¬": 5923,
      "é¦": 5924,
      "áŀĢáŀĺ": 5925,
      "ayan": 5926,
      "ress": 5927,
      "An": 5928,
      "enda": 5929,
      "Ġput": 5930,
      "ulla": 5931,
      "irk": 5932,
      "ales": 5933,
      "Ø³Ùī": 5934,
      "ĠPo": 5935,
      "áĢĤ": 5936,
      "Ø±ØŃ": 5937,
      "Ġyu": 5938,
      "Ġbed": 5939,
      "áł°": 5940,
      "à¬ĸ": 5941,
      "Ð´Ð¸Ð¸": 5942,
      "ties": 5943,
      "Ð²Ñĥ": 5944,
      "Öĩ": 5945,
      "Ġpad": 5946,
      "ithe": 5947,
      "abil": 5948,
      "à¦«": 5949,
      "voj": 5950,
      "ĠÐ¼Ð¾Ð¶Ðµ": 5951,
      "à¸«à¸¥": 5952,
      "áĦĮáħ¥áĨ¼": 5953,
      "Ġkoje": 5954,
      "ebook": 5955,
      "éĥ¨": 5956,
      "Ġkako": 5957,
      "ÙĥÙĦ": 5958,
      "eny": 5959,
      "Ġart": 5960,
      "áħ¢áĨ¼": 5961,
      "inden": 5962,
      "ĠâĢĿ": 5963,
      "ĠÐ¦": 5964,
      "æľĥ": 5965,
      "Ġentre": 5966,
      "æīĢ": 5967,
      "Ġhat": 5968,
      "ĠÐ³Ñĥ": 5969,
      "Ġjag": 5970,
      "ÐµÑı": 5971,
      "Ð¾ÑĪ": 5972,
      "Ġbilan": 5973,
      "Î¿ÏħÎ½": 5974,
      "esso": 5975,
      "iske": 5976,
      "Ö¼": 5977,
      "En": 5978,
      "åº¦": 5979,
      "Ð´ÐµÐ¿": 5980,
      "Ġxa": 5981,
      "ĠâĢ¦": 5982,
      "Ø¨Ø©": 5983,
      "Ġret": 5984,
      "ÑĭÐ½ÑĭÒ£": 5985,
      "ĠÙĪØ¬": 5986,
      "II": 5987,
      "Ò¯Ð¼": 5988,
      "Ġkai": 5989,
      "Ð¿ÐµÑĢ": 5990,
      "Ð²ÑĤ": 5991,
      "ÑħÐ´": 5992,
      "æĥħ": 5993,
      "Ð½Ð°ÑĤÐ°": 5994,
      "Ġà¦ĸ": 5995,
      "ĠÃ¸": 5996,
      "ÑĢÑį": 5997,
      "Î¶Îº": 5998,
      "hand": 5999,
      "Ø¡": 6000,
      "Ġ28": 6001,
      "ĠÄĳie": 6002,
      "gun": 6003,
      "áĢ¥": 6004,
      "Ġkv": 6005,
      "entu": 6006,
      "tere": 6007,
      "è·": 6008,
      "dÄ±r": 6009,
      "rar": 6010,
      "Ò³Ð¸": 6011,
      "Úļ": 6012,
      "ÐºÐ¾Ð¼": 6013,
      "Ġtako": 6014,
      "ÑĸÐ»ÑĮ": 6015,
      "Ø§ÛĮÛĮ": 6016,
      "med": 6017,
      "ÛİØª": 6018,
      "Ġkos": 6019,
      "æĹ¶": 6020,
      "àº·à»Ī": 6021,
      "ä¹ĭ": 6022,
      "ring": 6023,
      "Þĵ": 6024,
      "Ġà¶Ĵ": 6025,
      "Ðĸ": 6026,
      "Ġpam": 6027,
      "ruc": 6028,
      "Ð³Ð°Ð°": 6029,
      "vil": 6030,
      "ÐµÒ£": 6031,
      "Le": 6032,
      "ĠÚķ": 6033,
      "Ġvor": 6034,
      "Ġlet": 6035,
      "Î´Î±": 6036,
      "99": 6037,
      "áŀļáŀŁ": 6038,
      "à¶±à·Ģ": 6039,
      "Ġmad": 6040,
      "áī¶": 6041,
      "×ķ×¦": 6042,
      "Ġtrad": 6043,
      "ÑĸÐ»Ñĸ": 6044,
      "Ġà´¬": 6045,
      "ÑĸÐ½Ð´Ðµ": 6046,
      "zione": 6047,
      "oi": 6048,
      "cij": 6049,
      "ĠØ®ÙĪØ¯": 6050,
      "Ġnije": 6051,
      "OM": 6052,
      "dio": 6053,
      "Ġcal": 6054,
      "ãĥĪãĥ¬": 6055,
      "éĸĵ": 6056,
      "áĮ£": 6057,
      "áį¡áį¡": 6058,
      "Ġtah": 6059,
      "ĠJo": 6060,
      "Úģ": 6061,
      "Ġnd": 6062,
      "lem": 6063,
      "onom": 6064,
      "Ä±na": 6065,
      "heid": 6066,
      "áĬĽ": 6067,
      "áĥĿáĥĴ": 6068,
      "ĠÎ¤": 6069,
      "ĠBer": 6070,
      "Ġ26": 6071,
      "oro": 6072,
      "jÃ¸": 6073,
      "áĦĨáħ§áĨ«": 6074,
      "num": 6075,
      "ĠáĦĦ": 6076,
      "Õ¶Õ¥ÖĢÕ¨": 6077,
      "Ð»ÐµÑĢ": 6078,
      "Ð´Ð°Ð³": 6079,
      "Ġeff": 6080,
      "ĠáĥĵáĥĲáĥ": 6081,
      "Ġà¶ĳà¶ļ": 6082,
      "à¸«à¸£": 6083,
      "Ġuma": 6084,
      "ĠáĦĥáħ¢": 6085,
      "ĠSer": 6086,
      "ĠÑĤÐ°ÑĢ": 6087,
      "Ġpris": 6088,
      "Ġà¤§": 6089,
      "Ġoma": 6090,
      "ĠÙĨØ¸": 6091,
      "adas": 6092,
      "ĠÒ±": 6093,
      "Ø§ÙħÙĦ": 6094,
      "Ġ!": 6095,
      "Ø¹Ø©": 6096,
      "Îķ": 6097,
      "Ġdapat": 6098,
      "Ø§ÙĦÙħ": 6099,
      "áĦĥáħ¢": 6100,
      "áĢĸáĢħ": 6101,
      "Ġà¦«": 6102,
      "à¨ı": 6103,
      "Ġprom": 6104,
      "æĸĩ": 6105,
      "ĠfÃ¸": 6106,
      "áĦĭáħ£": 6107,
      "berg": 6108,
      "Ġresp": 6109,
      "è£": 6110,
      "itor": 6111,
      "amos": 6112,
      "IA": 6113,
      "à¸Ńà¸ļ": 6114,
      "áĥĵáĥĲ": 6115,
      "Ġà°®à°°": 6116,
      "áĦģ": 6117,
      "áĥ¨": 6118,
      "ĠãĤ«": 6119,
      "âĺĨ": 6120,
      "27": 6121,
      "ube": 6122,
      "ÐłÐ£": 6123,
      "àª®àª¨": 6124,
      "Ġels": 6125,
      "amu": 6126,
      "hus": 6127,
      "ĠÐºÐ°Ð½": 6128,
      "ÐłÐħ": 6129,
      "unu": 6130,
      "áįĪ": 6131,
      "Ġmaj": 6132,
      "ĠÐºÓ©ÑĢ": 6133,
      "ÑĢÐ¾Ð½": 6134,
      "Ġàª«": 6135,
      "à°µà°°": 6136,
      "éĢļ": 6137,
      "ĠØ¯ÙĪ": 6138,
      "ĠáĥĴáĥĲáĥĽ": 6139,
      "Ġuni": 6140,
      "à°²à°ķ": 6141,
      "ĠEr": 6142,
      "áĢĽáĢĦ": 6143,
      "Ġsiz": 6144,
      "Õ«Öģ": 6145,
      "áĦĮáħ¦": 6146,
      "Î½ÏĢÎ»": 6147,
      "nia": 6148,
      "lab": 6149,
      "à¥Ģ.": 6150,
      "áĥĺáĥ¢": 6151,
      "ĠÚħ": 6152,
      "nas": 6153,
      "iska": 6154,
      "ÐºÑİ": 6155,
      "ĠRa": 6156,
      "ĠØ§ÙĦÙĦÙĩ": 6157,
      "dar": 6158,
      "Ġjak": 6159,
      "pra": 6160,
      "Ġbek": 6161,
      "ÙĪÙĨÙĩ": 6162,
      "ãĥĨãĤ£": 6163,
      "ĠMin": 6164,
      "áŁĬ": 6165,
      "ĠmeÃ°": 6166,
      "å¤©": 6167,
      "ÛĮØ§ÙĨ": 6168,
      "oba": 6169,
      "Ġost": 6170,
      "à¸©": 6171,
      "Ġich": 6172,
      "à¹Ģà¸ª": 6173,
      "Ġreal": 6174,
      "ĠÐ»Ñİ": 6175,
      "log": 6176,
      "far": 6177,
      "Ġ×ľ×ŀ": 6178,
      "ovat": 6179,
      "ĠFor": 6180,
      "Ġpil": 6181,
      "à¨¼à¨¾": 6182,
      "26": 6183,
      "agy": 6184,
      "ÙīÙĦ": 6185,
      "ØªÙĤ": 6186,
      "Ð°Ð½Ð¸Ñı": 6187,
      "ĠÐ½Ñı": 6188,
      "ĠÙģØ±": 6189,
      "Ð±Ð¾ÑĤ": 6190,
      "Ġhoa": 6191,
      "ĠØ§ÙĦÙĦ": 6192,
      "à¸Ńà¸£": 6193,
      "idir": 6194,
      "æĦŁ": 6195,
      "ony": 6196,
      "à´¯à´¤": 6197,
      "à½ĺà½¦": 6198,
      "àº¼": 6199,
      "à½Ķà½ł": 6200,
      "ĠÕ¨": 6201,
      "zna": 6202,
      "ÐºÐ»Ð°": 6203,
      "indÉĻ": 6204,
      "ĠÐ°Ñĥ": 6205,
      "à½ı": 6206,
      "Úĸ": 6207,
      "Ġara": 6208,
      "pel": 6209,
      "ĠAb": 6210,
      "ĠÐ¼ÐµÐ½ÐµÐ½": 6211,
      "ÐºÑģ": 6212,
      "Ġáĥ¤": 6213,
      "Ġeks": 6214,
      "ĠØ³ÛĮ": 6215,
      "Ġsaya": 6216,
      "à¸ļà¸ļ": 6217,
      "omat": 6218,
      "à¾³": 6219,
      "28": 6220,
      "àº»à»ī": 6221,
      "Ġaya": 6222,
      "Ġslu": 6223,
      "à¶¸à¶§": 6224,
      "ĠÐºÐ°Ð¼": 6225,
      "×Ĺ×¨": 6226,
      "Ð¼ÐµÑĤ": 6227,
      "Ð¾Ñĥ": 6228,
      "umi": 6229,
      "áĦĥáħ¬": 6230,
      "à®Łà®¤": 6231,
      "Ġai": 6232,
      "asje": 6233,
      "ungen": 6234,
      "Ġà¤Ńà¤¨": 6235,
      "ĠØ§ÛĮ": 6236,
      "ĠÏĢÎ¿": 6237,
      "Î¸Î¹": 6238,
      "Ġbre": 6239,
      "Ġbin": 6240,
      "áĢ¼áĢ¬áĢ¸": 6241,
      "å®ī": 6242,
      "nika": 6243,
      "ĠáŀŁ": 6244,
      "ÙĪØ§ÙĦ": 6245,
      "Ġàªī": 6246,
      "Ô±": 6247,
      "ĠÐ¿ÑĢÑĭ": 6248,
      "Ġfran": 6249,
      "ĠÏĥÎµ": 6250,
      "çĽ®": 6251,
      "hil": 6252,
      "áŀļáŀĢ": 6253,
      "à¨Ń": 6254,
      "ÏĩÎµ": 6255,
      "Ġplus": 6256,
      "Õ²": 6257,
      "mente": 6258,
      "etan": 6259,
      "zie": 6260,
      "ĠãĤ¿": 6261,
      "àª«": 6262,
      "ĠRo": 6263,
      "ï¾Ŀ": 6264,
      "à´¥": 6265,
      "Ġzas": 6266,
      "éĤ": 6267,
      "cy": 6268,
      "mal": 6269,
      "ĠÑģÑĤÐ°": 6270,
      "Ġkem": 6271,
      "like": 6272,
      "Ð³Ð¾Ð»": 6273,
      "å¤ĸ": 6274,
      "Ġà¤ħà¤§": 6275,
      "vr": 6276,
      "dat": 6277,
      "ition": 6278,
      "Ġà²¶": 6279,
      "Ġà®µà®°": 6280,
      "iju": 6281,
      "Ġà¤Ŀ": 6282,
      "Ð²Ð°Ð»": 6283,
      "Ġgay": 6284,
      "Ġland": 6285,
      "pin": 6286,
      "à¹Ģà¸«": 6287,
      "ÑĩÑĥ": 6288,
      "Ġsuper": 6289,
      "Ġàª°àª¹": 6290,
      "Ne": 6291,
      "Ä±g": 6292,
      "05": 6293,
      "ÐºÐµÐ½": 6294,
      "ester": 6295,
      "×Ļ×¤": 6296,
      "ÙĥØ§ÙĨ": 6297,
      "áĢ¬áĢ¹": 6298,
      "ĠMed": 6299,
      "Õ·": 6300,
      "ĠØ§ÙĦÙĬ": 6301,
      "áĥŀ": 6302,
      "ÅĤa": 6303,
      "æĦı": 6304,
      "Ġsee": 6305,
      "Ġ×ĵ×Ļ": 6306,
      "ikk": 6307,
      "ĠIt": 6308,
      "Î¶Î±": 6309,
      "ham": 6310,
      "Ġapl": 6311,
      "Ġtant": 6312,
      "Ġkhi": 6313,
      "ĠÎ¶Î·Îµ": 6314,
      "imu": 6315,
      "ĠÎ¶Î·Î½": 6316,
      "ĠØ§ÛĮÚ©": 6317,
      "Ġsang": 6318,
      "itta": 6319,
      "Ġook": 6320,
      "itan": 6321,
      "rij": 6322,
      "ĠØ¨ÙĦ": 6323,
      "ĠØ¯Ûķ": 6324,
      "Ġà°Ń": 6325,
      "Al": 6326,
      "ĠÒĽÒ±": 6327,
      "ç©": 6328,
      "ĠØ¯ÙĬ": 6329,
      "ãĤ·ãĥ£": 6330,
      "ĠHer": 6331,
      "Ġà²®à²¤": 6332,
      "Ġà¼": 6333,
      "ĠÐĲÐ»": 6334,
      "à¸Īà¸²à¸ģ": 6335,
      "éĩĳ": 6336,
      "Ð¾Ð½Ð°": 6337,
      "Ð¸Ð¼Ð¸": 6338,
      "ĠÞĭ": 6339,
      "áĦĲáħ³": 6340,
      "ĠØ¨Ú¾ÛĮ": 6341,
      "à¸Ńà¸¡": 6342,
      "hin": 6343,
      "Î½Î»": 6344,
      "____": 6345,
      "ÙĪÙģ": 6346,
      "ĠÐ´Ð¾Ð»": 6347,
      "ÑĦÐ¾ÑĢ": 6348,
      "ĠáĦı": 6349,
      "à¶Ńà¶»": 6350,
      "ÎĿ": 6351,
      "áĥĺáĥĻ": 6352,
      "Ð°ÑĢÑĥ": 6353,
      "Ġ)": 6354,
      "Ġsamo": 6355,
      "Â§": 6356,
      "èĢĮ": 6357,
      "Ġáł¤": 6358,
      "Ġprojek": 6359,
      "qa": 6360,
      "åİ»": 6361,
      "ÑĩÑĤ": 6362,
      "ĠÎ±Î¹": 6363,
      "RE": 6364,
      "nar": 6365,
      "ĠØ§ÙĦØ·": 6366,
      "áĥĺáĥķ": 6367,
      "à¸Ńà¸Ķ": 6368,
      "ĠGu": 6369,
      "ĠØªÙĨ": 6370,
      "ty": 6371,
      "ĠÐ¼Ð°ÑĤ": 6372,
      "Ġsor": 6373,
      "àµĪ": 6374,
      "gg": 6375,
      "ĠEs": 6376,
      "Ġãģ®": 6377,
      "Ġà¦ħà¦¨": 6378,
      "vir": 6379,
      "Ġket": 6380,
      "Ġpir": 6381,
      "Ġkec": 6382,
      "à¤¾,": 6383,
      "hd": 6384,
      "Ġsze": 6385,
      "ĠÐºÐ¾ÑĢ": 6386,
      "à¤¾à¤ģ": 6387,
      "×Ļ×ĸ": 6388,
      "à¸±à¹Ī": 6389,
      "Ġfree": 6390,
      "Ġbra": 6391,
      "anie": 6392,
      "asan": 6393,
      "ĠUni": 6394,
      "áłŃáł¡": 6395,
      "ikin": 6396,
      "teri": 6397,
      "Ġà¤¸à¤ķ": 6398,
      "Ġ×Ķ×Ĺ": 6399,
      "ence": 6400,
      "ÞĦ": 6401,
      "gÄ§": 6402,
      "áŀļáŀĬ": 6403,
      "Ġfram": 6404,
      "ĠØªÚ¾": 6405,
      "áĢ±áĢ«": 6406,
      "è©±": 6407,
      "ĠÐ·Ð°Ðº": 6408,
      "Ð¿Ñħ": 6409,
      "Ġbus": 6410,
      "à¸²à¸Ĺ": 6411,
      "Ġpet": 6412,
      "Ġ×Ķ×©": 6413,
      "à¹Ģà¸Ĺ": 6414,
      "ãģĦãģŁ": 6415,
      "ĠÕ¡Õ¼": 6416,
      "ãģ®ãģ¦": 6417,
      "Ø¯ÙĬØ¯": 6418,
      "Ġoli": 6419,
      "Î»Î±Î·": 6420,
      "pak": 6421,
      "ĠMas": 6422,
      "ciju": 6423,
      "åĮĸ": 6424,
      "ĠØ¨ÛĨ": 6425,
      "Õ«ÖĢ": 6426,
      "ÑĩÐºÐ¸": 6427,
      "ĠÎ±ÏĢÎ¹Î¹": 6428,
      "ĠÐ¾ÑĢÐ³Ð°Ð½": 6429,
      "ĠdÉĻ": 6430,
      "ĠØ´ÙĬ": 6431,
      "ruk": 6432,
      "à¸²à¸Ħ": 6433,
      "ÙĥØ±": 6434,
      "Ê»": 6435,
      "Ġacc": 6436,
      "éģĵ": 6437,
      "ĠCar": 6438,
      "ØªÙĨ": 6439,
      "×ł×Ķ": 6440,
      "áĥĺáĥĽ": 6441,
      "ĠÚ©ÙĬ": 6442,
      "Ø´Ø±": 6443,
      "Ġproblem": 6444,
      "bay": 6445,
      "Ð»ÓĻ": 6446,
      "à¹Ģà¸ģà¸¡": 6447,
      "ots": 6448,
      "Ġlin": 6449,
      "ĠáĪµ": 6450,
      "bin": 6451,
      "Ġindi": 6452,
      "ĠáĦĩáħ©": 6453,
      "ĠØ¨Ø§Ø´": 6454,
      "vez": 6455,
      "ä½ĵ": 6456,
      "ants": 6457,
      "à´µà´°": 6458,
      "áĦĭáħ¯áĨ«": 6459,
      "Ġmereka": 6460,
      "Õ¡Õ¤": 6461,
      "ä¸»": 6462,
      "à¹Ĩ": 6463,
      "ÑģÐ¾Ð½": 6464,
      "à¬Ĩ": 6465,
      "ĠKom": 6466,
      "×¤×¨": 6467,
      "Ġkang": 6468,
      "ender": 6469,
      "www": 6470,
      "×Ľ×ľ": 6471,
      "áĦħáħ§": 6472,
      "Ġzn": 6473,
      "siy": 6474,
      "à¤īà¤¨": 6475,
      "ÑĭÑħ": 6476,
      "Ġsama": 6477,
      "×¢×ľ": 6478,
      "Ġà¸Ħ": 6479,
      "è¦ĭ": 6480,
      "dÉĻn": 6481,
      "Ġbis": 6482,
      "UN": 6483,
      "ega": 6484,
      "Ġqo": 6485,
      "ĠÐ·Ð°Ð¼": 6486,
      "Ġáł¶": 6487,
      "âĢľ,": 6488,
      "Ġold": 6489,
      "Ġà¦Ĩà¦®": 6490,
      "à·Ģà¶»": 6491,
      "Ġ×ķ×Ķ": 6492,
      "Ð·Ð½Ð°": 6493,
      "ÙĨÙīÚŃ": 6494,
      "ĠInd": 6495,
      "å»": 6496,
      "ĠÞĬ": 6497,
      "Ò±Ð»": 6498,
      "Ġbul": 6499,
      "à¤¸à¤ķ": 6500,
      "Ġsmo": 6501,
      "ey": 6502,
      "à¤Ĩ": 6503,
      "ÑĤÑĭÐ½": 6504,
      "ÑĤÐ¾Ð¼": 6505,
      "áĥķáĥĺáĥ¡": 6506,
      "Ġ×Ĳ×ķ": 6507,
      "Ġama": 6508,
      "áī±": 6509,
      "amas": 6510,
      "ĠÚ©Úĵ": 6511,
      "áŁį": 6512,
      "amento": 6513,
      "Ġbur": 6514,
      "ĠAt": 6515,
      "à¶ºà¶§": 6516,
      "èĬ": 6517,
      "amin": 6518,
      "ç£": 6519,
      "Ġpass": 6520,
      "áĢ¬áĢ·": 6521,
      "Î¶Î·Îµ": 6522,
      "×Ļ×Ľ": 6523,
      "áĥĶáĥ¢": 6524,
      "etta": 6525,
      "uch": 6526,
      "Ġhay": 6527,
      "áĢºáĢ¬áĢ¸": 6528,
      "à¸ģà¸¥": 6529,
      "gas": 6530,
      "Ġkok": 6531,
      "à¸¨": 6532,
      "Ġlebih": 6533,
      "áĦĮáħ¥áĨ¨": 6534,
      "Ġogsa": 6535,
      "åĬł": 6536,
      "Ġ2015": 6537,
      "ĠÑģÐ°Ð»": 6538,
      "Ġmeny": 6539,
      "áĥĶáĥĴ": 6540,
      "amis": 6541,
      "Ġrez": 6542,
      "Ú©Ùĩ": 6543,
      "90": 6544,
      "Ġbut": 6545,
      "Ġsha": 6546,
      "ades": 6547,
      "áĦĭáħµáĨ¯": 6548,
      "Ġito": 6549,
      "TI": 6550,
      "ĠIl": 6551,
      "à¦ī": 6552,
      "uw": 6553,
      "ÙĥØª": 6554,
      "ĠGe": 6555,
      "×ķ×Ĵ": 6556,
      "Ġhtt": 6557,
      "Ġjos": 6558,
      "bit": 6559,
      "ĠAc": 6560,
      "Ġcs": 6561,
      "Ġà®Ĵà®°": 6562,
      "last": 6563,
      "ĠCa": 6564,
      "Ð¸Ðµ": 6565,
      "Ġjeg": 6566,
      "ĠÑģÑĥÐ½Ð´": 6567,
      "Õ«Õ½": 6568,
      "Ġjest": 6569,
      "Ð¾Ð²Ðµ": 6570,
      "Õ¡ÖĦ": 6571,
      "àº³": 6572,
      "agai": 6573,
      "áĦħáħ¥": 6574,
      "mm": 6575,
      "Ġà´ľ": 6576,
      "Õ¡Õ·": 6577,
      "Ġà»ģàº¥àº°": 6578,
      "Î¤": 6579,
      "Ġaqu": 6580,
      "lum": 6581,
      "akat": 6582,
      "app": 6583,
      "Ġkro": 6584,
      "Ġlog": 6585,
      "ãĤ¹ãĥĪ": 6586,
      "à½¤": 6587,
      "ĠWe": 6588,
      "Ġbod": 6589,
      "ÌĨ-": 6590,
      "à¬ī": 6591,
      "à®±à®¤": 6592,
      "ĠÐ¿ÑĢ": 6593,
      "low": 6594,
      "Ġdic": 6595,
      "Ġà¦Ľ": 6596,
      "ĠÐ²ÑĬ": 6597,
      "à»ĦàºĶ": 6598,
      "Re": 6599,
      "uts": 6600,
      "Ġforma": 6601,
      "stu": 6602,
      "åıĳ": 6603,
      "ÎĻ": 6604,
      "âĢ¹": 6605,
      "Ġmain": 6606,
      "ÑĸÐº": 6607,
      "ĠÙĨÙħ": 6608,
      "xi": 6609,
      "Ð°Ð»Ðµ": 6610,
      "à¸Ĺà¸³": 6611,
      "Ð¸Ð½Ð³": 6612,
      "ç·": 6613,
      "Ġsiste": 6614,
      "ĠÐ¼Ð°ÑĢ": 6615,
      "ãģĦãģ¦": 6616,
      "ĠÛ¾": 6617,
      "æŀľ": 6618,
      "hai": 6619,
      "Ġà²Ī": 6620,
      "ÑģÑĤÐµ": 6621,
      "ĠÂ»": 6622,
      "ĠÃ¾a": 6623,
      "ques": 6624,
      "Ù½": 6625,
      "ĠÐ¿Ð¾Ñģ": 6626,
      "dd": 6627,
      "Ġà°¶": 6628,
      "'t": 6629,
      "aa": 6630,
      "ijo": 6631,
      "pul": 6632,
      "Ð¿ÑĢÐ¾": 6633,
      "áĪ®": 6634,
      "uka": 6635,
      "ÑĢÐ°Ð¼": 6636,
      "åł´": 6637,
      "éħ": 6638,
      "ĠÑıÐºÑĸ": 6639,
      "ãģĦãĤĭ": 6640,
      "ife": 6641,
      "çı": 6642,
      "çŁ¥": 6643,
      "áĦĩáħ®": 6644,
      "gt": 6645,
      "ÐµÐºÑĤ": 6646,
      "ĠáĦĮáħ¡": 6647,
      "ĠØ§ÙĦØ±": 6648,
      "US": 6649,
      "Ġaw": 6650,
      "aire": 6651,
      "Ġshe": 6652,
      "fil": 6653,
      "ä¸ļ": 6654,
      "eller": 6655,
      "enje": 6656,
      "Ð¾Ð²Ð¾": 6657,
      "Ġmut": 6658,
      "à²¯à²²": 6659,
      "ism": 6660,
      "Ġàªıàªķ": 6661,
      "istor": 6662,
      "Ġly": 6663,
      "ÌĮ,": 6664,
      "à½ĵà½¦": 6665,
      "Ġ2014": 6666,
      "Ġà¹Ħ": 6667,
      "ĠÑĤÑĢÐµ": 6668,
      "ÐµÐ½Ð½Ñı": 6669,
      "áĦĭáħŃáĨ¼": 6670,
      "áħ¢áĨ¨": 6671,
      "ĠÛĮÛģ": 6672,
      "ĠÕ¬": 6673,
      "ÙħØ§Ø±": 6674,
      "ree": 6675,
      "ÙĥÙĪÙĨ": 6676,
      "Ø²Ø§Ø±": 6677,
      "area": 6678,
      "à¸Ļà¸ķ": 6679,
      "à±ģ,": 6680,
      "Ð´Ð°Ð³Ð¸": 6681,
      "Ð°Ñĥ": 6682,
      "Ġproduc": 6683,
      "70": 6684,
      "ĠÛĮØ§": 6685,
      "Ġnog": 6686,
      "ä¹Ł": 6687,
      ".\"": 6688,
      "can": 6689,
      "Ð²ÐµÑĤ": 6690,
      "Òļ": 6691,
      "OV": 6692,
      "Sa": 6693,
      "Ġnom": 6694,
      "Ġfun": 6695,
      "æ°´": 6696,
      "à¨°à¨¤": 6697,
      "Ġven": 6698,
      "fir": 6699,
      "ĠÙĦÙħ": 6700,
      "è¡¨": 6701,
      "à½łà½ĳ": 6702,
      "Ġwak": 6703,
      "abi": 6704,
      "ĠKar": 6705,
      "Ġà¨ĩà¨¹": 6706,
      "rov": 6707,
      "kih": 6708,
      "cional": 6709,
      "45": 6710,
      "uan": 6711,
      "Ġáĥ¥": 6712,
      "ÑĨÐ¸ÑĺÐ°": 6713,
      "my": 6714,
      "áŀº": 6715,
      "Ġtest": 6716,
      "Ġà°¹": 6717,
      "anyak": 6718,
      "ĠÑįÑĤÐ¾": 6719,
      "nj": 6720,
      "Ġà¶ĭ": 6721,
      "à¤Ĺà¤°": 6722,
      "Ġhon": 6723,
      "Ġnat": 6724,
      "aten": 6725,
      "Ġcomp": 6726,
      "Þħ": 6727,
      "ĠÐ±ÑĸÑĢ": 6728,
      "Ġbit": 6729,
      "áĦĨáħ¡áĨ«": 6730,
      "ĠDo": 6731,
      "Ø°Ùĩ": 6732,
      "ÙĬØ±Ø©": 6733,
      "Ð¼ÐµÑĢ": 6734,
      "ÙĬÙħ": 6735,
      "çĪ": 6736,
      "Ġlim": 6737,
      "ÑĩÐ¸Ð»": 6738,
      "å¾Į": 6739,
      "kas": 6740,
      "æŁ": 6741,
      "Ġ29": 6742,
      "Ġlab": 6743,
      "ÙĬØ§": 6744,
      "à¸¹à¹Ī": 6745,
      "Õ¥Õ¯": 6746,
      "Ġinternet": 6747,
      "inan": 6748,
      "Ġkons": 6749,
      "Ġ×ŀ×Ķ": 6750,
      "Ġont": 6751,
      "áħ¨": 6752,
      "Ð»Ð°ÑĪ": 6753,
      "àºĤàºŃàºĩ": 6754,
      "Î¼Î·": 6755,
      "Ġvari": 6756,
      "Ġ#": 6757,
      "àªĩ": 6758,
      "à¸ļà¸£": 6759,
      "ç§ĳ": 6760,
      "ava": 6761,
      "ÛĮÙĦ": 6762,
      "Ġpob": 6763,
      "29": 6764,
      "uste": 6765,
      "à¸²à¸Ī": 6766,
      "ĠMal": 6767,
      "acebook": 6768,
      "ĠÐ¸Ð¼Ð°": 6769,
      "çľŁ": 6770,
      "Ġgener": 6771,
      "Ġhindi": 6772,
      "Ð´ÑĸÒ£": 6773,
      "ally": 6774,
      "jat": 6775,
      "Ġxxx": 6776,
      "Ġstor": 6777,
      "ä»Ĭ": 6778,
      "nej": 6779,
      "Ġ2022": 6780,
      "áłłáł¢": 6781,
      "Ġzna": 6782,
      "Ġ×Ķ×ª": 6783,
      "ĠØ§ÙĦØ«": 6784,
      "à¥ĩ,": 6785,
      "×ķ×Ľ": 6786,
      "nje": 6787,
      "Ð»Ð¸ÐºÐ°": 6788,
      "ĠAnda": 6789,
      "ÙĤÙĦ": 6790,
      "TE": 6791,
      "Îľ": 6792,
      "itate": 6793,
      "Î²Î²": 6794,
      "áĥłáĥĹ": 6795,
      "Õ«ÖĤ": 6796,
      "ï¾Ħ": 6797,
      "âĦĸ": 6798,
      "à¸¡à¸²à¸ģ": 6799,
      "Pro": 6800,
      "ĠMan": 6801,
      "Ð°ÑĤÐµ": 6802,
      "Ġkatika": 6803,
      "ilor": 6804,
      "ĠÙĪÙħ": 6805,
      "ÑĢÐ°Ð½Ð¸": 6806,
      "ĠEurop": 6807,
      "ä½¢": 6808,
      "osp": 6809,
      "à´°à´¤": 6810,
      "áĦīáħ³áĨ¸áĦĤáħµáĦĥáħ¡": 6811,
      "IM": 6812,
      "å¦Ĥ": 6813,
      "à®Łà®®": 6814,
      "Ð±ÐµÑĢ": 6815,
      "ÙĥÙħ": 6816,
      "ĠÒĽÐ°ÑĢ": 6817,
      "ĠãĤ¯": 6818,
      "Ġport": 6819,
      "ĠÏĦÏīÎ½": 6820,
      "ä½¿": 6821,
      "rip": 6822,
      "ĠUS": 6823,
      "Ġget": 6824,
      "Ù¼": 6825,
      "Ġtod": 6826,
      "ize": 6827,
      "åı¯ä»¥": 6828,
      "ĠÐ¸Ñħ": 6829,
      "Ġbest": 6830,
      "ĠÒĽÑĥ": 6831,
      "áĦīáħ¡áĨ¼": 6832,
      "ĠØ¨Ø³": 6833,
      "àº²àº§": 6834,
      "ĠSi": 6835,
      "ĠÐ¼Ð¾Ð³": 6836,
      "áŀĭ": 6837,
      "çĦ¶": 6838,
      "eler": 6839,
      "ÑħÐº": 6840,
      "Ġelektr": 6841,
      "Ġsad": 6842,
      ".)": 6843,
      "ÓĻÑĤ": 6844,
      "ĠÕ¥ÖĤ": 6845,
      "Ð¿Ð¾Ð»": 6846,
      "Ġstran": 6847,
      "áŀĦáŀĶ": 6848,
      "Ø¨Øª": 6849,
      "ÐºÐ¾Ð»": 6850,
      "Ø§Ø©": 6851,
      "Ð¤": 6852,
      "Ġpang": 6853,
      "Ġdy": 6854,
      "çŃī": 6855,
      "à¸Ļà¸ª": 6856,
      "esc": 6857,
      "ember": 6858,
      "uth": 6859,
      "nych": 6860,
      "à¤ħ": 6861,
      "Ġconc": 6862,
      "åĨħ": 6863,
      "ãĤ¡": 6864,
      "Ġkod": 6865,
      "mag": 6866,
      "ĠTer": 6867,
      "ener": 6868,
      "Ġà¨ķà¨°à¨¨": 6869,
      "Ġmw": 6870,
      "Ġtum": 6871,
      "áŀĻáŀĢ": 6872,
      "Ġmenj": 6873,
      "ĠáĥĴáĥĲáĥľ": 6874,
      "ÑĢÐ³": 6875,
      "çĦ¡": 6876,
      "Ġmie": 6877,
      "alla": 6878,
      "ĠÐĿÐ°": 6879,
      "Ø±Ø§Ø±": 6880,
      "Ġà¬²": 6881,
      "ĠÎ±Î»Î±": 6882,
      "Ġfut": 6883,
      "èº": 6884,
      "Ġà·ĥà·Ħ": 6885,
      "Ġzak": 6886,
      "Ġà¤¬à¤¨": 6887,
      "Î¾ÏĨ": 6888,
      "sex": 6889,
      "Î¸Î½": 6890,
      "name": 6891,
      "iset": 6892,
      "Ġoff": 6893,
      "ĠØªØ¬": 6894,
      "Ó©ÑĤ": 6895,
      "wm": 6896,
      "Ġyap": 6897,
      "áħ²": 6898,
      "à½ī": 6899,
      "ĠÎ´Î¹Î±": 6900,
      "rid": 6901,
      "ĠÏĥÏĦ": 6902,
      "Ġà¸«": 6903,
      "áĥĺáĥĲáĥľ": 6904,
      "Ġãĥ¡": 6905,
      "áģ¿áĢķ": 6906,
      "Ġkis": 6907,
      "omen": 6908,
      "ĠØ¨Øª": 6909,
      "áĦĥáħ³": 6910,
      "ĠÑģÐ°Ð½": 6911,
      "wat": 6912,
      "ekin": 6913,
      "AB": 6914,
      "ĠPe": 6915,
      "à¸ģà¸£": 6916,
      "CH": 6917,
      "ÐµÐ½ÑĮ": 6918,
      "xe": 6919,
      "Ġ×ŀ×Ĳ": 6920,
      "Ġnorm": 6921,
      "ering": 6922,
      "à¦Ļ": 6923,
      "ĠÏĦÏģÎµ": 6924,
      "ffen": 6925,
      "ÛķÙĪÛķ": 6926,
      "Ġà¦¬à¦²": 6927,
      "ĠØ³Ø±": 6928,
      "Ø§Ø«": 6929,
      "Ġonder": 6930,
      "akse": 6931,
      "ĠØ³ÙĬ": 6932,
      "toj": 6933,
      "Ġà¤µà¤°": 6934,
      "ĠÐ½Ð°Ñģ": 6935,
      "Ġà´¶": 6936,
      "Õ¸ÖĢÕ®": 6937,
      "Ġà¬¶": 6938,
      "ĠÐ·Ð°ÑĢ": 6939,
      "Ġmid": 6940,
      "Ġjou": 6941,
      "à¸¶à¹Ī": 6942,
      "pol": 6943,
      "ÐµÐ¼Ð°": 6944,
      "ĠÑįÐ¼": 6945,
      "Ġaku": 6946,
      "Ġkui": 6947,
      "à¬ı": 6948,
      "àª°àª¨": 6949,
      "anna": 6950,
      "iew": 6951,
      "Ð²Ð¾ÑĢ": 6952,
      "ident": 6953,
      "Ġkum": 6954,
      "Ġ×ŀ×©": 6955,
      "Ġhum": 6956,
      "Ġzijn": 6957,
      "ÑĨÐ¸Ð¾Ð½": 6958,
      "ĠØ§Ø±": 6959,
      "çĽ¸": 6960,
      "ÑĤÑĮÑģÑı": 6961,
      "à¾±à½²": 6962,
      "ÐµÑĩ": 6963,
      "ĠÙĦÙĪ": 6964,
      "ĠÎ±ÏĢÎ¹Î¹Î¿": 6965,
      "ĠÛģÙĪ": 6966,
      "oke": 6967,
      "Ġanti": 6968,
      "ĠØ§ÙĤ": 6969,
      "ĠØ§Ù¾": 6970,
      "iny": 6971,
      "áį£": 6972,
      "Ġpis": 6973,
      "Ġmill": 6974,
      "ÑıÐ´": 6975,
      "pal": 6976,
      "Õ«Õ¯": 6977,
      "à¤¯à¤®": 6978,
      "Ġana": 6979,
      "had": 6980,
      "Ġble": 6981,
      "ynd": 6982,
      "ãĥĪãĥ¬ãĥĥãĥĪ": 6983,
      "èĭ": 6984,
      "à¦°à¦¤": 6985,
      "tes": 6986,
      "éĩį": 6987,
      "ĠáĦĢáħ¥áĨº": 6988,
      "æ¬¡": 6989,
      "ØªÛĴ": 6990,
      "Ġà²ļ": 6991,
      "Ġà²Ĵ": 6992,
      "oku": 6993,
      "ãĤ¦ãĥĪãĥ¬ãĥĥãĥĪ": 6994,
      "ĠÙħØ·": 6995,
      "×Ļ×ķ": 6996,
      "hte": 6997,
      "Ġfyrir": 6998,
      "ĠÐ±Ð°Ð»": 6999,
      "zn": 7000,
      "Ġgang": 7001,
      "iment": 7002,
      "ĠÙĬØ¹": 7003,
      "àŃĤ": 7004,
      "Ġparte": 7005,
      "sten": 7006,
      "Ġlagi": 7007,
      "áŁ¢": 7008,
      "inis": 7009,
      "ÑĢÐ¸ÑĪ": 7010,
      "icio": 7011,
      "ÏĢÎ¿Î¹": 7012,
      "qi": 7013,
      "ĠÙĨÛĮ": 7014,
      "ÙĪÙĨÙĪ": 7015,
      "amh": 7016,
      "Ġnack": 7017,
      "ĠØ§ÙĨØª": 7018,
      "cep": 7019,
      "ton": 7020,
      "Ġcond": 7021,
      "Ġkto": 7022,
      "ĠÙĪØ¨": 7023,
      "å¸ĥ": 7024,
      "Ø®Ø±": 7025,
      "Ġáŀĺ": 7026,
      "atz": 7027,
      "igt": 7028,
      "Ð¾Ð¼Ð¸": 7029,
      "à«ĩ,": 7030,
      "AP": 7031,
      "Ġteg": 7032,
      "Ġbhi": 7033,
      "stra": 7034,
      "isse": 7035,
      "åıĸ": 7036,
      "fl": 7037,
      "vod": 7038,
      "à¤Ŀ": 7039,
      "Ġphu": 7040,
      "áģı": 7041,
      "æ©": 7042,
      "à¨¤à¨°": 7043,
      "ãĥĥãĥķ": 7044,
      "Ġà®ĩà®¨": 7045,
      "Ġkah": 7046,
      "ĠÐ½Ð°Ð¸": 7047,
      "ĠØŃØ§ÙĦ": 7048,
      "æľŁ": 7049,
      "ĠÐłÐĭ": 7050,
      "35": 7051,
      "ĠÐ¢Ð¾": 7052,
      "Ġà°Ĵ": 7053,
      "ĠÕ¨Õ¶": 7054,
      "Ġkla": 7055,
      "ÏģÏĢ": 7056,
      "cho": 7057,
      "Ġett": 7058,
      "mus": 7059,
      "ĠÏĦÏģÎµÎ¼Î¹": 7060,
      "Ġ×©×Ķ": 7061,
      "ÏĦÎ¹ÏĢÎµÎ¹": 7062,
      "ĠáĦĥáħ¡": 7063,
      "æ°Ĺ": 7064,
      "ÙīÙĨ": 7065,
      "Ġà´Ĵà´°": 7066,
      "áĦīáħ¥áĨ¼": 7067,
      "Ġà°ı": 7068,
      "ĠRes": 7069,
      "Ð°ÑģÑĭ": 7070,
      "Ġsku": 7071,
      "eki": 7072,
      "à½Ħà½¦": 7073,
      "Îĵ": 7074,
      "ick": 7075,
      "olu": 7076,
      "Ġjy": 7077,
      "Ġvia": 7078,
      "ĠÙĩØ°Ø§": 7079,
      "áĦĭáħª": 7080,
      "Î¶Î·Î±": 7081,
      "ĠáĥĿ": 7082,
      "Ġmaar": 7083,
      "ĠáĦīáħ¥": 7084,
      "ample": 7085,
      "Õ¾Õ¡Õ®": 7086,
      "inti": 7087,
      "Ġteh": 7088,
      "Îļ": 7089,
      "ĠÐ²ÑģÐµ": 7090,
      "ÏĨÎµ": 7091,
      "Ġbeste": 7092,
      "Õ¡Õ¢": 7093,
      "ãĥ³ãĤ¿": 7094,
      "âĹ": 7095,
      "×¢×Ł": 7096,
      "St": 7097,
      "æĺİ": 7098,
      "iler": 7099,
      "Ð¸ÑĤÐµÐ»": 7100,
      "áĥĲáĥĴ": 7101,
      "ĠÐ±Ð¸Ð»Ð°Ð½": 7102,
      "Ġwan": 7103,
      "ei": 7104,
      "Ġà¬ļ": 7105,
      "à¦ľà¦¨": 7106,
      "Ġà¦ľà¦¨": 7107,
      "ador": 7108,
      "rif": 7109,
      "ÑħÐ¿": 7110,
      "ĠOr": 7111,
      "Ġaktiv": 7112,
      "Ta": 7113,
      "ĠáĢĺ": 7114,
      "ÌĮ.": 7115,
      "Ø´Øª": 7116,
      "ture": 7117,
      "áĢ¶áĢ¯": 7118,
      "inda": 7119,
      "ãģĦãģ¾ãģĻ": 7120,
      "ĠMen": 7121,
      "kap": 7122,
      "Ġbab": 7123,
      "Ġãģ«": 7124,
      "à¦ı": 7125,
      "ĠÛĮÚ©": 7126,
      "ĠØ§ÙĦÙĪ": 7127,
      "Ġconse": 7128,
      "ãĥªãĥ¼": 7129,
      "xs": 7130,
      "ĠÑĥÐ¿": 7131,
      "03": 7132,
      "Ð»Ð°Ñģ": 7133,
      "ĠáĦĨáħµ": 7134,
      "Ġtij": 7135,
      "Ġstat": 7136,
      "×ķ×Ļ": 7137,
      "oo": 7138,
      "Ġclub": 7139,
      "Ġà¬ıà¬¹": 7140,
      "à¹ĥà¸Ĭ": 7141,
      "Ġvous": 7142,
      "Ä±k": 7143,
      "ÑģÑĤÑĢÐ°": 7144,
      "åĽŀ": 7145,
      "ĠApp": 7146,
      "ĠÑĸÐ½": 7147,
      "áĪ²áī¥": 7148,
      "ĠÛ½": 7149,
      "Ġkus": 7150,
      "à©Īà¨Ĥ": 7151,
      "ĠÖĥ": 7152,
      "áĥĺáĥĿ": 7153,
      "ÑĥÐº": 7154,
      "ĠÙ¿": 7155,
      "å¯¹": 7156,
      "bul": 7157,
      "Ġà¬ªà¬°": 7158,
      "ĠHar": 7159,
      "Î·Î½Î¿": 7160,
      "kir": 7161,
      "Ġach": 7162,
      "à¶®": 7163,
      "eria": 7164,
      "maz": 7165,
      "isu": 7166,
      "Ġyar": 7167,
      "Ġáĭį": 7168,
      "ĠÐ¶ÑĭÐ»": 7169,
      "áĥĶáĥļáĥĺ": 7170,
      "ØºÙĩ": 7171,
      "Ġbay": 7172,
      "Ġsich": 7173,
      "Ġwaar": 7174,
      "Ð·Ñĸ": 7175,
      "lji": 7176,
      "Ġmik": 7177,
      "àº±à»ī": 7178,
      "åĭķ": 7179,
      "ĠØ§ÙĦÙħÙĪ": 7180,
      "ĠÎ¸Î±Î·Î±": 7181,
      "ÑĸÐ½ÑĸÒ£": 7182,
      "Ġsat": 7183,
      "æĸĻ": 7184,
      "à»ĢàºĽ": 7185,
      "Ġndi": 7186,
      "ĠInter": 7187,
      "Ð´ÓĻ": 7188,
      "Î¡ÎłÎ¥": 7189,
      "Ġkuwa": 7190,
      "vs": 7191,
      "Ġdist": 7192,
      "pad": 7193,
      "Ä±nÄ±n": 7194,
      "æ·": 7195,
      "ĠÕ¦": 7196,
      "ĠÑģÐ°Ð¼Ð¾": 7197,
      "inte": 7198,
      "ÑĭÑĤ": 7199,
      "ãĤ¤ãĥĪ": 7200,
      "pus": 7201,
      "åħ¶": 7202,
      "Î·Î¸ÏĨ": 7203,
      "Öĥ": 7204,
      "×Ļ×ļ": 7205,
      "Ġky": 7206,
      "Ġà¸¡": 7207,
      "Ġdid": 7208,
      "à¶ł": 7209,
      "ÑĤÐµÐ¿": 7210,
      "itter": 7211,
      "Ġà¶ħà¶´": 7212,
      "áĥĲáĥ¨áĥĺ": 7213,
      "ÙģØ³": 7214,
      "à¥¦": 7215,
      "ĠÚ¾": 7216,
      "Ġà¤īà¤ª": 7217,
      "áĥĺáĥ£áĥ": 7218,
      "vn": 7219,
      "Ð°Ð´Ð°": 7220,
      "erte": 7221,
      "Ø²ÙĬ": 7222,
      "Ð¡Ð": 7223,
      "ĠÑĤÐµÑħ": 7224,
      "ĠØ³ÙĨ": 7225,
      "Ġalla": 7226,
      "Ġmang": 7227,
      "ĠTr": 7228,
      "ĠÑħÐ°ÑĢ": 7229,
      "×ĵ×¨": 7230,
      "Ġdella": 7231,
      "ÑħÑħ": 7232,
      "gel": 7233,
      "El": 7234,
      "kus": 7235,
      "ĠÑĤÐµÑĢ": 7236,
      "à²ķà²°": 7237,
      "áłµ": 7238,
      "ĠØ¹ÙĦ": 7239,
      "minist": 7240,
      "ĠÑīÐµ": 7241,
      "tac": 7242,
      "Ġàªķàª°àªµ": 7243,
      "éģİ": 7244,
      "ÙĤÙī": 7245,
      "das": 7246,
      "Ġà®ħà®µà®°": 7247,
      "Ġkot": 7248,
      "Õ¡ÖĢÕ¤": 7249,
      "Ð´ÑĭÒĽ": 7250,
      "Ġayaa": 7251,
      "jte": 7252,
      "Î³Î¿": 7253,
      "æŃ£": 7254,
      "ÑĸÑģ": 7255,
      "ĠÐºÐ°Ð»": 7256,
      "Ð´Ð°ÑĤ": 7257,
      "áĥ¦": 7258,
      "Ġficken": 7259,
      "ĠÕ°Õ¥Õ¿": 7260,
      "ÑĽÐ¸": 7261,
      "ils": 7262,
      "Õ»": 7263,
      "Ġsza": 7264,
      "Ð½Ð¾Ð³": 7265,
      "ÙĬØ³": 7266,
      "ĠÞİ": 7267,
      "ä½Ĩ": 7268,
      "Ġdre": 7269,
      "à¤°à¤¸": 7270,
      "hov": 7271,
      "Ġplat": 7272,
      "à®¤à®²": 7273,
      "iran": 7274,
      "Ġmann": 7275,
      "áł¢áł¨": 7276,
      "ä¸ī": 7277,
      "ĠÐ¿Ð°Ð´": 7278,
      "bes": 7279,
      "à¬¼": 7280,
      "Ġà¦ıà¦ĩ": 7281,
      "Ġà¦Ł": 7282,
      "à»ĥàº«": 7283,
      "Ġà¸Ń": 7284,
      "à®ķà®®": 7285,
      "áĬĲáīµ": 7286,
      "Ġbij": 7287,
      "Ġkostenlos": 7288,
      "æģ": 7289,
      "06": 7290,
      "ĠÑĢÐ¸": 7291,
      "Ġhol": 7292,
      "Ġàª¤àª®": 7293,
      "Ûį": 7294,
      "áŁ¡": 7295,
      "Ġkoja": 7296,
      "Ġà²Ń": 7297,
      "ĠãĤ¢ãĤ¦ãĥĪãĥ¬ãĥĥãĥĪ": 7298,
      "à¸Ńà¸ķ": 7299,
      "ÑħÐ¾Ð´Ð¸": 7300,
      "ĠáĬĲáĭį": 7301,
      "nin": 7302,
      "áŁł": 7303,
      "Ġpog": 7304,
      "Ġnok": 7305,
      "ÑįÑĢÑįÐ³": 7306,
      "ĠtÉĻ": 7307,
      "Ġà¤ł": 7308,
      "áĢ±áĢ¬áĢ·": 7309,
      "usto": 7310,
      "áĢ½áĢŃ": 7311,
      "shte": 7312,
      "ç£¯": 7313,
      "ovo": 7314,
      "orte": 7315,
      "lla": 7316,
      "Ġwir": 7317,
      "Ð°ÑĤÐ°ÑĢ": 7318,
      "Ġamin": 7319,
      "ĠÞĤ": 7320,
      "elf": 7321,
      "Ġuu": 7322,
      "ÏĥÎ±": 7323,
      "âĺĨâĺĨ": 7324,
      "01": 7325,
      "ĠSie": 7326,
      "Ð»Ð¸Ð³Ð¸": 7327,
      "áł¤áł¯": 7328,
      "é£Ł": 7329,
      "à¸¢à¸§": 7330,
      "Ġvr": 7331,
      "ÑģÑĤÑĥÐ¿": 7332,
      "ÙĩØ§ÛĮ": 7333,
      "Ġmund": 7334,
      "Ġolan": 7335,
      "irs": 7336,
      "ĠÐ·Ð°Ð¿": 7337,
      "Ġà®°": 7338,
      "Ġting": 7339,
      "ÙĩØ¯": 7340,
      "ĠàªŁ": 7341,
      "ĠØ¨ÙĬÙĨ": 7342,
      "×ĳ×ľ": 7343,
      "uten": 7344,
      "ĠØ±Ûģ": 7345,
      "Ġsobre": 7346,
      "ĠilÉĻ": 7347,
      "Ġà¤īà¤¨": 7348,
      "imiz": 7349,
      "cin": 7350,
      "Ġkie": 7351,
      "à¥Ģ,": 7352,
      "ĠÒĵ": 7353,
      "ĠPre": 7354,
      "èº«": 7355,
      "oleh": 7356,
      "ÑģÐ¸Ñı": 7357,
      "imal": 7358,
      "ĠÐ°Ð¿": 7359,
      "mÉĻk": 7360,
      "ĠÑĤÐ°Ð¼": 7361,
      "ĠÙĩÙĬ": 7362,
      "Þĳ": 7363,
      "Ð·Ð¼": 7364,
      "áĢĻáĢļ": 7365,
      "Ġbei": 7366,
      "ç£¯éĩİ": 7367,
      "Ġà¸£": 7368,
      "Ġgio": 7369,
      "urn": 7370,
      "heim": 7371,
      "ational": 7372,
      "enye": 7373,
      "ÌĦ.": 7374,
      "èŃ": 7375,
      "Ġnach": 7376,
      "ĠÑĤÐ°Ð±": 7377,
      "ument": 7378,
      "à¬¿à¥¤": 7379,
      "Ġbiti": 7380,
      "Ġfunk": 7381,
      "ĠÑīÐ¾": 7382,
      "à®¤à®¤": 7383,
      "Ġà¨Ĩà¨ª": 7384,
      "dom": 7385,
      "à®ķà®ª": 7386,
      "ãĤĩãģĨ": 7387,
      "ÏĩÎµÎ¹": 7388,
      "Ġkup": 7389,
      "eden": 7390,
      "ÏĩÎ±": 7391,
      "ä½į": 7392,
      "ĠBi": 7393,
      "Ġà¶ļà¶»à¶±": 7394,
      "ĠØ³Ø§ÙĦ": 7395,
      "ĠÙĨÛģÛĮÚº": 7396,
      "Ġzar": 7397,
      "àºĽàº°": 7398,
      "02": 7399,
      "Ġà¬ĵ": 7400,
      "èĲ": 7401,
      "Ġimport": 7402,
      "ĠÐ¼Ð¸Ð½": 7403,
      "à«Ģ.": 7404,
      "Ð¡ÐĤ": 7405,
      "uu": 7406,
      "ĠØ²ÛĮ": 7407,
      "ĠÐ½ÐµÐº": 7408,
      ",âĢĿ": 7409,
      "áĦĨáħµ": 7410,
      "âĶ": 7411,
      "æĥ³": 7412,
      "oa": 7413,
      "Se": 7414,
      "Ġà´²": 7415,
      "Î¡ÎłÎķ": 7416,
      "esz": 7417,
      "Ġ2013": 7418,
      "ĠbilÉĻr": 7419,
      "áłłáł·": 7420,
      "ĠÙĪÙĦ": 7421,
      "Ġtap": 7422,
      "chich": 7423,
      "Õ¥Õ¬Õ¸ÖĤ": 7424,
      "áĦİáħµ": 7425,
      "Ġnj": 7426,
      "Ú©Ø±": 7427,
      "ĠÐºÐµÑĢ": 7428,
      "isha": 7429,
      "Ð»Ð°Ð²": 7430,
      "arte": 7431,
      "Ġqual": 7432,
      "ä¿Ŀ": 7433,
      "enas": 7434,
      "Ġà¸Ī": 7435,
      "ilar": 7436,
      "Ġ35": 7437,
      "àºĻàºģ": 7438,
      "Ð±Ð¾ÑĢ": 7439,
      "Ð°Ð»Ð¾": 7440,
      "ÌĨÌĢ": 7441,
      "Ø§Øº": 7442,
      "ĠÐ¿ÑĢÐ°Ð²": 7443,
      "Ø¯Ø§Ùħ": 7444,
      "bh": 7445,
      "tive": 7446,
      "Ġï½": 7447,
      "áĢĲáĢħ": 7448,
      "ĠÐºÐ¾Ð¸": 7449,
      "Ġà¬¸à¬®": 7450,
      "ĠáĪĿ": 7451,
      "è¢": 7452,
      "ote": 7453,
      "àª°àª®": 7454,
      "RO": 7455,
      "ĠÏĦÎ¹": 7456,
      "ĠÎµÎº": 7457,
      "ãģ¾ãģĹãģŁ": 7458,
      "ĠàªĨàªª": 7459,
      "Ġlik": 7460,
      "ĠØ¬ÙĨ": 7461,
      "ĠGa": 7462,
      "ĠØ§ÙĦÙĦÙĬ": 7463,
      "Ġà¤ªà¤¨": 7464,
      "cs": 7465,
      "å°ĳ": 7466,
      "è»": 7467,
      "áŀ»áŁĨ": 7468,
      "ĠÚģ": 7469,
      "Ø®ÙĦ": 7470,
      "×ŀ×Ķ": 7471,
      "Ġáĥŀáĥł": 7472,
      "àºľ": 7473,
      "à¶ļà¶»": 7474,
      "vik": 7475,
      "Î½Ïī": 7476,
      "¥áĥ¢": 7477,
      "ĠÐ½Ð°Ð¼": 7478,
      "Î½ÏĢÎ¿": 7479,
      "Ġà¹Ĥ": 7480,
      "gr": 7481,
      "eca": 7482,
      "Ġsistem": 7483,
      "Ø±Ø¶": 7484,
      "lie": 7485,
      "ilik": 7486,
      "mit": 7487,
      "ystem": 7488,
      "Ġjar": 7489,
      "Ġoh": 7490,
      "ĠÚī": 7491,
      "æ¯Ķ": 7492,
      "Ġbru": 7493,
      "Ġyr": 7494,
      "mon": 7495,
      "Ġjer": 7496,
      "ÑħÐ°Ð½": 7497,
      "ÑħÐ¸Ð¸": 7498,
      "Ġà²ī": 7499,
      "áĥĲáĥĺ": 7500,
      "çĿĢ": 7501,
      "Õ¡Õ¶ÖĦ": 7502,
      "Ġãĥ¬": 7503,
      "Ġà°Ł": 7504,
      "Ð±Ð°ÑĢ": 7505,
      "Ġenc": 7506,
      "àºĸ": 7507,
      "à®©à®°": 7508,
      "à¹Ģà¸ĩ": 7509,
      "ĠÐ¿Ð°Ð¸": 7510,
      "Ġsun": 7511,
      "esse": 7512,
      "Ġpero": 7513,
      "LE": 7514,
      "ÑģÐ¸Ð¸": 7515,
      "Ġnep": 7516,
      "à½ĸà½¢": 7517,
      "Ġmore": 7518,
      "Ġbang": 7519,
      "rio": 7520,
      "akte": 7521,
      "Ð¸Ð·Ð¸": 7522,
      "Ġà¶¶à·Ģ": 7523,
      "áĢ¬áĢ±": 7524,
      "Ø¬Ùĩ": 7525,
      "Ġbeb": 7526,
      "ØªØµ": 7527,
      "Ġorang": 7528,
      "ĠÖħ": 7529,
      "ily": 7530,
      "Ġses": 7531,
      "Ø§ÙĦØ¨": 7532,
      "áĦīáħ®": 7533,
      "die": 7534,
      "ÑģÑĤÐ²ÐµÐ½": 7535,
      "bel": 7536,
      "nn": 7537,
      "Ġà¬ī": 7538,
      "à¸Ķà¸¢": 7539,
      "ØªÙĪ": 7540,
      "æĽ´": 7541,
      "ncia": 7542,
      "uran": 7543,
      "ungan": 7544,
      "ĠáĪĭ": 7545,
      "ç³": 7546,
      "atud": 7547,
      "à½ĳà½Ĥ": 7548,
      "36": 7549,
      "Ġà¨°à¨¹": 7550,
      "à°¿,": 7551,
      "áĢĲáĢĦ": 7552,
      "09": 7553,
      "alam": 7554,
      "Ġprop": 7555,
      "fik": 7556,
      "ĠÐ´ÐµÐ¸": 7557,
      "ĠÑĦÐ¾ÑĢ": 7558,
      "Ġorganiz": 7559,
      "Ġone": 7560,
      "ç¬¬": 7561,
      "lec": 7562,
      "tag": 7563,
      "áĢ¹áĢ¸áĢ±": 7564,
      "Ġ2023": 7565,
      "Ġáī¥": 7566,
      "æĢĿ": 7567,
      "Ġsn": 7568,
      "Ġseu": 7569,
      "éľ": 7570,
      "Ð»Ð°Ð³": 7571,
      "Ð·Ð²": 7572,
      "ÑĬÑĤ": 7573,
      "Ġà¶ħà·Ģ": 7574,
      "ĠáĦĮáħ¥áĨ«": 7575,
      "ÙĪØ±Øª": 7576,
      "Ġprz": 7577,
      "RI": 7578,
      "Ġquan": 7579,
      "ĠÑĩÐ°Ñģ": 7580,
      "ultur": 7581,
      "Ġà¨¨à¨¹": 7582,
      "áł´": 7583,
      "kla": 7584,
      "Ġdha": 7585,
      "ĠÎłÎ©": 7586,
      "çī¹": 7587,
      "åĲİ": 7588,
      "Ġswingerclub": 7589,
      "ï¿½ï¿½": 7590,
      "áĥĽáĥĲ": 7591,
      "ÑĢÑĤ": 7592,
      "âĤ¬": 7593,
      "Ġera": 7594,
      "Ġestas": 7595,
      "ÞĶ": 7596,
      "åĿ": 7597,
      "ÑĨÑı": 7598,
      "Ġdaar": 7599,
      "Ø§Ø¯ÙĬ": 7600,
      "áŁīáŀ¶": 7601,
      "des": 7602,
      "ÏģÎµÎ·": 7603,
      "Ġtor": 7604,
      "ä»¬": 7605,
      "ĠãģŁ": 7606,
      "ao": 7607,
      "mÉĻ": 7608,
      "Ġmobil": 7609,
      "ç±": 7610,
      "Ð³ÓĻ": 7611,
      "Ġáĭ¨áī°": 7612,
      "Ġtit": 7613,
      "ÏĦÏī": 7614,
      "Ġjs": 7615,
      "Ġsti": 7616,
      "áĭĬ": 7617,
      "ĠDen": 7618,
      "annya": 7619,
      "Ø§Ø¯ÛĮ": 7620,
      "ä¿¡": 7621,
      "Ġdod": 7622,
      "Ġà²¯": 7623,
      "Ð¯": 7624,
      "×ĵ×Ļ": 7625,
      "ĠØ¨Ø¹": 7626,
      "Ġà¨¸à¨®": 7627,
      "à¨ĺ": 7628,
      "à¹ĥà¸Ī": 7629,
      "Ġcr": 7630,
      "ĠÑĤÐ¾Ð¼": 7631,
      "Î¼ÏĦÎ¹": 7632,
      "Ġning": 7633,
      "Ġans": 7634,
      "ÙĪØ±ÛĮ": 7635,
      "à¸²à¸£à¸ĸ": 7636,
      "àºĻàºĹ": 7637,
      "Î³ÎµÎ¹": 7638,
      "áĥ£": 7639,
      "åĥ": 7640,
      "ÑĤÐ¸Ð½": 7641,
      "Ġnatur": 7642,
      "à½Ł": 7643,
      "Ø§Ø±Ø©": 7644,
      "ĠØ¨ÙĪØ¯": 7645,
      "Ġdog": 7646,
      "Ġpes": 7647,
      "åĪ©": 7648,
      "áĪ©": 7649,
      "cher": 7650,
      "Ġmig": 7651,
      "ating": 7652,
      "ÑĸÐ¿": 7653,
      "Ġkil": 7654,
      "Ð½ÑĥÑİ": 7655,
      "Ġnac": 7656,
      "Ġrom": 7657,
      "à§¦": 7658,
      "Ġsite": 7659,
      "Î·Î±Î¿": 7660,
      "ĠÑģÐ°ÑĢ": 7661,
      "ĠÐºÐ¾ÑĺÐ¸": 7662,
      "example": 7663,
      "Ġkay": 7664,
      "100": 7665,
      "Ġbib": 7666,
      "ĠAk": 7667,
      "à¸²à¸Ķ": 7668,
      "áł£": 7669,
      "æº": 7670,
      "à¹Ģà¸ķ": 7671,
      "Ġmell": 7672,
      "ÑħÑĥ": 7673,
      "Ġec": 7674,
      "riv": 7675,
      "Ġml": 7676,
      "ï½½": 7677,
      "ĠÑħÑĥ": 7678,
      "Ġyer": 7679,
      "ÑıÐ±": 7680,
      "Î¡Î¡Îł": 7681,
      "jak": 7682,
      "ĠÎĹ": 7683,
      "à¸ķà¸£": 7684,
      "ines": 7685,
      "ĠØ¯Ø§": 7686,
      "ĠÕºÕ¡Õ¿": 7687,
      "çĤº": 7688,
      "ĠÐ¸ÑģÐ¿": 7689,
      "hh": 7690,
      "áĥĲáĥĻ": 7691,
      "Ġveg": 7692,
      "adan": 7693,
      "ĠÙ¾Ûİ": 7694,
      "ĠØ¯ÙĪØ±": 7695,
      "ä»£": 7696,
      "ãģģ": 7697,
      "ç²": 7698,
      "áīĥ": 7699,
      "à¤°à¤µ": 7700,
      "ĠMil": 7701,
      "Ð´ÐµÐ¼": 7702,
      "ĠÚ©ÛĮØ§": 7703,
      "ĠáĦĤáħ¡": 7704,
      "88": 7705,
      "Ð»Ð°Ð¸": 7706,
      "Ġà¤¨à¤¹": 7707,
      "Ġà¨īà¨¹": 7708,
      "nov": 7709,
      "zia": 7710,
      "Ø¯ÙĪ": 7711,
      "à´ķà´°": 7712,
      "Ar": 7713,
      "Ð¸ÑĪ": 7714,
      "áĥĶáĥĳáĥĺáĥĹ": 7715,
      "áĥļáĥĺáĥ¡": 7716,
      "ĠÙĪØ³": 7717,
      "ĠBr": 7718,
      "iniu": 7719,
      "à¹ģà¸¥": 7720,
      "ĠãĤµ": 7721,
      "Ġàºģ": 7722,
      "ĠmÉĻr": 7723,
      "Ġpem": 7724,
      "Ġia": 7725,
      "Ġere": 7726,
      "ĠÐĨ": 7727,
      "Ġdim": 7728,
      "ĠÎ´Î¹": 7729,
      "ãĥ¼ãĥĮ": 7730,
      "æ®": 7731,
      "Ø´ÙĨ": 7732,
      "æ¶": 7733,
      "ĠØ§Ø¬": 7734,
      "åģļ": 7735,
      "ÑĬÐ¼": 7736,
      "Ø¬ÙĬ": 7737,
      "Ð°ÑĤÑĭÐ½": 7738,
      "Ġà¤²à¤Ĺ": 7739,
      "Î´Î¿": 7740,
      "ĠáĦĨáħ©": 7741,
      "ÐµÐ½Ðµ": 7742,
      "Ġãģ¯": 7743,
      "áĢ¡áĢģ": 7744,
      "rste": 7745,
      "Ġoleh": 7746,
      "éĽ»": 7747,
      "Ġà®ķà®Ł": 7748,
      "à°°à°®": 7749,
      "ĠÙħØ«": 7750,
      "áĦĴáħ¡áĦĤáħ³áĨ«": 7751,
      "ĠMer": 7752,
      "ÑįÐ¶": 7753,
      "ĠÐ¼Ð¸Ð»": 7754,
      "áĥĺáĥļáĥĺ": 7755,
      "perti": 7756,
      "ĠØ´Ø¯": 7757,
      "ÏģÏĢÏĢÎ¹Î½": 7758,
      "Ġdun": 7759,
      "åĳ¢": 7760,
      "och": 7761,
      "ĠÏĢÎ¹": 7762,
      "04": 7763,
      "kje": 7764,
      "Ð¸Ñħ": 7765,
      "è¨Ģ": 7766,
      "ĠÙĦÛĮ": 7767,
      "Ġbila": 7768,
      "ĠKu": 7769,
      "Ú¯Ûķ": 7770,
      "Ġmani": 7771,
      "Æı": 7772,
      "áĪİ": 7773,
      "ĠØªØµ": 7774,
      "ĠØ´Ø±": 7775,
      "Ġtun": 7776,
      "aste": 7777,
      "sky": 7778,
      "Ġeine": 7779,
      "ef": 7780,
      "ĠÎ±Î½Î±": 7781,
      "ÑĢÐ°Ð»": 7782,
      "Î·Î¸Îµ": 7783,
      "Ø³Ø§ÙĨ": 7784,
      "Ð½Ð¾Ðµ": 7785,
      "à¸²à¸¡à¸²à¸£à¸ĸ": 7786,
      "mel": 7787,
      "×£": 7788,
      "ical": 7789,
      "à¸ĩà¸²à¸Ļ": 7790,
      "å¢": 7791,
      "Ø«Ø±": 7792,
      "ĠØ¨Ø§Ø²": 7793,
      "tai": 7794,
      "áŀļáŀĳ": 7795,
      "enja": 7796,
      "Ġkami": 7797,
      "àº¶": 7798,
      "taa": 7799,
      "Ġà¤ķà¤°à¤¤": 7800,
      "åĽł": 7801,
      "ÏĥÎ·ÏĤ": 7802,
      "×Ļ×Ļ×Ł": 7803,
      "Î¹ÏĦÎµ": 7804,
      "×ľ×Ķ": 7805,
      "Ġ31": 7806,
      "ĠÒĽÐ¸Ð»Ð¸": 7807,
      "ĠÐ¼ÐµÐº": 7808,
      "fra": 7809,
      "áŀĺáŀĢ": 7810,
      "Î´Î·Î¼ÏĦÎ¹": 7811,
      "ĠáłŃ": 7812,
      "áĥķáĥĶáĥľ": 7813,
      "ĠÎ¾ÏģÏĢÏĢÎ¹Î½": 7814,
      "à¬Ľà¬¨": 7815,
      "Ġkak": 7816,
      "Ġvz": 7817,
      "à®°à®®": 7818,
      "ÑĦÐµÑĪ": 7819,
      "Ġcara": 7820,
      "ppen": 7821,
      "Ġà®ĩà®¤": 7822,
      "ÑĽÐµ": 7823,
      "Ġà²ħà²µà²°": 7824,
      "dsm": 7825,
      "inÉĻ": 7826,
      "Ġà¤ªà¤¹": 7827,
      "ĠÑħÒ¯": 7828,
      "Ġà¤ķà¤°à¤£": 7829,
      "ated": 7830,
      "inter": 7831,
      "Ġáĥ¢": 7832,
      "à¤®à¤§": 7833,
      "ĠOs": 7834,
      "áŀĶáŀĵ": 7835,
      "Ð·Ñĥ": 7836,
      "kra": 7837,
      "å½ĵ": 7838,
      "Ġzab": 7839,
      "ĠMag": 7840,
      "ibus": 7841,
      "Õ¥Õ¡Õ¶": 7842,
      "Ð¿Ð°ÑĢ": 7843,
      "Die": 7844,
      "Ð¦": 7845,
      "Ð¸Ð»ÑĮ": 7846,
      "àº§àº²àº¡": 7847,
      "ãģī": 7848,
      "gs": 7849,
      "ĠGr": 7850,
      "Î¿ÏħÏĤ": 7851,
      "adu": 7852,
      "ĠÐ¼ÐµÑĤ": 7853,
      "Ġ×Ľ×ľ": 7854,
      "igu": 7855,
      "ĠÑĤÐ°Ð»": 7856,
      "Ð³Ð¾Ð½": 7857,
      "Î½ÎµÎ¹": 7858,
      "top": 7859,
      "ĠGoogle": 7860,
      "site": 7861,
      "ÙĨØ§Ùħ": 7862,
      "Ð»ÑĮ": 7863,
      "Ġpou": 7864,
      "à©ģà©°": 7865,
      "Ġnang": 7866,
      "ÑĸÑĤ": 7867,
      "ĠÎ±Î¾": 7868,
      "Ġwaxa": 7869,
      "Ġproces": 7870,
      "Ð»ÑĭÒĽ": 7871,
      "ĠsÃ¸": 7872,
      "ĠÙ¾ÛĮ": 7873,
      "ÑĩÐ½Ð¸": 7874,
      "Ġà¤ķà¤®": 7875,
      "Ġsaat": 7876,
      "áĦĮáħ¥áĨ«": 7877,
      "tica": 7878,
      "à²¯à²¨": 7879,
      "Ġ×Ķ×¢": 7880,
      "ÐµÑģÐµ": 7881,
      "Ð°ÑĤÑĥ": 7882,
      "Î´Î½": 7883,
      "Ø±Ø§Øª": 7884,
      "áĢŃáĢ³": 7885,
      "ÐµÑģÐ¿": 7886,
      "ĠÎ·Î½ÏĢÎ¿": 7887,
      "kul": 7888,
      "07": 7889,
      "iner": 7890,
      "Ġtop": 7891,
      "ÅĤo": 7892,
      "tal": 7893,
      "Ġãģĭ": 7894,
      "Ġmassasje": 7895,
      "ĠÐ½Ð¾Ð²": 7896,
      "áĢ½áĢ¬áĢ¸": 7897,
      "hem": 7898,
      "antes": 7899,
      "Ġrav": 7900,
      "×ŀ×©": 7901,
      "Ġhef": 7902,
      "ĠÐ±ÑĭÐ»": 7903,
      "à«ĭ.": 7904,
      "qui": 7905,
      "ĠÐ³Ñİ": 7906,
      "ãģĥ": 7907,
      "àºªàº°": 7908,
      "ĠÑĩÑĭ": 7909,
      "Ġmam": 7910,
      "áĥ¤": 7911,
      "det": 7912,
      "Ð¾ÑĤÐ¸": 7913,
      "Ġgran": 7914,
      "ÑģÑĤÐµÑĢ": 7915,
      "Ġsla": 7916,
      "à²¤à²°": 7917,
      "Ġetter": 7918,
      "bra": 7919,
      "áĭĿ": 7920,
      "Ġáŀ¢": 7921,
      "áĥĶáĥĳáĥ£áĥļáĥĺ": 7922,
      "ãģĩ": 7923,
      "Ġbere": 7924,
      "èī²": 7925,
      "Ġlahko": 7926,
      "Ġ2012": 7927,
      "Ð»Ð°Ð¼": 7928,
      "ibh": 7929,
      "ÑģÐºÐµ": 7930,
      "Ġmum": 7931,
      "à®ķà®µ": 7932,
      "joni": 7933,
      "áĥ®áĥķ": 7934,
      "ÑģÑĤÑĸ": 7935,
      "ĠáĦĮáħ¦": 7936,
      "Ġfrau": 7937,
      "inya": 7938,
      "Ġàª¸àª®": 7939,
      "éĸĭ": 7940,
      "à²Ĺà²³à²¨": 7941,
      "Ġsatu": 7942,
      "ÑĥÐ¶": 7943,
      "ØŃØ¯": 7944,
      "ĠÎµÏĢÎ·": 7945,
      "áĥĸáĥĶ": 7946,
      "Ð´ÐµÑĤ": 7947,
      "jt": 7948,
      "Ġasi": 7949,
      "ĠÐ¸Ð»": 7950,
      "Ġele": 7951,
      "urd": 7952,
      "Ġwi": 7953,
      "áłłáł¯": 7954,
      "ÑıÑģ": 7955,
      "Ġà¼į": 7956,
      "Ð²Ð¾Ð´": 7957,
      "ãĤ¤ãĥ³": 7958,
      "Ġszer": 7959,
      "ugh": 7960,
      "Ġsexy": 7961,
      "áĪģ": 7962,
      "Ġà¨¸à¨ķ": 7963,
      "à¾±à½º": 7964,
      "Ġà°«": 7965,
      "Ġprote": 7966,
      "king": 7967,
      "×Ļ×¦": 7968,
      "Ġà°Ĵà°ķ": 7969,
      "Ġnik": 7970,
      "Ġlub": 7971,
      "Ð³ÑįÑį": 7972,
      "Õ¸ÖĤÕµ": 7973,
      "ÙİÙĳ": 7974,
      "Ġsunt": 7975,
      "Ġnost": 7976,
      "Ġ×¢×Ŀ": 7977,
      "ĠÏĦÎ¿Î½": 7978,
      "à²ĸ": 7979,
      "Ġ500": 7980,
      "ç¥ŀ": 7981,
      "ĠÐ½Ð°Ð·": 7982,
      "ĠEd": 7983,
      "à¹Ģà¸Ħ": 7984,
      "ĠáĥĽáĥĿáĥ": 7985,
      "ĠÕ°Õ¡Õµ": 7986,
      "áĦĴáħ¬": 7987,
      "Ġà¤ķà¤°à¤¨": 7988,
      "Ġdaha": 7989,
      "Ġ×Ķ×¨": 7990,
      "áłª": 7991,
      "ĠVo": 7992,
      "zb": 7993,
      "áĦĢáħ®": 7994,
      "Î³Î¾Î±": 7995,
      "cus": 7996,
      "ÐĨ": 7997,
      "Ġzi": 7998,
      "jev": 7999,
      "Ġbonus": 8000,
      "cam": 8001,
      "å¹³": 8002,
      "ÑĩÐ½Ð°": 8003,
      "oss": 8004,
      "ãĢĳ": 8005,
      "à¸²à¸ķ": 8006,
      "ÐµÐ³ÐµÐ½": 8007,
      "ĠÐ¼Ð°ÑĪ": 8008,
      "ØºØ±Ø¨": 8009,
      "áĥ£áĥłáĥĺ": 8010,
      "Ġtes": 8011,
      "load": 8012,
      "Ġstand": 8013,
      "ÑĢÐ¿": 8014,
      "ĠTra": 8015,
      "ĠNor": 8016,
      "åı¸": 8017,
      "ĠØŃÙĬ": 8018,
      "ĠáĦĴáħ¡áĨ«": 8019,
      "ĠEm": 8020,
      "à·Ģà¶ļ": 8021,
      "Ø±ÙĬÙĤ": 8022,
      "ĠØ´Ø¯Ùĩ": 8023,
      "ĠÎ²Î±": 8024,
      "æıĲ": 8025,
      "ljen": 8026,
      "LA": 8027,
      "Ð¾Ñİ": 8028,
      "ĠÐ³Ð°Ð·": 8029,
      "ÑģÐºÑĸ": 8030,
      "à¦ĵà¦¯": 8031,
      "Ð³Ð°Ð»": 8032,
      "ĠÐºÐ°Ð±": 8033,
      "fat": 8034,
      "áŁı": 8035,
      "à°°à°¤": 8036,
      "Ġoslo": 8037,
      "pes": 8038,
      "ÕĢ": 8039,
      "Ġtime": 8040,
      "ÑĢÐµÐ½": 8041,
      "ĠNam": 8042,
      "ÐºÐ¾Ð½": 8043,
      "ãĢĲ": 8044,
      "Ġzdrav": 8045,
      "ics": 8046,
      "Ġkuri": 8047,
      "à¸§à¸Ļ": 8048,
      "Ġà¤Ńà¤ıà¤ķ": 8049,
      "nk": 8050,
      "à¦°à¦ķ": 8051,
      "ĠÑĢÐ°Ñģ": 8052,
      "ÙħØª": 8053,
      "ĠÑĽ": 8054,
      "à³ģ,": 8055,
      "ijas": 8056,
      "ppe": 8057,
      "Ġsvoj": 8058,
      "itud": 8059,
      "Ġany": 8060,
      "bir": 8061,
      "Ø§ÙĨØ§": 8062,
      "fel": 8063,
      "ãĢĭ": 8064,
      "ĠØ§Ø´": 8065,
      "ĠÒ¯Ð·": 8066,
      "åħĪ": 8067,
      "ĠÑįÐº": 8068,
      "ÑĭÒĽ": 8069,
      "Ġà¦§": 8070,
      "ÑĢÐ°Ð¸": 8071,
      "Ġxwe": 8072,
      "ĠáĦĭáħ©": 8073,
      "à¹Ģà¸¡": 8074,
      "Ġhun": 8075,
      "áĬ¥": 8076,
      "Ġkepada": 8077,
      "kr": 8078,
      "ĠÐ¼ÓĻ": 8079,
      "Ð½ÑĭÑı": 8080,
      "ãĢĬ": 8081,
      "ãĤ¤ãĤ¹": 8082,
      "roid": 8083,
      "Ġwww": 8084,
      "ÏīÏĤ": 8085,
      "ĠvÃ¦re": 8086,
      "Ġà®ı": 8087,
      "eksi": 8088,
      "ÏĦÏĪ": 8089,
      "ĠÃŀ": 8090,
      "Ġblog": 8091,
      "tions": 8092,
      "Ġiki": 8093,
      "Ġwal": 8094,
      "ãģħ": 8095,
      "ĠÕ«Õ¶": 8096,
      "Ġtet": 8097,
      "áŀĺáŀĵ": 8098,
      "éŁ": 8099,
      "ÑıÐ·": 8100,
      "ÑĩÐµÑģÐº": 8101,
      "ĠÐ°Ð¶Ð¸Ð»": 8102,
      "Ġym": 8103,
      "äºİ": 8104,
      "Ġ90": 8105,
      "Ġsuk": 8106,
      "Ġbanyak": 8107,
      "iliz": 8108,
      "Ġà¦ıà¦¬": 8109,
      "may": 8110,
      "ÑĢÐ¾Ð¸": 8111,
      "ĠKe": 8112,
      "ĠAg": 8113,
      "×ķ×ĺ": 8114,
      "ÉĻlÉĻr": 8115,
      "ÌĤ,": 8116,
      "Ġnew": 8117,
      "ovy": 8118,
      "enz": 8119,
      "ĠÐ²Ð°ÑĪ": 8120,
      "rai": 8121,
      "??": 8122,
      "part": 8123,
      "ĠÑĤÐ°ÑĪ": 8124,
      "ĠDan": 8125,
      "à®ķà®¤": 8126,
      "ĠÂ": 8127,
      "áħ§áĨ¯": 8128,
      "Î½ÏĦÎ±": 8129,
      "Ġ70": 8130,
      "Ġsind": 8131,
      "Ġtudi": 8132,
      "à°¦à°°": 8133,
      "ÑĢÐ¸Ð½": 8134,
      "Ð²Ñĭ": 8135,
      "Ġáĥ§": 8136,
      "UT": 8137,
      "Ð°Ð¶": 8138,
      "Ġà¦ĺ": 8139,
      "ĠÒĽÐ¾Ð»": 8140,
      "Ø´Ø§ÙĨ": 8141,
      "ĠÒ¡": 8142,
      "44": 8143,
      "wie": 8144,
      "×§×¨": 8145,
      "ĠÕĦ": 8146,
      "masÄ±": 8147,
      "ĠÐ½Ð°Ñĺ": 8148,
      "ĠØ³ÙĪ": 8149,
      "ĠÐ±Ð¾ÑĪ": 8150,
      "Ã¸y": 8151,
      "Ð¡Ðĵ": 8152,
      "Ġinform": 8153,
      "Õ¡ÖĤ": 8154,
      "leri": 8155,
      "Ġpret": 8156,
      "ĠáĮį": 8157,
      "Ġib": 8158,
      "Ġconst": 8159,
      "hon": 8160,
      "ĠÐ½ÑĢ": 8161,
      "ature": 8162,
      "à°«": 8163,
      "Ġken": 8164,
      "ĠÐ³Ð¾Ð»": 8165,
      "ØĽ": 8166,
      "ÑĢÑħÐ±": 8167,
      "áĤĪ": 8168,
      "Ð´Ð¸ÑĢ": 8169,
      "Ġdoc": 8170,
      "ĠÕ¥ÖĢÕ": 8171,
      "ĠAmer": 8172,
      "Ġà¤¸à¤¹": 8173,
      "Î§": 8174,
      "ango": 8175,
      "ÑģÐ»Ð¸": 8176,
      "Ġnjih": 8177,
      "áĥĺáĥłáĥ": 8178,
      "áĤıáĢ½": 8179,
      "Ġfem": 8180,
      "ÎµÏĤ": 8181,
      "ĠáĪĭáĭŃ": 8182,
      "kil": 8183,
      "áĬĸ": 8184,
      "Î¾ÎµÎ¹": 8185,
      "áĦĢáħ¥": 8186,
      "ĠáĢ¡áĢģ": 8187,
      "áĦĭáħ²": 8188,
      "ÛİÙĨ": 8189,
      "æ¼": 8190,
      "Ð´ÐµÐ»": 8191,
      "ady": 8192,
      "ĠEt": 8193,
      "ĠãĤĴ": 8194,
      "ĠØ¨Ø§Ø±": 8195,
      "Ð»Ð³Ð°Ð½": 8196,
      "yat": 8197,
      "åı£": 8198,
      "Ġáĥª": 8199,
      "ĠMi": 8200,
      "Ġdire": 8201,
      "Ġà¶ļà·ħ": 8202,
      "æł¼": 8203,
      "ĠÒ»ÓĻÐ¼": 8204,
      "Ġà°¯": 8205,
      "Ġkann": 8206,
      "ĠÐ°ÑģÑĤ": 8207,
      "ï¾ģ": 8208,
      "indow": 8209,
      "ĠÒ¯ÑĪ": 8210,
      "ÑĭÐ½Ð°Ð½": 8211,
      "skog": 8212,
      "àŃ±": 8213,
      "uo": 8214,
      "Ġ80": 8215,
      "è§£": 8216,
      "ĠÐºÐ°ÐºÐ¾": 8217,
      "Ú©ÙĨ": 8218,
      "à¬ł": 8219,
      "apan": 8220,
      "å¼ı": 8221,
      "Ġavec": 8222,
      "Ġà¸Ļ": 8223,
      "Ð½ÑĮ": 8224,
      "ark": 8225,
      "ÙĬÙĩ": 8226,
      "Ġub": 8227,
      "Ġà¹ĥ": 8228,
      "ÑĤÑĢ": 8229,
      "Ġekki": 8230,
      "Ġ×ĸ×Ķ": 8231,
      "Ġoor": 8232,
      "igan": 8233,
      "ĠÑĪÐ¸": 8234,
      "Ġà°¡": 8235,
      "ĠÚ©Ùħ": 8236,
      "Ġpriv": 8237,
      "Ġrealiz": 8238,
      "ingiz": 8239,
      "à¦¼à¥¤": 8240,
      "ĠÑĥÐ·": 8241,
      "à¤°à¤¦": 8242,
      "Ġzad": 8243,
      "Î»Ïħ": 8244,
      "Ġ*": 8245,
      "Î¶ÎµÎ¹": 8246,
      "ĠÐ¿ÑĢÐ¾ÑĨ": 8247,
      "Ø·Ø©": 8248,
      "Ġyan": 8249,
      "Ø¹Ø¨": 8250,
      "éķ·": 8251,
      "à©Ģà¥¤": 8252,
      "Ġà¤¯à¤¹": 8253,
      "nad": 8254,
      "Ġslot": 8255,
      "Ð°Ð´Ñĭ": 8256,
      "Ð½Ð°Ð»": 8257,
      "Ġbilo": 8258,
      "ĠÐ¾ÑĢÑĤ": 8259,
      "Ġdest": 8260,
      "Ġiy": 8261,
      "ÎºÎ½": 8262,
      "ÏĩÎ¹": 8263,
      "elik": 8264,
      "ĠIm": 8265,
      "ĠØŃÙĤ": 8266,
      "à¬ĩà¬¥": 8267,
      "ÙħÙĥÙĨ": 8268,
      "Ð´Ð¾Ð²": 8269,
      "Ġà¨Ĩà¨ªà¨£": 8270,
      "Ġif": 8271,
      "ĠÐ·Ð°Ð±": 8272,
      "ãĤĮãģ¦": 8273,
      "ĠÐ½Ð°ÑĪ": 8274,
      "ÑĢÐ¾Ðº": 8275,
      "Õ¥ÖĢÕ«": 8276,
      "âĢ¦âĢ¦": 8277,
      "ĠÎ¡Îł": 8278,
      "ÐłÐĨ": 8279,
      "pla": 8280,
      "Ġprez": 8281,
      "ĠTi": 8282,
      "Ġà¨Ł": 8283,
      "Ġilma": 8284,
      "tat": 8285,
      "ÙĦØª": 8286,
      "à²¾à²Ĥ": 8287,
      "Ð¾Ñĺ": 8288,
      "à¨°à¨ķ": 8289,
      "à¦ŀ": 8290,
      "Ġvita": 8291,
      "ĠÎ¸Îµ": 8292,
      "rte": 8293,
      "gang": 8294,
      "sl": 8295,
      "imus": 8296,
      "ĠàºĹ": 8297,
      "IV": 8298,
      "Ø§ÙĨÙĪ": 8299,
      "55": 8300,
      "tual": 8301,
      "Î»ÎµÎ¹": 8302,
      "áĦĢáħ®áĨ¨": 8303,
      "à¸§à¸¡": 8304,
      "inal": 8305,
      "à©ĩà¨Ĥ": 8306,
      "ĠÐ´ÐµÐºÐ°": 8307,
      "ÙĬØª": 8308,
      "ĠVal": 8309,
      "Ġ×Ĳ×ķ×Ł": 8310,
      "Õ¸ÖĤÕ½": 8311,
      "Ä±nÄ±z": 8312,
      "To": 8313,
      "Ġoder": 8314,
      "Ð³ÐµÑĢ": 8315,
      "ĠÐºÐ¾ÑĤ": 8316,
      "àº§àºģ": 8317,
      "àªĽ": 8318,
      "Ġkli": 8319,
      "Ġà´ħà´¤": 8320,
      "ĠØ§Ùĩ": 8321,
      "ijk": 8322,
      "Ġgodine": 8323,
      "ĠÙ¼": 8324,
      "Î¶ÎµÎ·Î¿": 8325,
      "à¾±à½¼": 8326,
      "RA": 8327,
      "ĠÑģÐ¸ÑģÑĤ": 8328,
      "Ġdata": 8329,
      "Ġ000": 8330,
      "ÐµÐ´Ñĸ": 8331,
      "Ð½ÐµÑĢ": 8332,
      "egu": 8333,
      "ĠFacebook": 8334,
      "Ġerotische": 8335,
      "ĠÑģÐ»": 8336,
      "Ð½Ð¾ÑģÑĤÑĮ": 8337,
      "Ġbio": 8338,
      "ç¤¾": 8339,
      "Ġà¦¡": 8340,
      "Û°": 8341,
      "Õ«Õ¿": 8342,
      "à¸¥à¸Ļ": 8343,
      "çľĭ": 8344,
      "ÑĦÐµÑĪÑħ": 8345,
      "Ġàª¶àªķ": 8346,
      "Ġamet": 8347,
      "ĠÏĢÎ±Î¾Î±": 8348,
      "Ò·Ð¸": 8349,
      "ĠÙħØ³Øª": 8350,
      "Õ¸Õ½": 8351,
      "ĠLo": 8352,
      "ĠÏĥÏĦÎ·Î½": 8353,
      "uren": 8354,
      "fan": 8355,
      "Ð»ÓĻÑĢ": 8356,
      "Ġkm": 8357,
      "ÑıÐ¼": 8358,
      "ĠÐ¶Ð°Ñģ": 8359,
      "OD": 8360,
      "ishi": 8361,
      "Ġhak": 8362,
      "Ġmb": 8363,
      "Ð½Ð¸ÐºÐ°": 8364,
      "Ġseksi": 8365,
      "yin": 8366,
      "âĢľ.": 8367,
      "ĠáĦĮáħ¥áĨ¼": 8368,
      "33": 8369,
      "zel": 8370,
      "Ġãģ¨": 8371,
      "ĠÚĪ": 8372,
      "ĠÐ²ÑĢÐµ": 8373,
      "OT": 8374,
      "à¾¡": 8375,
      "ÑĽÐ°": 8376,
      "Ġvod": 8377,
      "Ġszex": 8378,
      "ĠØ³Ø¨": 8379,
      "å¸¸": 8380,
      "à¸²à¸ŀ": 8381,
      "è«": 8382,
      "Þ¯": 8383,
      "ĠáĦĮáħ©": 8384,
      "Ð¸Ð·Ð°": 8385,
      "à»Ģàº®": 8386,
      "din": 8387,
      "Ġmah": 8388,
      "à®Łà®©": 8389,
      "ÙĨÙĩØ§": 8390,
      "ÙħÙĪ": 8391,
      "ÑĢÐ¾Ð¼": 8392,
      "à´¯à´®": 8393,
      "Ð¸ÑĤÐ°": 8394,
      "áĥĲáĥĸ": 8395,
      "inge": 8396,
      "ĠÐ±Ð¸Ð·": 8397,
      "Ú¯Ø§Ùĩ": 8398,
      "Ð¸Ð½Ðµ": 8399,
      "æ´»": 8400,
      "ĠØ¨ØŃ": 8401,
      "kun": 8402,
      "Ð»Ð°Ð³Ð°": 8403,
      "Ġile": 8404,
      "assage": 8405,
      "ÐµÐ¼Ðµ": 8406,
      "ĠSan": 8407,
      "áĥĺáĥĸ": 8408,
      "yle": 8409,
      "Ġdev": 8410,
      "ugar": 8411,
      "zik": 8412,
      "à¶»à¶¸": 8413,
      "erne": 8414,
      "rist": 8415,
      "Ð¾ÑĢÐ°": 8416,
      "ĠÑĢÐ¾Ð·": 8417,
      "No": 8418,
      "ĠÙĩØ§": 8419,
      "Ġcompl": 8420,
      "pend": 8421,
      "Un": 8422,
      "ãĤ©": 8423,
      "zin": 8424,
      "Ð¿Ñĥ": 8425,
      "ative": 8426,
      "Ġtech": 8427,
      "abo": 8428,
      "asih": 8429,
      "èµ·": 8430,
      "Ġ×Ļ×©": 8431,
      "Ġheb": 8432,
      "áĬĳ": 8433,
      "Ġaap": 8434,
      "ilgan": 8435,
      "ÑıÐ²": 8436,
      "forma": 8437,
      "à·ĳ": 8438,
      "àºµà»ī": 8439,
      "Öħ": 8440,
      "isia": 8441,
      "à´¿.": 8442,
      "áŀĦáŀĵ": 8443,
      "ĠÚ©Ûķ": 8444,
      "car": 8445,
      "kam": 8446,
      "akin": 8447,
      "ĠáĦĴáħª": 8448,
      "åĬ¨": 8449,
      "æ©Ł": 8450,
      "ĠÑħÐ°Ð¼": 8451,
      "ilt": 8452,
      "à³Ĩà²Ĥ": 8453,
      "larni": 8454,
      "Ġhari": 8455,
      "áł¶": 8456,
      "ĠØ¯Ø§Ø±": 8457,
      "Ġà·Ģà¶±": 8458,
      "ÑĤÐ°Ð»": 8459,
      "Ø·ÙĦ": 8460,
      "áĦĥáħ©áĨ¼": 8461,
      "Ġmasa": 8462,
      "ÙīÙĦÙī": 8463,
      "Ġnicht": 8464,
      "atura": 8465,
      "rea": 8466,
      "Ġbosh": 8467,
      "stad": 8468,
      "Ġà¤¸à¤°": 8469,
      "è¼": 8470,
      "Ġ×ľ×¢": 8471,
      "Ã¦k": 8472,
      "ãĤĪãģĨ": 8473,
      "Ġked": 8474,
      "Ġnel": 8475,
      "ØŃØ©": 8476,
      "Ġapa": 8477,
      "Ġ2010": 8478,
      "ÐºÐ°Ð¼": 8479,
      "ĠÙĨÙĪ": 8480,
      "à¶´à¶Ń": 8481,
      "Me": 8482,
      "ÑĨÑĥ": 8483,
      "Ġkit": 8484,
      "áĥĲáĥ¨": 8485,
      "à´ķà´¯": 8486,
      "Ð¼Ð°Ð¸": 8487,
      "à®ĩ": 8488,
      "Ġprofes": 8489,
      "Ð¼ÑĪÐµ": 8490,
      "ãĤ¢ãĥ³": 8491,
      "Ġà¶ħà¶±": 8492,
      "Ġcasino": 8493,
      "Ġprie": 8494,
      "iber": 8495,
      "ĠØ³Ø±Ùĩ": 8496,
      "à²¤à²¦": 8497,
      "Ð½Ð°Ð½": 8498,
      "Ġnou": 8499,
      "ĠáĬ¥áĬķáĭ°": 8500,
      "oth": 8501,
      "tel": 8502,
      "Ø§ÛĮØ¯": 8503,
      "nde": 8504,
      "itut": 8505,
      "ÎºÎ¹": 8506,
      "hor": 8507,
      "à¸Ļà¸Ń": 8508,
      "isto": 8509,
      "eds": 8510,
      "Ġãĥ©": 8511,
      "ãģĤãĤĭ": 8512,
      "ĠÚĺ": 8513,
      "koj": 8514,
      "eten": 8515,
      "Õ¡Õ´Õ¢": 8516,
      "Ø§Ûģ": 8517,
      "uden": 8518,
      "Úī": 8519,
      "à¸Ńà¸Ļà¹Ħ": 8520,
      "Ph": 8521,
      "à®ľ": 8522,
      "Î¶Î½": 8523,
      "Ø¹Øª": 8524,
      "Ġ2011": 8525,
      "Ġexper": 8526,
      "Ġáĥĺáĥ¡": 8527,
      "ĠSte": 8528,
      "ĠBas": 8529,
      "Is": 8530,
      "ĠFo": 8531,
      "Ġtx": 8532,
      "Ġcur": 8533,
      "ĠSam": 8534,
      "ãģĤãĤĬ": 8535,
      "ÉĻb": 8536,
      "ĠÎĴ": 8537,
      "áĥĺáĥĺáĥ¡": 8538,
      "Ø¨ÙĪ": 8539,
      "Ġ197": 8540,
      "Ð´Ð½Ð°": 8541,
      "à´Łà´¤": 8542,
      "à·Ļà·Ĭ.": 8543,
      "Ġ$": 8544,
      "Ġniet": 8545,
      "ĠZa": 8546,
      "tup": 8547,
      "enza": 8548,
      "à¸ªà¸³": 8549,
      "ĠÎ¶Î·ÎµÎ»": 8550,
      "áŀļáŀĸ": 8551,
      "Ġà®®à®±": 8552,
      "áĦĨáħ®áĨ«": 8553,
      "ÙĢÙĢÙĢÙĢ": 8554,
      "ÑįÐ²": 8555,
      "Ġwel": 8556,
      "ĠÙĪÛģ": 8557,
      "ĠNi": 8558,
      "à´°à´®": 8559,
      "Ġarbe": 8560,
      "Ð¸ÑıÑĤ": 8561,
      "Äĳu": 8562,
      "iso": 8563,
      "áŀļáŀĩ": 8564,
      "Õ«ÖĤÕ¶": 8565,
      "æħ": 8566,
      "áĢı": 8567,
      "àª°àª¤": 8568,
      "à¦ªà¦¨": 8569,
      "Ð´ÐµÐ¸": 8570,
      "Ġhann": 8571,
      "ÑĢÑĸ": 8572,
      "aria": 8573,
      "Ð²Ð°Ð½Ð½Ñı": 8574,
      "Ð°Ð·Ð°ÒĽ": 8575,
      "ÕµÕ¡Õ¶": 8576,
      "lk": 8577,
      "ĠÐ½ÑįÐ³": 8578,
      "ĠÏĦÎ¿ÏħÏĤ": 8579,
      "Õ¡ÖĢÕ¿": 8580,
      "áŀĦáŀŁ": 8581,
      "à¹ģà¸ķ": 8582,
      "ÛİÚ©": 8583,
      "Ġbaz": 8584,
      "ÓĻÐº": 8585,
      "Î·Î¹": 8586,
      "à¤¶à¤¨": 8587,
      "Ġ×ķ×ŀ": 8588,
      "Ð·Ð±ÐµÐº": 8589,
      "ĠMat": 8590,
      "à¤¯à¤¤": 8591,
      "à³ĥ": 8592,
      "Ġcm": 8593,
      "ĠØ¹ÙħÙĦ": 8594,
      "ÙĩÛĮ": 8595,
      "Ġsua": 8596,
      "ures": 8597,
      "ĠÕį": 8598,
      "2019": 8599,
      "Õ°": 8600,
      "ãĤİ": 8601,
      "à±ĥ": 8602,
      "plo": 8603,
      "Ġà°īà°¨": 8604,
      "Ġmost": 8605,
      "unge": 8606,
      "film": 8607,
      "vom": 8608,
      "à¶·": 8609,
      "adda": 8610,
      "Ġthie": 8611,
      "Ġàºª": 8612,
      "ï¾Į": 8613,
      "Ġsik": 8614,
      "rada": 8615,
      "à¸²à¸°": 8616,
      "Ġsoo": 8617,
      "uer": 8618,
      "Ġani": 8619,
      "enge": 8620,
      "Ġ198": 8621,
      "ãĥ¡ãĥ¼ãĥĮ": 8622,
      "tua": 8623,
      "áĢ¹áĢ»": 8624,
      "ãĥ¼ãĥķ": 8625,
      "tte": 8626,
      "Ġà¤¸à¤°à¤ķ": 8627,
      "ĠÙĬØ§": 8628,
      "ĠÐ¼ÑįÐ´": 8629,
      "oso": 8630,
      "ÑīÐ°": 8631,
      "Ð±Ñħ": 8632,
      "rb": 8633,
      "ÑĢÐ°Ñĥ": 8634,
      "à¸²à¸«": 8635,
      "enie": 8636,
      "Ġsend": 8637,
      "Ð²ÐµÐ´": 8638,
      "Ġ×ŀ×ª": 8639,
      "ĠØ¬Ø§ÙĨ": 8640,
      "nica": 8641,
      "à°ĸ": 8642,
      "Ġà¤ľà¤¨": 8643,
      "Î±Î¹Î¹": 8644,
      "zat": 8645,
      "ĠÙĪØ²": 8646,
      "à¤Łà¤°": 8647,
      "ĠÏĢÎµÏģÎ¹": 8648,
      "Ø§ÙĦØª": 8649,
      "áĢ¼áĢ²": 8650,
      "æ¥Ń": 8651,
      "ĠÐ¶Ð°ÑĤ": 8652,
      "æķĻ": 8653,
      "Ġkada": 8654,
      "ther": 8655,
      "ĠÙ¹": 8656,
      "Ø§Ø¯Ø©": 8657,
      "Ġà®¨à®Ł": 8658,
      "ĠãģĦ": 8659,
      "lif": 8660,
      "ĠØ§ÙĦØ°ÙĬ": 8661,
      "Ġseo": 8662,
      "zim": 8663,
      "ulis": 8664,
      "à¤¾à¥¤": 8665,
      "Ð»Ð´": 8666,
      "è¿ĩ": 8667,
      "ÐłÑķÐł": 8668,
      "ĠÑĤÑĭ": 8669,
      "à¤¸à¤®": 8670,
      "Ð¼Ð½Ð¸": 8671,
      "Ġeru": 8672,
      "çĤ¹": 8673,
      "Î»ÎµÎ¿": 8674,
      "ĠáĦĢáħª": 8675,
      "ĠÐºÐ¾ÑĢÐ¸": 8676,
      "riz": 8677,
      "à¤¸à¤°": 8678,
      "Ġunha": 8679,
      "ĠÎ¿Î¹": 8680,
      "idas": 8681,
      "Ð¾ÑĢÑĥ": 8682,
      "ijos": 8683,
      "Î¾Î³Î±": 8684,
      "ĠÐ±Ð¾Ð»ÑĮ": 8685,
      "ĠØŃØ³": 8686,
      "ingar": 8687,
      "à¼ĭà¼į": 8688,
      "Ġmateri": 8689,
      "encia": 8690,
      "ĠÑģÐº": 8691,
      "lish": 8692,
      "æ¡": 8693,
      "Ġàªĺ": 8694,
      "tet": 8695,
      "áĦīáħ©": 8696,
      "yste": 8697,
      "áĥĲáĥļáĥĺ": 8698,
      "kum": 8699,
      "via": 8700,
      "Ġdiff": 8701,
      "Ġà¤Ĩà¤²": 8702,
      "Ġà°¸à°®": 8703,
      "maq": 8704,
      "Ġosob": 8705,
      "ices": 8706,
      "Ġà¨¡": 8707,
      "Ġprzy": 8708,
      "à·Ģà¶½": 8709,
      "tima": 8710,
      "Ġkali": 8711,
      "Ò¯Ð³": 8712,
      "åķĨ": 8713,
      "ĠÐ²ÐĤÑĻÐłÐ£": 8714,
      "å¼Ģ": 8715,
      "åĤ": 8716,
      "æĤ": 8717,
      "Ġperi": 8718,
      "ĠØŃÚ©": 8719,
      "çĹ": 8720,
      "Ġkle": 8721,
      "uns": 8722,
      "à¼Ķ": 8723,
      "ÏĨÎ¹": 8724,
      "Ø§ÙĬØ©": 8725,
      "ĠDes": 8726,
      "ĠãĤŃ": 8727,
      "áĭļ": 8728,
      "Ø§ØªÛĮ": 8729,
      "à¾£": 8730,
      "ĠTur": 8731,
      "áĥ£áĥłáĥ": 8732,
      "ÐµÐ¼ÑħÑĬ": 8733,
      "Ġdro": 8734,
      "ĠÑģÐµÑĢ": 8735,
      "Ġà¨īà¨¸": 8736,
      "ãĤ¦ãĥ³": 8737,
      "Ġpho": 8738,
      "08": 8739,
      "Ġped": 8740,
      "à®¯à®¤": 8741,
      "ĠÙĤØ¨ÙĦ": 8742,
      "áł®": 8743,
      "Ġà°ªà°°": 8744,
      "indows": 8745,
      "ĠØ¹ÙĨØ¯": 8746,
      "à°¦à°¨": 8747,
      "Ġina": 8748,
      "«áĥļ": 8749,
      "Ġmir": 8750,
      "à¸ĩà¸Ĺ": 8751,
      "iva": 8752,
      "Ġlit": 8753,
      "pec": 8754,
      "Òķ": 8755,
      "otre": 8756,
      "Ð´ÑĥÐº": 8757,
      "ÑīÐ¾": 8758,
      "ÑĻÐ°": 8759,
      "34": 8760,
      "Ġ×Ĵ×¢": 8761,
      "ï¾Ĺ": 8762,
      "37": 8763,
      "iger": 8764,
      "Ø¹Ùĩ": 8765,
      "nega": 8766,
      "Ġeskor": 8767,
      "ĠÐ¶Ð¾Ð»": 8768,
      "Ġzah": 8769,
      "ĠØ§Øª": 8770,
      "Ġenerg": 8771,
      "Ġprze": 8772,
      "Ġmemb": 8773,
      "ija": 8774,
      "Ġcat": 8775,
      "Ġà¨ªà¨°": 8776,
      "àŃĥ": 8777,
      "ligt": 8778,
      "esh": 8779,
      "Ø±ÛĮÚ©": 8780,
      "utu": 8781,
      "áĥĶáĥľáĥ¢": 8782,
      "Ð´Ð¶": 8783,
      "akar": 8784,
      "ĠÎµÎ»": 8785,
      "iaus": 8786,
      "ningen": 8787,
      "2018": 8788,
      "æĮģ": 8789,
      "OP": 8790,
      "Ġmind": 8791,
      "unan": 8792,
      "Su": 8793,
      "ders": 8794,
      "Ġmember": 8795,
      "Ġdira": 8796,
      "ĠCas": 8797,
      "Ġbla": 8798,
      "Ġvend": 8799,
      "Ø®Ùĩ": 8800,
      "ontri": 8801,
      "Ġblir": 8802,
      "Ð¾ÑĢÐ¾": 8803,
      "ÑĤÐµÐ»": 8804,
      "unga": 8805,
      "Ó©Ð¼": 8806,
      "ivot": 8807,
      "ÏĨÎ·Îµ": 8808,
      "Ġsay": 8809,
      "Ġfirst": 8810,
      "à¤ķà¤²": 8811,
      "áĦĩáħ¥": 8812,
      "Ð²Ð°Ð½Ðµ": 8813,
      "æį": 8814,
      "ï½²": 8815,
      "æķ°": 8816,
      "Ġbdsm": 8817,
      "Ġnta": 8818,
      "äºĮ": 8819,
      "Ġzb": 8820,
      "Ð¸ÑĤÐ¾": 8821,
      "áĦĲáħ¥": 8822,
      "2020": 8823,
      "ĠÒĽÐ°Ð»": 8824,
      "à¦°à¦£": 8825,
      "è²¡": 8826,
      "åİŁ": 8827,
      "ĠCor": 8828,
      "Ġikkje": 8829,
      "ĠÐ²ÐµÑĢ": 8830,
      "áĦĴáħ¡áĦĢáħ©": 8831,
      "Ġmenjadi": 8832,
      "IR": 8833,
      "Ġcome": 8834,
      "Ġáł°": 8835,
      "à°°à°ķ": 8836,
      "Ġmeer": 8837,
      "ibi": 8838,
      "Ð±Ð»ÐµÐ¼": 8839,
      "æµ·": 8840,
      "Ġhv": 8841,
      "zd": 8842,
      "ĠÐ¼Ð°Ð¼": 8843,
      "×ĺ×¨": 8844,
      "Ġple": 8845,
      "ĠÐ·Ð°Ñģ": 8846,
      "Ä±lÄ±": 8847,
      "çİ°": 8848,
      "à¤¹à¤£": 8849,
      "ãģĿãģ®": 8850,
      "ÏģÎ¿Ïħ": 8851,
      "ĠÐ¶Ðµ": 8852,
      "áĦĩáħµ": 8853,
      "Î¥": 8854,
      "ĠÑĤÒ±": 8855,
      "×ª×Ļ": 8856,
      "ĠÐĳÑĥ": 8857,
      "à¦®à¦¨": 8858,
      "à¯ģ,": 8859,
      "ĠÐ´Ð¾Ð¼": 8860,
      "wal": 8861,
      "ÑĨÐ¸Ñĺ": 8862,
      "Ø§ÙĪÙĦ": 8863,
      "arch": 8864,
      "Ġnuk": 8865,
      "Ġreife": 8866,
      "way": 8867,
      "ĠÐ±Ð¾Ð¸": 8868,
      "Ġzam": 8869,
      "anan": 8870,
      "à¦¾à¥¤": 8871,
      "æľº": 8872,
      "ãģ¨ãģĦ": 8873,
      "Ġà´ªà´±": 8874,
      "ĠKon": 8875,
      "àª°àª£": 8876,
      "ãĥ©ãĥ³": 8877,
      "ĠÑįÑĢ": 8878,
      "ĠÐ¿ÑĢÐ¾Ð¸Ð·": 8879,
      "ĠÐ´Ð°Ð½": 8880,
      "à®¯à®®": 8881,
      "ãĥ¤": 8882,
      "áĦĨáħ¡": 8883,
      "eku": 8884,
      "áĬķáĭµ": 8885,
      "áĦĤáħ§áĨ«": 8886,
      "ÑĥÒĽ": 8887,
      "LI": 8888,
      "38": 8889,
      "Ġtez": 8890,
      "Ġ45": 8891,
      "ĠÐĳÐµÐ»": 8892,
      "Ġdolor": 8893,
      "ĠØ§Øµ": 8894,
      "Ġpiu": 8895,
      "ÚĻ": 8896,
      "áĥĶáĥĿ": 8897,
      "ahi": 8898,
      "ï½³": 8899,
      "eso": 8900,
      "Ð½Ð¸Ð½": 8901,
      "Ġãĥª": 8902,
      "Õ«Õ´": 8903,
      "ĠØ±ÙĬ": 8904,
      "ç¦": 8905,
      "Ð´ÑįÐ³": 8906,
      "ĠRi": 8907,
      "ĠØ¨Ø´": 8908,
      "borg": 8909,
      "ĠÑģÐ»ÐµÐ´": 8910,
      "áĤĢ": 8911,
      "Õ¡Õ»": 8912,
      "áĥĺáĥ¨": 8913,
      "rvat": 8914,
      "ØµØ±": 8915,
      "ĠNew": 8916,
      "è°": 8917,
      "ĠÐ¼Ð°Ð½": 8918,
      "anz": 8919,
      "dam": 8920,
      "Ġcl": 8921,
      "ĠÐ¼Ð°Ðº": 8922,
      "ĠÐ¸Ð½ÑĤÐµÑĢ": 8923,
      "assa": 8924,
      "itus": 8925,
      "ĠØ§ÙĦÙħÙĨ": 8926,
      "aja": 8927,
      "çł": 8928,
      "ratu": 8929,
      "ĠÎ´Î·": 8930,
      "ĠÑļ": 8931,
      "ÉĻrbay": 8932,
      "ÑĤÐ¸Ð¼": 8933,
      "Õ¸ÖĤÕ©Õ«ÖĤÕ¶": 8934,
      "Ġ×Ķ×ĳ": 8935,
      "Ġtelefon": 8936,
      "Ġãĥ¡ãĥ³ãĤ¹": 8937,
      "Ġditu": 8938,
      "ÑİÐ³": 8939,
      "Ġrum": 8940,
      "ÙĥÙĬ": 8941,
      "anju": 8942,
      "agen": 8943,
      "Ð»Ð¸Ð¼": 8944,
      "ungs": 8945,
      "Ġkompl": 8946,
      "Ġdov": 8947,
      "Ġà¤ħà¤ªà¤¨": 8948,
      "ĠÙĪÙĩ": 8949,
      "×ł×Ļ×Ŀ": 8950,
      "Õ¡ÕµÕ¶": 8951,
      "Ġ×ĳ×¢": 8952,
      "æĽ¸": 8953,
      "inst": 8954,
      "ĠÐ°Ð´Ð°Ð¼": 8955,
      "ÑħÐ¶": 8956,
      "Ġhod": 8957,
      "à¸ªà¸¡": 8958,
      "ĠáĢ¡áĢĻ": 8959,
      "Ġala": 8960,
      "Ġandre": 8961,
      "áĤĢáĢĢ": 8962,
      "ÐºÐ°ÑĤÐ°": 8963,
      "Ġeh": 8964,
      "ÏĨÎ±": 8965,
      "Ð°Ð½Ð¸Ðµ": 8966,
      "Ġregist": 8967,
      "Ġà´¦": 8968,
      "áĥĿáĥ¤": 8969,
      "Ġoyun": 8970,
      "Ð¿ÑĢÐ¸": 8971,
      "áĢĽáĢķ": 8972,
      "áĦīáħµáĨ«": 8973,
      "rim": 8974,
      "à¨¦à¨°": 8975,
      "ĠØ¯ÛĲ": 8976,
      "azione": 8977,
      "ç®¡": 8978,
      "igo": 8979,
      "Ġfet": 8980,
      "å·±": 8981,
      "Ġspeci": 8982,
      "ÌĢ,": 8983,
      "Ġfal": 8984,
      "ĠÎ·Î·Î¿": 8985,
      "ÙīØ±": 8986,
      "ĠÑĤÐ°Ð½": 8987,
      "65": 8988,
      "Ð²ÑĢ": 8989,
      "ĠÑģÐ²Ð°": 8990,
      "ĠÕ¶Õ¡ÕŃ": 8991,
      "Ġà¤¬à¤¤": 8992,
      "ites": 8993,
      "ĠÑĤÑĢÐ°": 8994,
      "ĠÑĤÐ°ÑĬ": 8995,
      "ÑĥÐ±Ð»Ð¸ÐºÐ°": 8996,
      "ĠÞĥ": 8997,
      "bout": 8998,
      "Ġrev": 8999,
      "yw": 9000,
      "oms": 9001,
      "à¨°à¨¨": 9002,
      "à¶¸à¶ļ": 9003,
      "ĠÕ´Õ«": 9004,
      "çĻ½": 9005,
      "à°ķà°°": 9006,
      "ĠÕ´Õ¡Õ½": 9007,
      "ĠÕ®": 9008,
      "à¸Ńà¸¥": 9009,
      "Ġsvoje": 9010,
      "Ġà¦īà¦ª": 9011,
      "inar": 9012,
      "à®ķà®°": 9013,
      "stand": 9014,
      "Ġmaz": 9015,
      "Ġhieronta": 9016,
      "çģ": 9017,
      "Ġolar": 9018,
      "ÙīØ²": 9019,
      "ĠØ¹Ùħ": 9020,
      "ĠáŀĤ": 9021,
      "à¶«à¶º": 9022,
      "Ø§ÙĦÛĮ": 9023,
      "Ġmilli": 9024,
      "ikat": 9025,
      "obi": 9026,
      "ÑıÐµ": 9027,
      "Ð¾Ð½Ñĥ": 9028,
      "Õ¸ÖĤÖĢ": 9029,
      "àº¹à»ī": 9030,
      "Ġ%": 9031,
      "Ġbagi": 9032,
      "Ġhistor": 9033,
      "Õ¡Õ¶Õ¡Õ¯": 9034,
      "áĨ·áĦĭáħ³áĨ¯": 9035,
      "==": 9036,
      "áī½áĬķ": 9037,
      "ĠØªØ´": 9038,
      "roc": 9039,
      "ingi": 9040,
      "ÐºÐ°ÑĤ": 9041,
      "à¦¾à¦ģ": 9042,
      "à¹Ģà¸Ĭ": 9043,
      "à¸¶à¹ī": 9044,
      "ÑĤÐ³Ð°Ð½": 9045,
      "×Ĳ×¨": 9046,
      "omet": 9047,
      "Ġaga": 9048,
      "ĠÒ¯ÑĪÑĸÐ½": 9049,
      "àº£": 9050,
      "ÙĪÙĨØ¯": 9051,
      "ÐºÐ¸Ð½": 9052,
      "áĦħáħ¢": 9053,
      "ĠØ±Ø³": 9054,
      "à³ģà²Ĥ": 9055,
      "à¶»à¶ļ": 9056,
      "unci": 9057,
      "ĠÓ¨": 9058,
      "ĠmÉĻ": 9059,
      "ĠØ¨ÙĪÙĦ": 9060,
      "Ġdib": 9061,
      "à¾²à½²": 9062,
      "Ġtay": 9063,
      "ĠÑģÑĤÐ¾": 9064,
      "ĠØ³Ùħ": 9065,
      "lÉĻri": 9066,
      "Ġies": 9067,
      "éĩı": 9068,
      "ÙĥØ³": 9069,
      "Ġmud": 9070,
      "orld": 9071,
      "çı¾": 9072,
      "Ð³Ó©": 9073,
      "ĠUnivers": 9074,
      "à¬ķà¬°": 9075,
      "nja": 9076,
      "ĠAli": 9077,
      "ÏĥÏĦÎ·": 9078,
      "Ġà¥§": 9079,
      "Ġkuk": 9080,
      "Ø§Ø±Øª": 9081,
      "Ġvez": 9082,
      "day": 9083,
      "ĠTha": 9084,
      "Ġtreba": 9085,
      "ĠÏĪ": 9086,
      "Ġperso": 9087,
      "Ġà¦Ĩà§°": 9088,
      "Ġtus": 9089,
      "áĢĿáĢĦ": 9090,
      "áĥĸ": 9091,
      "Ġsul": 9092,
      "ÑħÐ»": 9093,
      "rot": 9094,
      "eket": 9095,
      "Ġáĥ¨áĥĶáĥĽ": 9096,
      "Ġizan": 9097,
      "ory": 9098,
      "à¸Ńà¸Ļà¹Ħà¸¥à¸Ļ": 9099,
      "ĠÐ±Ð¾ÑĢ": 9100,
      "à¸·à¹ī": 9101,
      "Da": 9102,
      "ÑħÐ°Ð¸": 9103,
      "Ð½Ð¸Ñı": 9104,
      "æĲ": 9105,
      "ech": 9106,
      "Ð²Ñģ": 9107,
      "jad": 9108,
      "Ġlat": 9109,
      "Ġdeb": 9110,
      "emos": 9111,
      "pot": 9112,
      "Ð°ÑĢÑĥÑģ": 9113,
      "Ġsegu": 9114,
      "Ð²ÑĢÐ¾": 9115,
      "Ġdette": 9116,
      "juk": 9117,
      "Ġà¤ķà¤¹": 9118,
      "ĠÐ±ÑĥÑĤ": 9119,
      "Ġpur": 9120,
      "à¸Ļà¸Ļ": 9121,
      "à¹ģà¸ļà¸ļ": 9122,
      "yti": 9123,
      "ÛĩØ±": 9124,
      "ÉĻri": 9125,
      "ĠØ´ÙĪ": 9126,
      "ĠÙĥÙĩ": 9127,
      "Ġyas": 9128,
      "×Ļ×Ĺ": 9129,
      "ãģ«ãģª": 9130,
      "jne": 9131,
      "áŀĽáŀĶ": 9132,
      "àªŁàª²": 9133,
      "rel": 9134,
      "Ð¸ÑĤÑĥ": 9135,
      "Ġ×Ķ×ł": 9136,
      "Ġgiu": 9137,
      "ellen": 9138,
      "à¬ªà¬°": 9139,
      "mos": 9140,
      "wch": 9141,
      "à¦¾à¦Ĥ": 9142,
      "Ġboleh": 9143,
      "Î·ÎµÎ¿": 9144,
      "hel": 9145,
      "Õ¡Õ¶Öģ": 9146,
      "ÑĸÐ½Ðµ": 9147,
      "ÙĨØ§ÙĨ": 9148,
      "Ġãĥĺ": 9149,
      "à¸«à¸¡": 9150,
      "EM": 9151,
      "ĠmÉĻrc": 9152,
      "è¿Ľ": 9153,
      "ĠÎºÎ±ÏĦÎ±": 9154,
      "à¸¸à¹Ī": 9155,
      "yal": 9156,
      "ĠÐ¶Ò±": 9157,
      "umat": 9158,
      "hta": 9159,
      "ĠÙħÙĬ": 9160,
      "stvo": 9161,
      "Ġbhe": 9162,
      "ä»¶": 9163,
      "nat": 9164,
      "ÐºÐµÑĢ": 9165,
      "åĪ¶": 9166,
      "loc": 9167,
      "Ġterse": 9168,
      "Ġtelah": 9169,
      "jus": 9170,
      "Ġeit": 9171,
      "etur": 9172,
      "ingu": 9173,
      "Ġbilder": 9174,
      "×Ĳ×ª": 9175,
      "ÑĢÑİ": 9176,
      "osto": 9177,
      "EC": 9178,
      "nan": 9179,
      "zz": 9180,
      "è¯´": 9181,
      "Ġáŀĸ": 9182,
      "Ġsko": 9183,
      "Ġdrz": 9184,
      "Ġpare": 9185,
      "tifad": 9186,
      "ģáģ": 9187,
      "Ð¼Ð¾Ð½": 9188,
      "Ġour": 9189,
      "Ġald": 9190,
      "àº¢": 9191,
      "Õ¡Õ¾Õ¸ÖĢ": 9192,
      "è±": 9193,
      "iap": 9194,
      "Ø´ÛĮ": 9195,
      "poz": 9196,
      "ÙĬÙĬ": 9197,
      "Ø¨ØŃ": 9198,
      "ĠãģĹ": 9199,
      "Ġhulle": 9200,
      "à¸Ļà¸ģ": 9201,
      "oria": 9202,
      "à¤Ĺà¤²": 9203,
      "ĠÙħØŃÙħØ¯": 9204,
      "áĥłáĥ£áĥ": 9205,
      "èĩªå·±": 9206,
      "ates": 9207,
      "enih": 9208,
      "ĠÑģÐµÐº": 9209,
      "Ð»Ð°Ð±": 9210,
      "Ġáĥ¨áĥĶáĥ": 9211,
      "aru": 9212,
      "tan": 9213,
      "à¤°à¤²": 9214,
      "Ġáĥ¡áĥĲáĥĽ": 9215,
      "ÙĤØ¯": 9216,
      "Ġáīµ": 9217,
      "áħ¦áĦĭáħµ": 9218,
      "à®³à®¤": 9219,
      "Ġtren": 9220,
      "ĠÎĿ": 9221,
      "iab": 9222,
      "Ġlak": 9223,
      "áŀĻáŀĶ": 9224,
      "áĦĨáħ§": 9225,
      "Ð¾Ðµ": 9226,
      "ÎłÎ©": 9227,
      "emu": 9228,
      "Ġstrat": 9229,
      "Ġ×ĳ×©": 9230,
      "ĠáĦĭáħµáĨ«": 9231,
      "Ġ×Ķ×ķ×Ĳ": 9232,
      "Ð¸ÑĤÐµÐ»ÑĮ": 9233,
      "ĠÃ¾aÃ°": 9234,
      "larda": 9235,
      "2017": 9236,
      "otel": 9237,
      "ĠÙĩØ±": 9238,
      "Ġmere": 9239,
      "Ġlain": 9240,
      "à´¾à´Ĥ": 9241,
      "ĠEng": 9242,
      "Ø§Ø¨ÙĦ": 9243,
      "Ò¯Ð·": 9244,
      "Ø¹Ø±": 9245,
      "ugu": 9246,
      "Ġemail": 9247,
      "ĠÎ½Î·": 9248,
      "åĴģ": 9249,
      "mad": 9250,
      "Ġ×ŀ×¡": 9251,
      "ç«ĭ": 9252,
      "áĦĭáħ¥áĨ¸": 9253,
      "Ġsou": 9254,
      "Ġpublic": 9255,
      "è¬": 9256,
      "ĠÙĩØ°Ùĩ": 9257,
      "UM": 9258,
      "Ġkub": 9259,
      "ĠÑħÑįÑĢÑįÐ³": 9260,
      "Ġvideos": 9261,
      "Ġats": 9262,
      "ssa": 9263,
      "Ġps": 9264,
      "Ġsiya": 9265,
      "rab": 9266,
      "Ġanak": 9267,
      "aly": 9268,
      "Ġmae": 9269,
      "Õ¸ÖĤÕ©ÕµÕ¸ÖĤÕ¶Õ¨": 9270,
      "ĠÐ¼Ð°Ð»": 9271,
      "ĠÑĤÐµÐ¼": 9272,
      "Ġlai": 9273,
      "ĠÐ¿Ð¾Ð»Ð¸": 9274,
      "Ġà½ĳ": 9275,
      "con": 9276,
      "asÄ±": 9277,
      "Ġyon": 9278,
      "Ġà°¤à°¨": 9279,
      "Ġdek": 9280,
      "ç³»": 9281,
      "ç»ı": 9282,
      "à¶»à¶º": 9283,
      "ĠÑıÐ²": 9284,
      "31": 9285,
      "ĠÎµÎ¸": 9286,
      "à¤ŀ": 9287,
      "åıĹ": 9288,
      "ikt": 9289,
      "ĠÐ±Ðµ": 9290,
      "ĠÙħØ®": 9291,
      "lni": 9292,
      "Ð³ÑĭÐ·": 9293,
      "Ġjob": 9294,
      "Ú©Øª": 9295,
      "Ġnez": 9296,
      "Ġmaa": 9297,
      "lige": 9298,
      "ters": 9299,
      "Ġrin": 9300,
      "kont": 9301,
      "Ġsod": 9302,
      "ÑĥÑĭ": 9303,
      "à¸¢à¸ĩ": 9304,
      "inner": 9305,
      "à¤²à¤ķ": 9306,
      "ÎĽ": 9307,
      "Ġedi": 9308,
      "åıĬ": 9309,
      "Ð°ÑĤÐ¸Ð²": 9310,
      "Ġkval": 9311,
      "Ġ×©×ŀ": 9312,
      "str": 9313,
      "unta": 9314,
      "ÙĨÙĪ": 9315,
      "noj": 9316,
      "Ġà¶¸à·Ħ": 9317,
      "áĦĴáħ¡áĨ¯": 9318,
      "Ġcil": 9319,
      "ĠáĪ°": 9320,
      "à²¯à²ķ": 9321,
      "Ġdus": 9322,
      "Ð¼Ð°Ñģ": 9323,
      "ĠØ¯Ø³Øª": 9324,
      "à¬°à¬ķ": 9325,
      "Ġspra": 9326,
      "ÏĦÎ¹ÎºÎ·": 9327,
      "§à§": 9328,
      "Ð°Ð³Ð°": 9329,
      "ÙĦØ§Ø±": 9330,
      "Ġzac": 9331,
      "Ġ×Ĳ×Ļ×Ł": 9332,
      "Ġxu": 9333,
      "ĠáĦĨáħ¡": 9334,
      "à±Ĭà°Ĥ": 9335,
      "áĭĺ": 9336,
      "å½±": 9337,
      "Ġtv": 9338,
      "Î¾Ïĥ": 9339,
      "ÎłÎĹ": 9340,
      "Ð½ÐºÐ½Ñı": 9341,
      "Ø²ÛĮ": 9342,
      "à¤²à¤¨": 9343,
      "à½łà½Ĥ": 9344,
      "pper": 9345,
      "Ġ×¦×ķ": 9346,
      "ĠÐºÐµÐ·": 9347,
      "ÛķÙĥ": 9348,
      "Ġtersebut": 9349,
      "Ġáŀł": 9350,
      "áŀļáŀĺ": 9351,
      "Ġlive": 9352,
      "Òĳ": 9353,
      "Ġsja": 9354,
      "amba": 9355,
      "ley": 9356,
      "ĠIz": 9357,
      "à¤Ļ": 9358,
      "ĠDer": 9359,
      "Ã¦t": 9360,
      "áĦĭáħ©": 9361,
      "ciones": 9362,
      "ÒĽÑĭ": 9363,
      "ĠÑħÐ¸Ð¸": 9364,
      "bos": 9365,
      "ĠPh": 9366,
      "ÑĤÐ¸Ðº": 9367,
      "áĦĢáħ¡áĨ«": 9368,
      "vent": 9369,
      "ĠBel": 9370,
      "ÑĢÐµÐ´Ð¸": 9371,
      "ĠãĥĽ": 9372,
      "ÐµÐ½ÑĤÐ¸": 9373,
      "ãĥ¼ãĤ¯": 9374,
      "ç½ĳ": 9375,
      "htt": 9376,
      "ĠÐ³ÑįÐ¶": 9377,
      "áŀĪ": 9378,
      "Ġsyn": 9379,
      "ÙĨØ©": 9380,
      "ea": 9381,
      "Ġener": 9382,
      "ĠÚ«": 9383,
      "áĦīáħ¦": 9384,
      "sker": 9385,
      "áŀļáŀĦ": 9386,
      "Ġà®īà®³": 9387,
      "Ä±ndan": 9388,
      "Ġcli": 9389,
      "hau": 9390,
      "Di": 9391,
      "Ø¨ÛĮ": 9392,
      "ĠÐ¿ÑĸÐ´": 9393,
      "ĠÙ¾Ø§Ú©": 9394,
      "Vi": 9395,
      "pli": 9396,
      "ensi": 9397,
      "AK": 9398,
      "Ġdeur": 9399,
      "à²°à²¦": 9400,
      "Ġtheir": 9401,
      "Ġà·ģ": 9402,
      "idades": 9403,
      "Ð½Ð°ÑĤ": 9404,
      "oru": 9405,
      "ĠÐ¿Ð¾Ñĩ": 9406,
      "à¸§à¸ģ": 9407,
      "chichten": 9408,
      "åĨĨ": 9409,
      "åķı": 9410,
      "rus": 9411,
      "uki": 9412,
      "Ð·Ñĭ": 9413,
      "ĠPri": 9414,
      "araq": 9415,
      "äº¤": 9416,
      "uju": 9417,
      "Ġwedi": 9418,
      "è²¡å¸ĥ": 9419,
      "æ¿": 9420,
      "Ð±Ð°Ð¸": 9421,
      "ÑĪÑĸ": 9422,
      "Ġà®ħà®°": 9423,
      "Îĸ": 9424,
      "Ö¿": 9425,
      "à®©à®¤": 9426,
      "ÙĪØ±Ø©": 9427,
      "jav": 9428,
      "Ð½Ð¾Ñģ": 9429,
      "ÑĢÐµÑĤ": 9430,
      "ĠÐ¶Ð°ÑĢ": 9431,
      "ÏĩÎ¸": 9432,
      "Ġgrad": 9433,
      "48": 9434,
      "ĠØ¨ÛĮ": 9435,
      "So": 9436,
      "ekk": 9437,
      "cul": 9438,
      "Ø§Ø±Ø§Øª": 9439,
      "à¦Ĩ": 9440,
      "ãĥªãĤ¢": 9441,
      "åħ¬åı¸": 9442,
      "elj": 9443,
      "Ġ300": 9444,
      "Õ¡ÖĢÕ¯": 9445,
      "ĠÎºÎ¿": 9446,
      "ĠÐ´ÓĻ": 9447,
      "ĠáĦħ": 9448,
      "ĠTV": 9449,
      "Ġvagy": 9450,
      "ĠÐºÐ°ÑĤÐ¾": 9451,
      "ĠáĦĴáħ¢": 9452,
      "Ð¾Ð±Ð¸": 9453,
      "Ġ×ľ×©": 9454,
      "ÑĨÑĭÑĸ": 9455,
      "Ð¾Ñĩ": 9456,
      "à®·": 9457,
      "Ġjam": 9458,
      "Ġà°ħà°µ": 9459,
      "ĠÕ£Õ¸ÖĢÕ®": 9460,
      "áŁĪ": 9461,
      "ĠÐºÐ°ÑĤ": 9462,
      "Ġà§°": 9463,
      "à§ĩ,": 9464,
      "oliko": 9465,
      "Ð½Ð°Ð³Ð°": 9466,
      "à®¤à®®": 9467,
      "ĠGal": 9468,
      "ĠØ§ÙģØºØ§ÙĨ": 9469,
      "Ġkontakt": 9470,
      "Ġluc": 9471,
      "istan": 9472,
      "ÑģÐ»ÐµÐ´": 9473,
      "Î²Îµ": 9474,
      "ĠÑĭ": 9475,
      "èĦ": 9476,
      "Ġner": 9477,
      "Ġlar": 9478,
      "ingan": 9479,
      "Ġfit": 9480,
      "ÑĢÐ°Ðº": 9481,
      "Ġà¦ªà§°": 9482,
      "Ġvers": 9483,
      "ÉĻd": 9484,
      "akter": 9485,
      "Ġano": 9486,
      "ĠÒ²": 9487,
      "Ð½Ð¸ÑģÑĤ": 9488,
      "Ø¬ÙĦ": 9489,
      "åħĥ": 9490,
      "onu": 9491,
      "Ġsocial": 9492,
      "Ġmata": 9493,
      "ilang": 9494,
      "åıĪ": 9495,
      "stva": 9496,
      "áĢ±áĢ·": 9497,
      "Ġnghie": 9498,
      "Ġpornos": 9499,
      "à®Łà®°": 9500,
      "ĠÐ¶ÐµÑĤ": 9501,
      "Ġáī£": 9502,
      "ĠãĤ¦": 9503,
      "Õ¸Õµ": 9504,
      "æ°ĳ": 9505,
      "ĠSel": 9506,
      "Ġkoj": 9507,
      "Ġdoor": 9508,
      "Ġwax": 9509,
      "GE": 9510,
      "Ġvaz": 9511,
      "ĠMon": 9512,
      "Ġ×¤×ķ×Ł": 9513,
      "Ġquis": 9514,
      "à¸£à¸¡": 9515,
      "ĠÙĩÙĨ": 9516,
      "áĢ¸áĢ±": 9517,
      "à¤ªà¤¤": 9518,
      "Ġ×ĳ×Ķ": 9519,
      "ĠÐ´Ð·": 9520,
      "pub": 9521,
      "ege": 9522,
      "anj": 9523,
      "Ġhes": 9524,
      "Ø§Ø³ÛĮ": 9525,
      "áĢ½áĢ²": 9526,
      "Ð¾ÒĽ": 9527,
      "Ġauch": 9528,
      "ĠÞĲ": 9529,
      "Õ¥ÖĤ": 9530,
      "áĢ¼áĢ±": 9531,
      "enia": 9532,
      "ÑĥÑĥÐ´": 9533,
      "Ġkell": 9534,
      "ĠÚ©Ø´": 9535,
      "áŀ²": 9536,
      "Õ¥Õ´": 9537,
      "amat": 9538,
      "lega": 9539,
      "ĠOd": 9540,
      "à¤Ĺà¤¤": 9541,
      "à¤·à¤£": 9542,
      "erd": 9543,
      "ÐºÑĥÑĢ": 9544,
      "Ġperf": 9545,
      "à®¯à®²": 9546,
      "ØªÙĦ": 9547,
      "39": 9548,
      "Ġvun": 9549,
      "ĠÕ°Õ¡Õ´Õ¡ÖĢ": 9550,
      "ÏĥÏĦÎ±": 9551,
      "åı°": 9552,
      "ĠÙĦÙĦÙħ": 9553,
      "omb": 9554,
      "à¸²à¸Ĭ": 9555,
      "à¸Ľà¸£": 9556,
      "ç¤º": 9557,
      "ÎºÎ¿Ïħ": 9558,
      "ĠÐ£ÐºÑĢÐ°": 9559,
      "vos": 9560,
      "Ġàª¡": 9561,
      "Ġseperti": 9562,
      "Ġà¤Ĩà¤¯": 9563,
      "Ġnod": 9564,
      "arbe": 9565,
      "à°¯à°¨": 9566,
      "hing": 9567,
      "ÑĦÑĤ": 9568,
      "Ġprec": 9569,
      "asyon": 9570,
      "Ġfoto": 9571,
      "Ġtat": 9572,
      "ĠDon": 9573,
      "ÑĢÑĭÐ½": 9574,
      "ÑĤÐ¸Ð¸": 9575,
      "à¦ķà¦²": 9576,
      "rig": 9577,
      "áħ£": 9578,
      "Ġ×ĳ×¨": 9579,
      "ĠðŁ": 9580,
      "Ġtash": 9581,
      "áħ±": 9582,
      "áĢĽáĢĶ": 9583,
      "Õ½Õ¿": 9584,
      "à¥ģà¤Ĥ": 9585,
      "Ġtantra": 9586,
      "kos": 9587,
      "Ð°Ð½Ðµ": 9588,
      "ĠÙĪØŃ": 9589,
      "ãĥ¼ãĥł": 9590,
      "à¾²à½´": 9591,
      "Õ¥Õ¼": 9592,
      "Ð°Ò³": 9593,
      "Ġï¾": 9594,
      "àºģàº²àºĻ": 9595,
      "ÅĤy": 9596,
      "orske": 9597,
      "mod": 9598,
      "kai": 9599,
      "Ġsebagai": 9600,
      "ĠØ§ÙĦØ²": 9601,
      "ĠØ®ÙĦØ§ÙĦ": 9602,
      "tia": 9603,
      "Ġnei": 9604,
      "×Ļ×Ĵ": 9605,
      "ÑįÑįÐ»": 9606,
      "Ġáŀı": 9607,
      "ĠÑģÐ¾Ð½": 9608,
      "ĠÑħÑĥÐ´": 9609,
      "Ġindivid": 9610,
      "ĠSal": 9611,
      "75": 9612,
      "Ġà²²": 9613,
      "ÏĩÎ¿": 9614,
      "Ġpay": 9615,
      "Ġcontr": 9616,
      "ĠØ®Ø·": 9617,
      "Ġãģª": 9618,
      "à´«": 9619,
      "ĠáĦĭáħ±": 9620,
      "åĦ": 9621,
      "ĠÐ³ÑĢÑĥ": 9622,
      "èĳ": 9623,
      "Ġsono": 9624,
      "ĠãĤª": 9625,
      "ÙĪÙĦÙĪ": 9626,
      "ĠfÃ¸r": 9627,
      "wang": 9628,
      "icha": 9629,
      "Ġà¸ķ": 9630,
      "à²¸à²²": 9631,
      "ĠØ¸": 9632,
      "ÑĸÑĸ": 9633,
      "åıª": 9634,
      "ustri": 9635,
      "à»ĥàºĻàº": 9636,
      "):": 9637,
      "ĠØªÚ¾Ø§": 9638,
      "Ð¶ÑįÑį": 9639,
      "àª¿àªĤ": 9640,
      "ĠÑĢÐ°Ð±Ð¾": 9641,
      "ÑĨÐ¸ÑĺÐµ": 9642,
      "taj": 9643,
      "ĠLes": 9644,
      "Ð¾Ð½Ð´": 9645,
      "ĠOb": 9646,
      "Ð¶Ð°Ð²": 9647,
      "áĩĤ": 9648,
      "Ġcul": 9649,
      "buat": 9650,
      "ĠÙĨÙĤ": 9651,
      "ĠCol": 9652,
      "ĠÐ¶ÐµÑĢ": 9653,
      "à¨Ŀ": 9654,
      "áĥĹáĥĲáĥľ": 9655,
      "Ġsport": 9656,
      "ĠMad": 9657,
      "enci": 9658,
      "Ġrus": 9659,
      "ÙĪØ±ÙĬ": 9660,
      "áĥĿáĥª": 9661,
      "ÑĢÐµÐ¿": 9662,
      "Ġrak": 9663,
      "Ġxe": 9664,
      "ĠÚ©Ø±ÙĨÛĴ": 9665,
      "ÐµÑĨÑĨÐ°": 9666,
      "áĪ½": 9667,
      "ativa": 9668,
      "Il": 9669,
      "ĠÑĢÐµÐ·": 9670,
      "Ġà²ĩà²¦": 9671,
      "èĥ": 9672,
      "ÑĸÐ¸": 9673,
      "ÓĻÐ¸": 9674,
      "çĶ±": 9675,
      "ÙĩÙĩÙĩÙĩ": 9676,
      "ogu": 9677,
      "ĠÑĥÑĩÑĥÐ½": 9678,
      "ĠÎ½ÏĢ": 9679,
      "Ġuv": 9680,
      "Ð»ÐµÐºÑĤ": 9681,
      "Ġmumkin": 9682,
      "ril": 9683,
      "ĠPra": 9684,
      "Õ¡ÖĢÕ±": 9685,
      "ÑĻÐµ": 9686,
      "Ġà´ħà´µ": 9687,
      "ĠØ®Ù¾": 9688,
      "ĠáĦĢáħ§áĨ¼": 9689,
      "ids": 9690,
      "èªŀ": 9691,
      "ĠÑĥÑģ": 9692,
      "Ġfak": 9693,
      "Ø§ÛĮØª": 9694,
      "å®ŀ": 9695,
      "lv": 9696,
      "Õ¡ÖĢÕ£": 9697,
      "tum": 9698,
      "Ġà¤īà¤¤": 9699,
      "ĠáĢ¥": 9700,
      "Ġadd": 9701,
      "Ġistifad": 9702,
      "æīĵ": 9703,
      "nings": 9704,
      "ĠJoh": 9705,
      "Ġens": 9706,
      "Ø®ÙĪ": 9707,
      "dapat": 9708,
      "Ġà¥¨": 9709,
      "ĠÕª": 9710,
      "ĠÑĤÒ¯ÑĢ": 9711,
      "Ġniya": 9712,
      "Ð½ÑĦÑħ": 9713,
      "ĤàºŃàºĩ": 9714,
      "×Ļ×Ļ": 9715,
      "ĠÙĪÛĮ": 9716,
      "×ł×ķ×ª": 9717,
      "Ġà®ħà®®": 9718,
      "uris": 9719,
      "ĠÑģÐ¾Ð»": 9720,
      "ĠÎµÏĢ": 9721,
      "áĥĲáĥ¥": 9722,
      "32": 9723,
      "omas": 9724,
      "ÖĢÕ¤": 9725,
      "Ġ2009": 9726,
      "å±±": 9727,
      "Ġktor": 9728,
      "Ġteen": 9729,
      "ĠEst": 9730,
      "tige": 9731,
      "Ġà´Ń": 9732,
      "Ġrend": 9733,
      "ÐµÐ¼ÑħÐµ": 9734,
      "Ġ;": 9735,
      "ware": 9736,
      "Ġ×Ķ×¡": 9737,
      "ĠÛĮÛĲ": 9738,
      "ÑĢÐµÐ±": 9739,
      "ĠÐ½Ð°Ð´": 9740,
      "äº§": 9741,
      "prav": 9742,
      "wyd": 9743,
      "Ø³Ùĩ": 9744,
      "Ġalte": 9745,
      "à²°à²¤": 9746,
      "Det": 9747,
      "unun": 9748,
      "ÑħÑı": 9749,
      "Ġà¦Ĩà¦°": 9750,
      "ÑĸÑĩ": 9751,
      "ribu": 9752,
      "Ġactiv": 9753,
      "ĠÐ¿Ð°Ñģ": 9754,
      "Ġesk": 9755,
      "Bu": 9756,
      "Ġà¹Ģà¸ŀ": 9757,
      "ÛİØ±": 9758,
      "à³Ĩ,": 9759,
      "×ĳ×¢": 9760,
      "Ġhoe": 9761,
      "Ġrest": 9762,
      "ĠÓĺ": 9763,
      "Ġmoet": 9764,
      "ĠÑįÑĤÐ¸": 9765,
      "nner": 9766,
      "rÉĻ": 9767,
      "ĠáĦĢáħ©": 9768,
      "à¤¬à¤°": 9769,
      "à¦ĸà¦¨": 9770,
      "ĠÐ½ÐµÐ¼": 9771,
      "ĠÐ±Ð½ÐºÐ½Ñı": 9772,
      "ĠAfr": 9773,
      "à¤®à¤¨": 9774,
      "ĠÃ¾e": 9775,
      "à»ľ": 9776,
      "æĵ": 9777,
      "ovic": 9778,
      "dim": 9779,
      "ä¸ĸ": 9780,
      "Ã°ar": 9781,
      "ĠãĥĨ": 9782,
      "ĠÑģÐ¿Ðµ": 9783,
      "Ġsep": 9784,
      "Ò¯Ò¯Ð´": 9785,
      "omh": 9786,
      "Ġàª§": 9787,
      "Ġkommer": 9788,
      "à¸ªà¸²à¸¡à¸²à¸£à¸ĸ": 9789,
      "edia": 9790,
      "Ø§Ø¨ÙĤ": 9791,
      "Ġkasut": 9792,
      "Ġgov": 9793,
      "Ġyi": 9794,
      "áĦħáħ³": 9795,
      "çĽ´": 9796,
      "cijas": 9797,
      "vang": 9798,
      "rok": 9799,
      "Ú©ÙĪ": 9800,
      "Ġcontra": 9801,
      "pap": 9802,
      "Ġren": 9803,
      "ĠÏĦÎ¹ÏĤ": 9804,
      "AND": 9805,
      "Ð¸Ð´": 9806,
      "ĠÙĬÙĤ": 9807,
      "ugi": 9808,
      "à¨°à¨¸": 9809,
      "å®Į": 9810,
      "ĠÙħÙĩ": 9811,
      "ÒĽÐ°Ð½": 9812,
      "abe": 9813,
      "Ġtok": 9814,
      "Mar": 9815,
      "Ġáŀĩ": 9816,
      "Ġpus": 9817,
      "illi": 9818,
      "ï½¯": 9819,
      "Ġkomun": 9820,
      "imit": 9821,
      "ÑįÑįÑģ": 9822,
      "udz": 9823,
      "áĢ¡áĢķ": 9824,
      "ĠÎ¶Î±": 9825,
      "Ġradi": 9826,
      "ĠÐ³ÑįÑĤÐ°": 9827,
      "ilan": 9828,
      "Ġà¸ŀ": 9829,
      "ĠÐ¼Ñĭ": 9830,
      "Ġsonra": 9831,
      "Ġthey": 9832,
      "66": 9833,
      "Ġjust": 9834,
      "Ð±Ð°ÑĤ": 9835,
      "Ġà¬Ł": 9836,
      "ece": 9837,
      "èĢģ": 9838,
      "ÑĩÐµÑģÐºÐ¸": 9839,
      "ĠEsc": 9840,
      "Ġpotreb": 9841,
      "lia": 9842,
      "ĠYou": 9843,
      "Î·Î¸ÏĪÎ»": 9844,
      ",,": 9845,
      "Ang": 9846,
      "Ð¸Ð»Ð¾": 9847,
      "tiva": 9848,
      "ĠÐ¼Ð½Ð¾Ð³Ð¾": 9849,
      "Ġged": 9850,
      "rans": 9851,
      "Ú©Úĵ": 9852,
      "okat": 9853,
      "Ġdies": 9854,
      "Ø®ØªÙĦÙģ": 9855,
      "fol": 9856,
      "×¥": 9857,
      "áĢģáĢĦ": 9858,
      "ÐĿÐ°": 9859,
      "ĠLu": 9860,
      "win": 9861,
      "ÙĥÙī": 9862,
      "Ġà¬ĸ": 9863,
      "ĠØ¯Ø§ÙĨ": 9864,
      "wys": 9865,
      "ÑģÑĤÑĢÑĥ": 9866,
      "ĠFe": 9867,
      "ĠãĤĭ": 9868,
      "ĠÐĿÐµ": 9869,
      "æĴ": 9870,
      "ĠØ¹Ø§Ùħ": 9871,
      "Ġcz": 9872,
      "Þĸ": 9873,
      "áŀĻáŀĵ": 9874,
      "atal": 9875,
      "rib": 9876,
      "ĠØ´ÙĪØ¯": 9877,
      "kem": 9878,
      "entar": 9879,
      "à¤¤à¤²": 9880,
      "áĢķáĢĬ": 9881,
      "àª°àªķ": 9882,
      "tera": 9883,
      "hop": 9884,
      "ĠÐ¶Ò¯ÑĢ": 9885,
      "ĠÎ·Î½Î»": 9886,
      "Ġbos": 9887,
      "ÑįÑģ": 9888,
      "Ġalso": 9889,
      "Ġkuma": 9890,
      "Ð»Ð¸Ð±": 9891,
      "æ¤": 9892,
      "à®ħ": 9893,
      "Ġmm": 9894,
      "ĠÐ¿Ðµ": 9895,
      "å±ķ": 9896,
      "Ġáŀģ": 9897,
      "ĠnÉĻ": 9898,
      "áŀļáŀİ": 9899,
      "áĮħ": 9900,
      "Ġà·ĥà¶³": 9901,
      "ĠÛĮÙĪ": 9902,
      "usan": 9903,
      "Ġà¤®à¤¨": 9904,
      "à¾¤": 9905,
      "Ġmp": 9906,
      "Ġmange": 9907,
      "idos": 9908,
      "à´ķàµ¾": 9909,
      "ape": 9910,
      "iec": 9911,
      "å¾Ī": 9912,
      "ĠÐ¼ÐµÐ´Ð¸": 9913,
      "ï¾ŀï¾": 9914,
      "áĤıáĢŃáĢ¯": 9915,
      "à¶½à¶º": 9916,
      "ÑļÑĥ": 9917,
      "à¤ĵ": 9918,
      "ĠLat": 9919,
      "Ġhen": 9920,
      "àºĦàº§àº²àº¡": 9921,
      "Ġment": 9922,
      "Ġ×ĳ×ª": 9923,
      "itis": 9924,
      "ĠÐ¾Ðº": 9925,
      "ä½ķ": 9926,
      "áĭĪáĪ²áī¥": 9927,
      "à¤¸à¤²": 9928,
      "ĠáīłáĪĺ": 9929,
      "à¾±à½´": 9930,
      "hs": 9931,
      "orem": 9932,
      "Ġfull": 9933,
      "2021": 9934,
      "ÛķÙĦ": 9935,
      "ĠÑħÐ°": 9936,
      "à¤µà¤²": 9937,
      "Ø§ÙħÛĮ": 9938,
      "Ð°Ð»ÑĭÐº": 9939,
      "ÑĦÐµÐº": 9940,
      "Ġabs": 9941,
      "ÑĪÐº": 9942,
      "ĠOp": 9943,
      "Ø³Ø±": 9944,
      "ãĤĮãĤĭ": 9945,
      "asjon": 9946,
      "Ġora": 9947,
      "Ġbuk": 9948,
      "ĠÚ©ÙĪÙĬ": 9949,
      "ĠáĦīáħ©": 9950,
      "Ġfund": 9951,
      "à°¯à°ķ": 9952,
      "ÐµÑĤÑĤÑĸ": 9953,
[...]
