<pad>	0
<unk>	0
<s>	0
</s>	0
an	-0
in	-1
en	-2
▁a	-3
▁s	-4
er	-5
▁d	-6
▁t	-7
▁m	-8
▁n	-9
ar	-10
▁k	-11
▁p	-12
on	-13
▁l	-14
at	-15
al	-16
▁b	-17
es	-18
is	-19
or	-20
el	-21
as	-22
it	-23
▁c	-24
un	-25
et	-26
▁o	-27
▁h	-28
▁i	-29
am	-30
▁v	-31
il	-32
▁f	-33
ak	-34
ir	-35
▁ا	-36
▁e	-37
▁g	-38
ad	-39
ch	-40
ur	-41
▁r	-42
ik	-43
om	-44
os	-45
em	-46
▁y	-47
ol	-48
▁w	-49
us	-50
ga	-51
ed	-52
ti	-53
▁u	-54
▁de	-55
▁S	-56
ek	-57
▁ال	-58
id	-59
▁A	-60
ta	-61
im	-62
ang	-63
▁j	-64
ul	-65
▁M	-66
ing	-67
▁an	-68
ар	-69
um	-70
ra	-71
▁م	-72
▁in	-73
ah	-74
▁z	-75
ut	-76
ag	-77
▁pr	-78
ан	-79
te	-80
▁P	-81
ia	-82
▁na	-83
▁б	-84
▁T	-85
▁с	-86
he	-87
ab	-88
▁و	-89
ay	-90
▁ب	-91
ok	-92
od	-93
▁B	-94
ic	-95
на	-96
le	-97
ig	-98
ie	-99
re	-100
ot	-101
▁D	-102
ent	-103
ان	-104
▁K	-105
▁C	-106
▁п	-107
▁к	-108
▁le	-109
uk	-110
▁I	-111
▁N	-112
ha	-113
and	-114
ap	-115
▁т	-116
▁se	-117
▁д	-118
▁-	-119
ov	-120
▁E	-121
▁la	-122
ал	-123
▁q	-124
wa	-125
ен	-126
▁en	-127
▁L	-128
▁ک	-129
▁ت	-130
▁(	-131
▁sa	-132
ст	-133
ра	-134
ana	-135
iz	-136
▁м	-137
ci	-138
la	-139
ار	-140
st	-141
og	-142
▁H	-143
▁د	-144
▁di	-145
▁un	-146
▁ku	-147
ال	-148
eg	-149
▁क	-150
▁и	-151
▁ma	-152
▁te	-153
▁ل	-154
ат	-155
da	-156
▁G	-157
ou	-158
▁ch	-159
..	-160
op	-161
▁R	-162
▁в	-163
iv	-164
▁س	-165
▁al	-166
▁א	-167
ob	-168
▁F	-169
▁ka	-170
ib	-171
ng	-172
ер	-173
ya	-174
ist	-175
na	-176
▁о	-177
est	-178
ara	-179
ud	-180
we	-181
ion	-182
oj	-183
eng	-184
hi	-185
▁O	-186
de	-187
ij	-188
eb	-189
▁qu	-190
ez	-191
ip	-192
▁ج	-193
ни	-194
ant	-195
▁з	-196
▁на	-197
▁at	-198
▁V	-199
ub	-200
av	-201
li	-202
ina	-203
▁th	-204
ter	-205
▁to	-206
▁ar	-207
▁а	-208
▁ta	-209
ka	-210
да	-211
▁स	-212
ро	-213
ma	-214
ات	-215
▁ng	-216
▁پ	-217
▁J	-218
ын	-219
но	-220
ye	-221
▁is	-222
▁st	-223
▁U	-224
ung	-225
up	-226
▁ن	-227
ers	-228
ол	-229
ih	-230
ec	-231
ke	-232
▁ع	-233
▁am	-234
▁tr	-235
ne	-236
sa	-237
di	-238
ел	-239
▁W	-240
्य	-241
ala	-242
▁ف	-243
▁the	-244
ri	-245
je	-246
ор	-247
az	-248
▁el	-249
ho	-250
se	-251
ས་	-252
ere	-253
ет	-254
▁ה	-255
ور	-256
▁у	-257
ari	-258
▁“	-259
▁on	-260
ro	-261
ep	-262
▁da	-263
▁nga	-264
ug	-265
▁प	-266
▁og	-267
ba	-268
не	-269
end	-270
ja	-271
▁ak	-272
ون	-273
ata	-274
ов	-275
ini	-276
ла	-277
▁er	-278
ام	-279
ре	-280
▁es	-281
ada	-282
▁con	-283
ua	-284
▁म	-285
▁ne	-286
אַ	-287
▁г	-288
lar	-289
▁et	-290
ni	-291
si	-292
ка	-293
ит	-294
▁х	-295
ny	-296
▁me	-297
ac	-298
▁for	-299
ong	-300
▁ه	-301
zi	-302
▁ق	-303
▁–	-304
▁of	-305
ու	-306
لى	-307
्र	-308
ika	-309
▁ni	-310
▁ك	-311
aka	-312
to	-313
ай	-314
ali	-315
ine	-316
▁ئ	-317
▁ي	-318
era	-319
▁je	-320
▁si	-321
▁do	-322
ama	-323
▁que	-324
▁מ	-325
▁"	-326
▁per	-327
он	-328
ين	-329
ach	-330
ार	-331
ev	-332
▁ह	-333
▁fa	-334
ам	-335
▁ag	-336
▁ж	-337
▁đ	-338
tr	-339
▁as	-340
▁ki	-341
ли	-342
▁ti	-343
ست	-344
▁ش	-345
art	-346
▁and	-347
lo	-348
יי	-349
▁ny	-350
য়	-351
▁ر	-352
za	-353
ول	-354
▁no	-355
ind	-356
ani	-357
sk	-358
ira	-359
ང་	-360
ри	-361
▁ב	-362
ער	-363
▁wa	-364
▁ya	-365
▁com	-366
ela	-367
▁li	-368
ི་	-369
ան	-370
ati	-371
ва	-372
▁ba	-373
are	-374
ita	-375
▁or	-376
ele	-377
▁im	-378
▁pa	-379
va	-380
ом	-381
▁re	-382
yo	-383
yn	-384
qu	-385
ди	-386
▁ho	-387
▁sp	-388
▁أ	-389
▁خ	-390
ို	-391
та	-392
ort	-393
ill	-394
▁الم	-395
oc	-396
▁mu	-397
▁ap	-398
▁ক	-399
amb	-400
▁ح	-401
ек	-402
ile	-403
▁פ	-404
ти	-405
ona	-406
ost	-407
ess	-408
ite	-409
io	-410
ans	-411
ce	-412
▁ל	-413
▁ד	-414
▁ו	-415
▁iz	-416
▁за	-417
▁τ	-418
्या	-419
▁x	-420
ന്	-421
▁من	-422
ann	-423
▁op	-424
any	-425
▁अ	-426
tu	-427
▁ko	-428
▁आ	-429
inn	-430
▁In	-431
га	-432
▁be	-433
amp	-434
ки	-435
eri	-436
ell	-437
ki	-438
▁ha	-439
ith	-440
▁men	-441
▁по	-442
uh	-443
▁ब	-444
ية	-445
of	-446
אָ	-447
اد	-448
all	-449
isa	-450
ın	-451
▁न	-452
▁ব	-453
▁ш	-454
ул	-455
▁да	-456
ow	-457
▁uk	-458
▁ש	-459
▁su	-460
▁kon	-461
்க	-462
ru	-463
ас	-464
▁স	-465
asi	-466
ast	-467
ane	-468
▁die	-469
▁par	-470
▁Y	-471
...	-472
ན་	-473
▁প	-474
▁av	-475
ate	-476
را	-477
▁mo	-478
то	-479
▁ab	-480
ны	-481
▁|	-482
▁ч	-483
▁kw	-484
ili	-485
▁é	-486
ري	-487
ert	-488
ai	-489
▁व	-490
ىن	-491
ale	-492
▁Z	-493
me	-494
▁ad	-495
▁po	-496
▁vi	-497
iti	-498
ем	-499
iri	-500
hu	-501
ил	-502
und	-503
ation	-504
▁um	-505
ды	-506
ის	-507
▁so	-508
ve	-509
ene	-510
▁il	-511
pr	-512
ак	-513
▁የ	-514
र्	-515
▁Б	-516
yd	-517
لا	-518
្រ	-519
င်	-520
▁kom	-521
ore	-522
▁sk	-523
ena	-524
ens	-525
ыл	-526
න්	-527
▁yo	-528
int	-529
▁ज	-530
no	-531
ות	-532
دا	-533
▁ke	-534
ish	-535
ly	-536
▁त	-537
்த	-538
▁za	-539
lu	-540
▁في	-541
ón	-542
emb	-543
ия	-544
ებ	-545
▁آ	-546
ला	-547
ze	-548
▁С	-549
▁я	-550
iy	-551
▁र	-552
▁द	-553
ên	-554
for	-555
▁А	-556
اب	-557
ക്	-558
▁del	-559
lan	-560
oa	-561
ານ	-562
▁du	-563
ver	-564
▁us	-565
ji	-566
ەر	-567
▁«	-568
▁چ	-569
eni	-570
asa	-571
▁ber	-572
be	-573
▁it	-574
adh	-575
▁не	-576
▁med	-577
▁til	-578
ים	-579
▁des	-580
▁э	-581
ها	-582
anga	-583
ju	-584
ད་	-585
اس	-586
го	-587
ین	-588
ich	-589
▁kan	-590
ου	-591
▁bo	-592
ire	-593
▁ac	-594
▁ਦ	-595
▁gr	-596
▁va	-597
әр	-598
▁ver	-599
▁fr	-600
▁ہ	-601
▁እ	-602
ур	-603
ത്	-604
▁ਕ	-605
ון	-606
եր	-607
if	-608
▁М	-609
▁An	-610
لي	-611
▁á	-612
▁em	-613
▁dan	-614
ले	-615
▁ir	-616
▁ọ	-617
kan	-618
во	-619
▁van	-620
▁lo	-621
||	-622
▁ग	-623
ин	-624
ար	-625
▁ob	-626
▁ve	-627
ard	-628
▁yang	-629
▁he	-630
▁ol	-631
▁om	-632
▁bi	-633
pl	-634
ys	-635
ash	-636
ма	-637
▁ਸ	-638
isi	-639
ond	-640
▁К	-641
وا	-642
▁den	-643
▁od	-644
▁ter	-645
ान	-646
ge	-647
▁nd	-648
ake	-649
ca	-650
yr	-651
ente	-652
▁के	-653
▁আ	-654
ku	-655
▁mat	-656
▁man	-657
ako	-658
▁det	-659
ம்	-660
ura	-661
af	-662
adi	-663
ле	-664
▁אי	-665
tt	-666
wo	-667
ко	-668
▁ser	-669
وم	-670
▁በ	-671
th	-672
ты	-673
ko	-674
ير	-675
де	-676
ide	-677
ord	-678
▁ક	-679
▁cu	-680
ән	-681
▁Pr	-682
▁'	-683
ör	-684
ائ	-685
▁ان	-686
uri	-687
▁گ	-688
▁est	-689
וי	-690
▁Т	-691
ру	-692
▁der	-693
ەن	-694
▁ڪ	-695
▁we	-696
aha	-697
▁ang	-698
ার	-699
▁som	-700
sh	-701
▁mar	-702
ər	-703
ін	-704
ike	-705
emp	-706
▁ба	-707
ier	-708
so	-709
্য	-710
▁kun	-711
ino	-712
ler	-713
یں	-714
▁wh	-715
▁pl	-716
મા	-717
ав	-718
▁ਹ	-719
▁ра	-720
▁af	-721
▁π	-722
▁ek	-723
aj	-724
▁।	-725
▁П	-726
ག་	-727
▁ව	-728
▁Al	-729
▁ө	-730
▁por	-731
को	-732
▁ik	-733
▁भ	-734
uz	-735
▁pas	-736
या	-737
ий	-738
▁ක	-739
ora	-740
gan	-741
▁Ch	-742
▁nan	-743
▁ph	-744
una	-745
▁પ	-746
).	-747
▁κ	-748
▁‘	-749
ula	-750
uf	-751
ес	-752
▁ע	-753
▁н	-754
ར་	-755
ui	-756
ori	-757
▁pe	-758
▁har	-759
ym	-760
का	-761
aya	-762
ци	-763
ts	-764
ား	-765
igh	-766
▁ম	-767
▁про	-768
án	-769
▁bil	-770
ran	-771
alo	-772
▁mi	-773
те	-774
és	-775
ने	-776
मा	-777
▁ex	-778
▁í	-779
olo	-780
▁mas	-781
eta	-782
од	-783
▁σ	-784
▁ү	-785
idh	-786
▁agus	-787
▁جي	-788
▁አ	-789
▁kh	-790
და	-791
▁på	-792
▁të	-793
vo	-794
نا	-795
ান	-796
▁min	-797
ما	-798
ida	-799
ica	-800
ano	-801
ன்	-802
pa	-803
▁by	-804
▁sh	-805
▁ק	-806
ten	-807
▁aw	-808
▁os	-809
سل	-810
▁се	-811
्त	-812
دى	-813
uc	-814
ல்	-815
▁ja	-816
man	-817
nd	-818
▁α	-819
▁ی	-820
lik	-821
▁до	-822
ete	-823
ima	-824
ལ་	-825
▁وال	-826
go	-827
▁ස	-828
је	-829
ff	-830
ку	-831
ាន	-832
ami	-833
▁მ	-834
eka	-835
bo	-836
ise	-837
▁ப	-838
mi	-839
▁ප	-840
от	-841
▁ਨ	-842
▁š	-843
ээ	-844
är	-845
▁এ	-846
▁ג	-847
αι	-848
vi	-849
ola	-850
▁ez	-851
ade	-852
▁କ	-853
ema	-854
▁אַ	-855
hl	-856
▁ప	-857
▁ал	-858
atu	-859
ont	-860
▁די	-861
▁nh	-862
▁ç	-863
ado	-864
▁ed	-865
▁қ	-866
▁ga	-867
▁સ	-868
tion	-869
nh	-870
oni	-871
ust	-872
▁ਵ	-873
▁ing	-874
tor	-875
ని	-876
تى	-877
არ	-878
fa	-879
ары	-880
▁ф	-881
pe	-882
▁yn	-883
▁হ	-884
▁та	-885
▁ז	-886
one	-887
▁met	-888
رو	-889
ന്ന	-890
دي	-891
oz	-892
င္	-893
اي	-894
▁መ	-895
ọn	-896
▁ز	-897
▁کی	-898
wi	-899
уд	-900
▁air	-901
▁pos	-902
ph	-903
▁ন	-904
ram	-905
ना	-906
▁او	-907
ila	-908
),	-909
▁az	-910
ад	-911
ás	-912
▁br	-913
ning	-914
▁tu	-915
▁Q	-916
▁ସ	-917
▁В	-918
ult	-919
▁pag	-920
ता	-921
ակ	-922
ми	-923
▁sam	-924
াৰ	-925
▁ah	-926
▁Н	-927
▁les	-928
ക്ക	-929
▁eg	-930
▁res	-931
▁і	-932
anda	-933
▁க	-934
▁प्र	-935
eh	-936
▁pol	-937
ری	-938
▁ai	-939
iko	-940
▁kr	-941
ure	-942
▁په	-943
ck	-944
▁ص	-945
yon	-946
ార	-947
க்க	-948
▁var	-949
▁tal	-950
▁е	-951
▁ପ	-952
ני	-953
ের	-954
▁bir	-955
▁go	-956
▁ко	-957
▁ndi	-958
che	-959
▁:	-960
▁kar	-961
▁bu	-962
▁mga	-963
oh	-964
mer	-965
▁ಮ	-966
ál	-967
res	-968
وو	-969
▁ε	-970
▁ok	-971
▁bar	-972
▁hi	-973
uma	-974
yl	-975
▁إ	-976
▁പ	-977
ër	-978
هن	-979
▁inter	-980
্ত	-981
▁క	-982
్ర	-983
▁Д	-984
eli	-985
ें	-986
▁Ar	-987
న్	-988
▁দ	-989
ви	-990
འི་	-991
ats	-992
bi	-993
aba	-994
▁dis	-995
▁ug	-996
ice	-997
ins	-998
▁St	-999
▁.	-1000
ਾਂ	-1001
▁„	-1002
ün	-1003
ော	-1004
هي	-1005
bu	-1006
ici	-1007
▁کے	-1008
ەت	-1009
ган	-1010
այ	-1011
▁бол	-1012
▁sv	-1013
co	-1014
fer	-1015
ür	-1016
ור	-1017
▁অ	-1018
аз	-1019
न्	-1020
▁उ	-1021
ને	-1022
▁ಸ	-1023
▁nj	-1024
▁י	-1025
าร	-1026
ett	-1027
ew	-1028
▁lan	-1029
▁Ma	-1030
ción	-1031
વા	-1032
▁հ	-1033
ath	-1034
elo	-1035
▁ra	-1036
▁ž	-1037
▁Р	-1038
▁μ	-1039
▁الت	-1040
imo	-1041
ັນ	-1042
dan	-1043
▁צ	-1044
der	-1045
ите	-1046
்ட	-1047
ato	-1048
ulu	-1049
cion	-1050
men	-1051
ass	-1052
ත්	-1053
▁һ	-1054
্র	-1055
▁ම	-1056
▁வ	-1057
له	-1058
ին	-1059
ата	-1060
ಲ್	-1061
ог	-1062
▁pod	-1063
▁vo	-1064
oto	-1065
uj	-1066
ыр	-1067
ink	-1068
որ	-1069
▁వ	-1070
▁ut	-1071
ero	-1072
oma	-1073
ис	-1074
▁þ	-1075
▁nu	-1076
ារ	-1077
кі	-1078
mo	-1079
▁ત	-1080
▁à	-1081
ತ್	-1082
ରେ	-1083
▁အ	-1084
tiv	-1085
തി	-1086
ese	-1087
ында	-1088
ོ་	-1089
▁ს	-1090
▁الع	-1091
ity	-1092
▁para	-1093
itu	-1094
▁het	-1095
த்த	-1096
స్	-1097
▁tra	-1098
်း	-1099
ito	-1100
ні	-1101
▁mal	-1102
▁ö	-1103
per	-1104
лы	-1105
анд	-1106
үү	-1107
▁على	-1108
ອງ	-1109
ус	-1110
ea	-1111
▁č	-1112
▁sy	-1113
▁ط	-1114
gi	-1115
akan	-1116
än	-1117
က်	-1118
يل	-1119
▁би	-1120
ում	-1121
өр	-1122
în	-1123
ement	-1124
્ય	-1125
िक	-1126
ี่	-1127
ase	-1128
▁ur	-1129
▁ம	-1130
▁tak	-1131
ან	-1132
▁La	-1133
▁ಕ	-1134
▁ल	-1135
ара	-1136
ayo	-1137
▁ea	-1138
cha	-1139
ლი	-1140
▁dr	-1141
▁gi	-1142
unt	-1143
▁જ	-1144
்ப	-1145
▁co	-1146
▁X	-1147
ען	-1148
им	-1149
▁ein	-1150
ез	-1151
يا	-1152
▁ക	-1153
▁וו	-1154
ед	-1155
▁ਪ	-1156
▁О	-1157
ના	-1158
▁ş	-1159
ικ	-1160
่า	-1161
▁כ	-1162
▁ind	-1163
eth	-1164
об	-1165
ня	-1166
ey	-1167
هر	-1168
▁అ	-1169
әм	-1170
▁اس	-1171
▁අ	-1172
iss	-1173
▁આ	-1174
▁మ	-1175
ει	-1176
انی	-1177
rat	-1178
cht	-1179
ند	-1180
▁ent	-1181
iki	-1182
▁श	-1183
ུ་	-1184
jo	-1185
▁कर	-1186
ue	-1187
്ട	-1188
্ৰ	-1189
ос	-1190
▁sem	-1191
نى	-1192
ित	-1193
өн	-1194
ການ	-1195
▁En	-1196
ும்	-1197
ame	-1198
enti	-1199
ır	-1200
еш	-1201
वा	-1202
▁У	-1203
ун	-1204
ber	-1205
аны	-1206
▁،	-1207
▁है	-1208
▁,	-1209
▁Mar	-1210
▁الح	-1211
▁છ	-1212
eko	-1213
اق	-1214
ets	-1215
ry	-1216
én	-1217
ක්	-1218
лі	-1219
ank	-1220
هم	-1221
uga	-1222
▁kat	-1223
ní	-1224
ыз	-1225
▁ge	-1226
▁ବ	-1227
▁அ	-1228
ಿದ	-1229
esi	-1230
▁mai	-1231
ිය	-1232
wn	-1233
▁bl	-1234
ای	-1235
▁û	-1236
▁å	-1237
▁த	-1238
གས་	-1239
ել	-1240
▁ay	-1241
ನ್	-1242
να	-1243
agi	-1244
▁tur	-1245
▁up	-1246
อง	-1247
▁mak	-1248
▁dh	-1249
iza	-1250
oll	-1251
▁الأ	-1252
ista	-1253
itt	-1254
▁ст	-1255
▁sin	-1256
its	-1257
្ន	-1258
▁dal	-1259
ей	-1260
▁che	-1261
ør	-1262
yk	-1263
▁ত	-1264
eke	-1265
▁пре	-1266
зи	-1267
ర్	-1268
לי	-1269
ും	-1270
▁له	-1271
ér	-1272
--	-1273
▁ts	-1274
▁Un	-1275
▁ý	-1276
ىل	-1277
ེ་	-1278
▁ye	-1279
▁का	-1280
▁pers	-1281
ons	-1282
com	-1283
▁The	-1284
ҳо	-1285
ענ	-1286
▁och	-1287
uru	-1288
du	-1289
ll	-1290
ени	-1291
▁च	-1292
aran	-1293
ונ	-1294
▁bh	-1295
ive	-1296
аш	-1297
▁una	-1298
▁અ	-1299
רי	-1300
oko	-1301
ão	-1302
માં	-1303
▁бай	-1304
▁ኣ	-1305
ంద	-1306
aki	-1307
رد	-1308
▁mer	-1309
ova	-1310
кт	-1311
▁prod	-1312
▁ከ	-1313
uka	-1314
ven	-1315
▁De	-1316
эн	-1317
ár	-1318
▁sing	-1319
port	-1320
▁Th	-1321
▁mod	-1322
ಾರ	-1323
edi	-1324
رب	-1325
མ་	-1326
inga	-1327
▁مع	-1328
▁ச	-1329
▁от	-1330
▁zv	-1331
ود	-1332
▁sar	-1333
▁ca	-1334
▁И	-1335
▁то	-1336
apa	-1337
ment	-1338
وي	-1339
tic	-1340
ля	-1341
▁að	-1342
ende	-1343
uta	-1344
▁ਜ	-1345
ern	-1346
ಲ್ಲ	-1347
ож	-1348
▁ए	-1349
ள்	-1350
▁bak	-1351
ที่	-1352
▁بال	-1353
ାର	-1354
ани	-1355
▁sal	-1356
ிய	-1357
▁kur	-1358
form	-1359
ць	-1360
וו	-1361
ся	-1362
ən	-1363
▁ин	-1364
лә	-1365
▁ನ	-1366
angan	-1367
▁വ	-1368
▁kwa	-1369
رى	-1370
аб	-1371
fr	-1372
zy	-1373
୍ର	-1374
وه	-1375
сти	-1376
ဲ့	-1377
اع	-1378
ahi	-1379
enc	-1380
▁pro	-1381
enn	-1382
lig	-1383
ല്	-1384
age	-1385
ନ୍	-1386
▁dat	-1387
▁છે	-1388
ர்	-1389
ана	-1390
uba	-1391
ush	-1392
یر	-1393
yi	-1394
ып	-1395
્ર	-1396
imi	-1397
▁இ	-1398
▁из	-1399
טי	-1400
olog	-1401
ime	-1402
يو	-1403
བ་	-1404
лар	-1405
min	-1406
င်း	-1407
usi	-1408
▁при	-1409
▁од	-1410
sp	-1411
▁со	-1412
່າ	-1413
▁ре	-1414
▁fi	-1415
ներ	-1416
▁ما	-1417
▁է	-1418
eti	-1419
ທີ	-1420
లు	-1421
▁და	-1422
ەک	-1423
▁స	-1424
▁pi	-1425
ekt	-1426
▁you	-1427
isk	-1428
▁გ	-1429
уу	-1430
ono	-1431
ەو	-1432
▁chu	-1433
ament	-1434
▁amin	-1435
ಂದ	-1436
▁об	-1437
▁സ	-1438
ાર	-1439
ात	-1440
han	-1441
▁τη	-1442
اء	-1443
▁ú	-1444
ོད་	-1445
▁य	-1446
▁bol	-1447
▁لل	-1448
▁gen	-1449
▁Na	-1450
▁ц	-1451
▁во	-1452
িক	-1453
ando	-1454
▁kas	-1455
ft	-1456
▁Tr	-1457
▁জ	-1458
▁చ	-1459
▁’	-1460
ਾਰ	-1461
▁נ	-1462
zen	-1463
rav	-1464
▁ਮ	-1465
ही	-1466
ाल	-1467
▁մ	-1468
▁ਤ	-1469
▁eta	-1470
oro	-1471
ija	-1472
از	-1473
ια	-1474
▁/	-1475
▁bat	-1476
ым	-1477
▁ද	-1478
क्	-1479
sta	-1480
▁Le	-1481
▁غ	-1482
▁ਅ	-1483
ამ	-1484
▁fil	-1485
▁nie	-1486
▁میں	-1487
▁jo	-1488
ரு	-1489
atan	-1490
ја	-1491
▁mil	-1492
ác	-1493
ej	-1494
pi	-1495
تر	-1496
ந்த	-1497
ông	-1498
▁dia	-1499
ks	-1500
مل	-1501
▁los	-1502
ede	-1503
ary	-1504
▁ಅ	-1505
▁ס	-1506
हे	-1507
iro	-1508
▁reg	-1509
פּ	-1510
ութ	-1511
లో	-1512
▁пра	-1513
ني	-1514
ге	-1515
anya	-1516
▁au	-1517
ose	-1518
▁में	-1519
יר	-1520
enz	-1521
ала	-1522
▁वि	-1523
ەی	-1524
▁kal	-1525
▁ни	-1526
▁ե	-1527
ум	-1528
▁sz	-1529
▁gu	-1530
▁હ	-1531
үр	-1532
ছে	-1533
▁meng	-1534
การ	-1535
▁हो	-1536
▁Is	-1537
▁dir	-1538
து	-1539
وب	-1540
ની	-1541
po	-1542
ді	-1543
▁به	-1544
▁ann	-1545
▁ou	-1546
য়ে	-1547
▁dar	-1548
▁бу	-1549
ပါ	-1550
▁und	-1551
स्	-1552
ww	-1553
▁dem	-1554
▁ji	-1555
▁tha	-1556
▁her	-1557
▁hav	-1558
▁El	-1559
▁ва	-1560
▁kaj	-1561
ەم	-1562
اش	-1563
▁with	-1564
▁là	-1565
át	-1566
eza	-1567
▁Г	-1568
mas	-1569
▁න	-1570
irt	-1571
ப்ப	-1572
эг	-1573
gu	-1574
▁дар	-1575
რო	-1576
▁је	-1577
رت	-1578
▁nt	-1579
▁kl	-1580
éi	-1581
യി	-1582
eny	-1583
▁ಹ	-1584
эр	-1585
τα	-1586
اف	-1587
▁ته	-1588
ជា	-1589
▁ü	-1590
andi	-1591
▁id	-1592
▁that	-1593
▁צו	-1594
▁को	-1595
ban	-1596
▁në	-1597
▁മ	-1598
ությ	-1599
ир	-1600
har	-1601
amo	-1602
den	-1603
▁lu	-1604
াল	-1605
ಾಗ	-1606
▁awọn	-1607
ije	-1608
aman	-1609
က္	-1610
дә	-1611
▁dit	-1612
▁hu	-1613
ча	-1614
au	-1615
▁де	-1616
▁און	-1617
▁—	-1618
akh	-1619
yt	-1620
chi	-1621
▁મ	-1622
▁all	-1623
ige	-1624
engan	-1625
aro	-1626
▁ന	-1627
ىنى	-1628
▁അ	-1629
سى	-1630
uthi	-1631
لی	-1632
ྱི་	-1633
ರು	-1634
ું	-1635
ца	-1636
ລະ	-1637
ီး	-1638
▁ந	-1639
ில்	-1640
ante	-1641
▁pou	-1642
que	-1643
▁fo	-1644
zo	-1645
▁are	-1646
gr	-1647
▁ମ	-1648
▁الس	-1649
år	-1650
▁ר	-1651
▁pot	-1652
▁پر	-1653
▁và	-1654
▁dhe	-1655
▁ಪ	-1656
oka	-1657
els	-1658
▁бар	-1659
▁kuti	-1660
ex	-1661
ikan	-1662
fi	-1663
▁sek	-1664
▁جو	-1665
AN	-1666
▁bes	-1667
ydd	-1668
▁বি	-1669
uth	-1670
▁str	-1671
ನ್ನ	-1672
▁fe	-1673
eld	-1674
▁fin	-1675
▁και	-1676
чи	-1677
ທີ່	-1678
್ರ	-1679
▁са	-1680
▁бо	-1681
້າ	-1682
▁ہے	-1683
▁fir	-1684
▁ਇ	-1685
بي	-1686
anc	-1687
▁mah	-1688
ors	-1689
urs	-1690
ամ	-1691
្ត	-1692
▁छ	-1693
▁nke	-1694
лу	-1695
ға	-1696
ட்ட	-1697
▁din	-1698
▁att	-1699
ду	-1700
үн	-1701
ํา	-1702
▁կ	-1703
ати	-1704
йн	-1705
▁ар	-1706
osi	-1707
یا	-1708
tar	-1709
مي	-1710
ול	-1711
ვე	-1712
▁વ	-1713
tuk	-1714
би	-1715
ತ್ತ	-1716
ကို	-1717
▁ተ	-1718
▁इ	-1719
אַר	-1720
gen	-1721
iso	-1722
▁Х	-1723
ilo	-1724
قة	-1725
cr	-1726
ប្រ	-1727
ուն	-1728
▁δ	-1729
тер	-1730
hat	-1731
కు	-1732
▁anu	-1733
▁tan	-1734
িত	-1735
▁rec	-1736
▁wat	-1737
بر	-1738
▁ib	-1739
wan	-1740
▁val	-1741
▁مو	-1742
ome	-1743
nu	-1744
▁kap	-1745
ær	-1746
ការ	-1747
عد	-1748
kl	-1749
▁но	-1750
▁ર	-1751
uv	-1752
алы	-1753
▁З	-1754
ори	-1755
▁ме	-1756
ент	-1757
یک	-1758
▁पर	-1759
▁ಬ	-1760
ינ	-1761
▁й	-1762
aye	-1763
▁mb	-1764
▁sel	-1765
▁sl	-1766
▁ў	-1767
udi	-1768
▁uz	-1769
jen	-1770
▁গ	-1771
iku	-1772
onn	-1773
arr	-1774
▁nas	-1775
্ব	-1776
ss	-1777
си	-1778
▁ки	-1779
ці	-1780
▁vir	-1781
▁ਦੇ	-1782
anta	-1783
িন	-1784
inu	-1785
من	-1786
▁ana	-1787
alar	-1788
▁الف	-1789
▁চ	-1790
ги	-1791
്പ	-1792
▁اور	-1793
▁য	-1794
▁של	-1795
ുന്ന	-1796
ଙ୍	-1797
cial	-1798
ick	-1799
▁ма	-1800
pp	-1801
▁ona	-1802
▁త	-1803
▁eng	-1804
୍ୟ	-1805
▁ce	-1806
ole	-1807
▁sig	-1808
้า	-1809
ां	-1810
ັດ	-1811
ке	-1812
▁aut	-1813
fe	-1814
▁tar	-1815
▁сп	-1816
▁ט	-1817
▁pres	-1818
nos	-1819
эл	-1820
akt	-1821
το	-1822
རྒ	-1823
▁کې	-1824
▁ይ	-1825
ρο	-1826
▁ia	-1827
mu	-1828
▁কৰ	-1829
▁لە	-1830
▁fl	-1831
▁nem	-1832
اح	-1833
▁су	-1834
att	-1835
▁een	-1836
པ་	-1837
land	-1838
edd	-1839
amu	-1840
▁whak	-1841
লা	-1842
hr	-1843
xa	-1844
▁کو	-1845
сп	-1846
▁פון	-1847
ute	-1848
▁yon	-1849
let	-1850
▁से	-1851
▁শ	-1852
▁koj	-1853
▁બ	-1854
▁ख	-1855
▁কর	-1856
ры	-1857
লে	-1858
lı	-1859
ийн	-1860
ିବ	-1861
alit	-1862
iny	-1863
▁कि	-1864
eme	-1865
oli	-1866
▁ਲ	-1867
се	-1868
▁ም	-1869
ло	-1870
ໍາ	-1871
unga	-1872
▁mes	-1873
▁እን	-1874
ars	-1875
▁sup	-1876
.”	-1877
ғы	-1878
رف	-1879
ған	-1880
▁seg	-1881
▁ብ	-1882
▁cha	-1883
net	-1884
лек	-1885
▁ә	-1886
▁की	-1887
▁چې	-1888
او	-1889
▁Am	-1890
са	-1891
▁Es	-1892
gy	-1893
obl	-1894
్య	-1895
ങ്	-1896
▁أن	-1897
▁ਬ	-1898
لم	-1899
аль	-1900
▁sta	-1901
ಗಳ	-1902
وں	-1903
par	-1904
vel	-1905
▁për	-1906
ту	-1907
रा	-1908
né	-1909
▁és	-1910
ën	-1911
ատ	-1912
▁Sa	-1913
тар	-1914
▁الج	-1915
ಿಸ	-1916
ച്	-1917
ect	-1918
▁ub	-1919
uq	-1920
བྱ	-1921
▁dag	-1922
▁col	-1923
tim	-1924
▁kang	-1925
▁can	-1926
ың	-1927
▁ви	-1928
▁kum	-1929
▁۾	-1930
aren	-1931
әт	-1932
ës	-1933
▁pu	-1934
▁mag	-1935
ര്	-1936
ben	-1937
▁ත	-1938
▁мен	-1939
do	-1940
▁ਵਿ	-1941
kin	-1942
▁bet	-1943
▁tid	-1944
ერ	-1945
يد	-1946
ras	-1947
omb	-1948
alan	-1949
gh	-1950
али	-1951
▁ነ	-1952
▁kor	-1953
▁son	-1954
▁pat	-1955
▁tek	-1956
ರ್	-1957
رك	-1958
▁ata	-1959
▁ҡ	-1960
▁nos	-1961
▁kul	-1962
غان	-1963
▁any	-1964
▁کي	-1965
ستان	-1966
ego	-1967
▁amb	-1968
tra	-1969
гә	-1970
▁या	-1971
്ര	-1972
les	-1973
ii	-1974
▁vol	-1975
”.	-1976
ပြ	-1977
rit	-1978
▁tot	-1979
▁dengan	-1980
iji	-1981
རྒྱ	-1982
▁ini	-1983
री	-1984
▁ev	-1985
nya	-1986
▁မ	-1987
atur	-1988
▁бер	-1989
▁ist	-1990
сы	-1991
▁ਹੈ	-1992
تي	-1993
▁எ	-1994
wh	-1995
▁bel	-1996
▁કર	-1997
ིན་	-1998
▁għ	-1999
▁có	-2000
▁vis	-2001
rụ	-2002
▁Com	-2003
las	-2004
ger	-2005
ген	-2006
ىلى	-2007
ker	-2008
esa	-2009
▁ze	-2010
▁kuk	-2011
▁ҳ	-2012
▁bụ	-2013
ಕ್	-2014
▁р	-2015
▁hal	-2016
ky	-2017
དང་	-2018
▁හ	-2019
▁pri	-2020
esta	-2021
די	-2022
▁mit	-2023
ahan	-2024
usa	-2025
dy	-2026
▁גע	-2027
τε	-2028
ली	-2029
enta	-2030
ను	-2031
▁hel	-2032
▁nag	-2033
ід	-2034
ava	-2035
ros	-2036
▁fun	-2037
▁las	-2038
▁Se	-2039
గా	-2040
াত	-2041
ут	-2042
हा	-2043
red	-2044
гы	-2045
وس	-2046
ों	-2047
ره	-2048
حم	-2049
▁prog	-2050
▁Par	-2051
▁kut	-2052
▁һәм	-2053
anu	-2054
orm	-2055
ດ້	-2056
τη	-2057
ంచ	-2058
ას	-2059
▁ଏ	-2060
ັບ	-2061
▁۽	-2062
▁chi	-2063
▁бул	-2064
▁în	-2065
oda	-2066
▁το	-2067
str	-2068
▁mus	-2069
стан	-2070
אַנ	-2071
ве	-2072
▁tre	-2073
πο	-2074
org	-2075
ct	-2076
▁Re	-2077
ía	-2078
▁...	-2079
▁untuk	-2080
ста	-2081
ət	-2082
▁lok	-2083
бо	-2084
▁ро	-2085
াক	-2086
աս	-2087
▁ٿ	-2088
▁بە	-2089
ande	-2090
ρα	-2091
ায়	-2092
▁ለ	-2093
▁tel	-2094
ба	-2095
ps	-2096
▁ди	-2097
var	-2098
هو	-2099
ଙ୍କ	-2100
▁του	-2101
క్	-2102
▁was	-2103
esti	-2104
▁pan	-2105
че	-2106
▁Sh	-2107
▁दि	-2108
ىز	-2109
▁ແ	-2110
▁रा	-2111
ван	-2112
▁comp	-2113
▁mw	-2114
▁سے	-2115
ulo	-2116
ove	-2117
▁Ka	-2118
ings	-2119
▁सं	-2120
ld	-2121
ับ	-2122
ด้	-2123
ари	-2124
▁sol	-2125
म्	-2126
uy	-2127
▁ro	-2128
isti	-2129
▁آهي	-2130
lər	-2131
▁ח	-2132
န္	-2133
ild	-2134
న్న	-2135
יל	-2136
ల్	-2137
ัน	-2138
يت	-2139
ım	-2140
▁mem	-2141
▁الش	-2142
uli	-2143
▁אין	-2144
ket	-2145
uu	-2146
ườ	-2147
▁kad	-2148
▁cho	-2149
за	-2150
▁ig	-2151
▁ዝ	-2152
ۇر	-2153
▁tag	-2154
ico	-2155
ੂੰ	-2156
▁פּ	-2157
▁your	-2158
ట్	-2159
▁So	-2160
ento	-2161
▁Ad	-2162
▁jed	-2163
het	-2164
नी	-2165
▁rep	-2166
▁သ	-2167
▁tse	-2168
▁my	-2169
▁เ	-2170
ਾਲ	-2171
ىر	-2172
ତି	-2173
್ಯ	-2174
▁המ	-2175
ille	-2176
ಗೆ	-2177
amba	-2178
▁फ	-2179
▁gj	-2180
ín	-2181
uni	-2182
▁gy	-2183
ໃນ	-2184
▁ග	-2185
▁Di	-2186
▁sur	-2187
уш	-2188
ste	-2189
ಲ್ಲಿ	-2190
াই	-2191
▁mon	-2192
اری	-2193
ме	-2194
▁الق	-2195
▁го	-2196
▁ເ	-2197
▁oo	-2198
▁sen	-2199
ei	-2200
leg	-2201
amin	-2202
osa	-2203
jon	-2204
اه	-2205
▁ei	-2206
▁bisa	-2207
anje	-2208
keun	-2209
نی	-2210
▁mot	-2211
”,	-2212
ới	-2213
ਿਆ	-2214
▁উ	-2215
▁تو	-2216
▁ker	-2217
ých	-2218
▁prof	-2219
fu	-2220
ít	-2221
imb	-2222
▁pal	-2223
ләр	-2224
▁ị	-2225
മാ	-2226
▁dị	-2227
ത്തി	-2228
▁ass	-2229
imp	-2230
▁ವ	-2231
▁کر	-2232
▁လ	-2233
ਤੇ	-2234
ོན་	-2235
өл	-2236
omo	-2237
▁स्	-2238
▁mp	-2239
ið	-2240
ken	-2241
▁ନ	-2242
▁cy	-2243
ەك	-2244
▁бел	-2245
াম	-2246
ைய	-2247
าม	-2248
تی	-2249
על	-2250
าก	-2251
wer	-2252
lad	-2253
ски	-2254
▁नि	-2255
▁ਰ	-2256
дар	-2257
▁တ	-2258
▁ul	-2259
▁meg	-2260
စ်	-2261
្ល	-2262
ân	-2263
▁prop	-2264
ေတ	-2265
▁କର	-2266
ова	-2267
▁کہ	-2268
ங்க	-2269
ór	-2270
့်	-2271
ikeun	-2272
ól	-2273
್ದ	-2274
າມ	-2275
ती	-2276
▁cons	-2277
ony	-2278
▁seb	-2279
сто	-2280
اج	-2281
ork	-2282
སྐ	-2283
ად	-2284
ປະ	-2285
▁gal	-2286
▁බ	-2287
▁við	-2288
erv	-2289
ავ	-2290
μα	-2291
lam	-2292
ավ	-2293
▁ने	-2294
یل	-2295
anan	-2296
iva	-2297
▁ком	-2298
ượ	-2299
▁ھ	-2300
uku	-2301
ция	-2302
▁part	-2303
ám	-2304
▁раз	-2305
ته	-2306
eto	-2307
une	-2308
▁аз	-2309
יין	-2310
ull	-2311
għ	-2312
▁Ab	-2313
▁kub	-2314
ាំ	-2315
បាន	-2316
্ট	-2317
▁kö	-2318
▁ወ	-2319
แล	-2320
ယ်	-2321
▁Det	-2322
kt	-2323
ER	-2324
idi	-2325
дан	-2326
ति	-2327
ذا	-2328
wu	-2329
ҳои	-2330
....	-2331
ומ	-2332
alah	-2333
▁عن	-2334
וב	-2335
सा	-2336
▁ଦ	-2337
▁ర	-2338
▁შ	-2339
▁sab	-2340
▁ot	-2341
oba	-2342
ුව	-2343
ണ്	-2344
▁củ	-2345
ual	-2346
use	-2347
▁organ	-2348
istr	-2349
▁nam	-2350
ик	-2351
င္း	-2352
dir	-2353
તા	-2354
▁Te	-2355
či	-2356
ль	-2357
api	-2358
ores	-2359
aku	-2360
ất	-2361
▁sc	-2362
ള്	-2363
▁của	-2364
emo	-2365
ner	-2366
alt	-2367
ubl	-2368
eda	-2369
▁ri	-2370
▁han	-2371
্ষ	-2372
▁איז	-2373
mat	-2374
ئي	-2375
ég	-2376
ран	-2377
च्या	-2378
ση	-2379
▁Gr	-2380
ės	-2381
يم	-2382
▁ଆ	-2383
▁ef	-2384
▁lat	-2385
▁ଅ	-2386
sen	-2387
гу	-2388
ње	-2389
രി	-2390
до	-2391
▁ụ	-2392
റ്	-2393
▁එ	-2394
elt	-2395
▁दे	-2396
סט	-2397
met	-2398
iau	-2399
гі	-2400
▁ভ	-2401
বে	-2402
ione	-2403
ენ	-2404
ши	-2405
่อ	-2406
ize	-2407
▁nov	-2408
izi	-2409
amh	-2410
▁has	-2411
ାଇ	-2412
son	-2413
ते	-2414
ական	-2415
▁ਦੀ	-2416
ый	-2417
▁dos	-2418
▁not	-2419
ск	-2420
າຍ	-2421
▁الن	-2422
دم	-2423
▁ati	-2424
▁ο	-2425
ର୍	-2426
ule	-2427
ေး	-2428
мо	-2429
क्ष	-2430
ში	-2431
יט	-2432
▁ន	-2433
ето	-2434
اري	-2435
▁სა	-2436
▁non	-2437
ων	-2438
▁الب	-2439
▁את	-2440
▁کا	-2441
່ງ	-2442
▁Er	-2443
ल्	-2444
▁sareng	-2445
inde	-2446
ིས་	-2447
▁No	-2448
emi	-2449
▁lang	-2450
▁Ng	-2451
oja	-2452
▁وت	-2453
ία	-2454
▁دا	-2455
්ර	-2456
▁એ	-2457
▁sit	-2458
وق	-2459
ев	-2460
ನ್ನು	-2461
ຂອງ	-2462
▁ṣ	-2463
ojn	-2464
ını	-2465
▁tab	-2466
න්න	-2467
▁dig	-2468
".	-2469
▁ስ	-2470
ട്ട	-2471
▁kol	-2472
וד	-2473
▁leh	-2474
▁ant	-2475
fic	-2476
▁atu	-2477
▁مش	-2478
▁temp	-2479
ത്ത	-2480
▁He	-2481
▁Ш	-2482
▁tsa	-2483
ਸ਼	-2484
▁mea	-2485
▁ao	-2486
▁Ko	-2487
▁кар	-2488
▁iyo	-2489
▁му	-2490
▁mun	-2491
▁god	-2492
້ນ	-2493
▁لا	-2494
▁ਉ	-2495
uro	-2496
▁memb	-2497
▁ten	-2498
▁pop	-2499
তি	-2500
ంది	-2501
▁net	-2502
ald	-2503
▁તે	-2504
line	-2505
iga	-2506
jar	-2507
ങ്ങ	-2508
▁פֿ	-2509
▁Per	-2510
دی	-2511
ят	-2512
ર્	-2513
cia	-2514
▁sum	-2515
പ്പ	-2516
▁för	-2517
لك	-2518
▁inc	-2519
kar	-2520
▁cl	-2521
idad	-2522
сь	-2523
ुर	-2524
▁As	-2525
▁ama	-2526
ebo	-2527
▁sm	-2528
èt	-2529
സ്	-2530
oki	-2531
▁ହ	-2532
ယ္	-2533
yan	-2534
▁car	-2535
▁kir	-2536
▁सा	-2537
ම්	-2538
دە	-2539
دة	-2540
سي	-2541
AR	-2542
▁आहे	-2543
▁vy	-2544
wr	-2545
ix	-2546
▁lab	-2547
▁γ	-2548
▁į	-2549
үй	-2550
ིག་	-2551
▁си	-2552
▁hat	-2553
ໄດ້	-2554
әк	-2555
len	-2556
▁mis	-2557
antu	-2558
ారు	-2559
ོང་	-2560
▁ор	-2561
▁To	-2562
mə	-2563
ეს	-2564
ති	-2565
yg	-2566
कार	-2567
▁[	-2568
▁pam	-2569
▁aan	-2570
▁દ	-2571
▁pen	-2572
▁və	-2573
دار	-2574
են	-2575
യാ	-2576
ده	-2577
enza	-2578
ུང་	-2579
▁Or	-2580
▁الك	-2581
iste	-2582
чы	-2583
ott	-2584
мі	-2585
eu	-2586
kr	-2587
ại	-2588
fo	-2589
हि	-2590
▁ክ	-2591
▁Vi	-2592
▁sou	-2593
ight	-2594
▁ਗ	-2595
van	-2596
▁ת	-2597
▁Sp	-2598
ís	-2599
▁ਕਿ	-2600
▁ն	-2601
onom	-2602
ლო	-2603
▁લ	-2604
اک	-2605
▁mel	-2606
ინ	-2607
▁ਨੂੰ	-2608
▁como	-2609
ыш	-2610
তে	-2611
uti	-2612
▁എ	-2613
lə	-2614
mar	-2615
алар	-2616
▁kanggo	-2617
oje	-2618
▁kel	-2619
وت	-2620
▁så	-2621
ିଲ	-2622
▁kab	-2623
రి	-2624
erg	-2625
▁vers	-2626
▁Ang	-2627
ສະ	-2628
ಿಯ	-2629
še	-2630
lah	-2631
ურ	-2632
▁те	-2633
▁mang	-2634
ாக	-2635
▁pra	-2636
▁να	-2637
ระ	-2638
ាក	-2639
တ်	-2640
tig	-2641
ម្	-2642
ну	-2643
ကြ	-2644
▁inn	-2645
zt	-2646
br	-2647
مان	-2648
▁নি	-2649
▁&	-2650
chen	-2651
▁Е	-2652
ux	-2653
aa	-2654
anj	-2655
ــ	-2656
▁ල	-2657
▁kam	-2658
န်	-2659
▁ngok	-2660
▁tin	-2661
▁ай	-2662
त्र	-2663
ний	-2664
صل	-2665
ukan	-2666
▁aj	-2667
▁نه	-2668
▁ci	-2669
pu	-2670
ül	-2671
▁थ	-2672
▁баш	-2673
ivers	-2674
ido	-2675
vu	-2676
▁inv	-2677
▁př	-2678
inin	-2679
▁Ta	-2680
ator	-2681
▁Ba	-2682
▁ка	-2683
▁pre	-2684
ció	-2685
bl	-2686
▁ન	-2687
▁pun	-2688
▁nav	-2689
ىم	-2690
िय	-2691
elle	-2692
▁bas	-2693
▁ਕਰ	-2694
ได้	-2695
▁dik	-2696
తు	-2697
erd	-2698
nik	-2699
enda	-2700
ша	-2701
anna	-2702
old	-2703
war	-2704
",	-2705
ās	-2706
ন্	-2707
▁proc	-2708
!!	-2709
▁far	-2710
▁Br	-2711
▁ေ	-2712
عة	-2713
als	-2714
▁naj	-2715
ше	-2716
ەل	-2717
ాల	-2718
▁uye	-2719
▁घ	-2720
▁Min	-2721
▁art	-2722
ence	-2723
▁sch	-2724
▁ला	-2725
▁이	-2726
ella	-2727
▁Go	-2728
▁trans	-2729
▁ത	-2730
IN	-2731
ით	-2732
ét	-2733
وز	-2734
inta	-2735
akat	-2736
jeun	-2737
▁ప్ర	-2738
▁set	-2739
▁ده	-2740
▁person	-2741
็น	-2742
ून	-2743
ပ်	-2744
▁nok	-2745
unn	-2746
▁кү	-2747
▁má	-2748
мен	-2749
ාව	-2750
ייַ	-2751
▁nek	-2752
▁hem	-2753
▁over	-2754
وی	-2755
▁ми	-2756
قت	-2757
vis	-2758
▁বা	-2759
▁ಆ	-2760
▁ತ	-2761
ím	-2762
▁تر	-2763
eder	-2764
से	-2765
▁με	-2766
▁Pa	-2767
لار	-2768
မှ	-2769
odi	-2770
dr	-2771
्ट	-2772
▁প্র	-2773
▁web	-2774
ାନ	-2775
▁cr	-2776
▁ndị	-2777
के	-2778
▁uma	-2779
wy	-2780
▁ఆ	-2781
रे	-2782
ota	-2783
ış	-2784
▁gan	-2785
▁ಇ	-2786
unda	-2787
ents	-2788
▁אָ	-2789
ใน	-2790
▁ту	-2791
▁دە	-2792
աց	-2793
▁اف	-2794
ือ	-2795
▁ማ	-2796
▁è	-2797
lj	-2798
אָר	-2799
خت	-2800
ച്ച	-2801
▁Л	-2802
orn	-2803
▁aya	-2804
bas	-2805
ның	-2806
▁gel	-2807
စ္	-2808
▁الد	-2809
lary	-2810
ında	-2811
▁Con	-2812
▁הא	-2813
▁bal	-2814
▁Ha	-2815
▁Co	-2816
ρι	-2817
▁dz	-2818
▁raz	-2819
▁kus	-2820
کی	-2821
ular	-2822
▁Bu	-2823
▁ger	-2824
itar	-2825
တွ	-2826
oth	-2827
কে	-2828
้น	-2829
جي	-2830
▁usa	-2831
----	-2832
▁dur	-2833
▁On	-2834
ීම	-2835
▁ء	-2836
obo	-2837
▁lag	-2838
kat	-2839
થી	-2840
نت	-2841
▁san	-2842
▁мож	-2843
оли	-2844
▁mul	-2845
iba	-2846
ორ	-2847
uje	-2848
ೆಯ	-2849
▁ty	-2850
este	-2851
ლებ	-2852
nie	-2853
abo	-2854
umi	-2855
▁pred	-2856
▁thu	-2857
स्त	-2858
ithe	-2859
▁औ	-2860
པའི་	-2861
ով	-2862
aly	-2863
▁тө	-2864
رة	-2865
raf	-2866
▁zu	-2867
▁л	-2868
▁एक	-2869
lat	-2870
ให	-2871
ស់	-2872
ws	-2873
cz	-2874
гән	-2875
št	-2876
▁yak	-2877
▁dalam	-2878
▁ام	-2879
bh	-2880
уб	-2881
ிற	-2882
ည်	-2883
urop	-2884
▁па	-2885
ār	-2886
ಿದ್ದ	-2887
ដែ	-2888
osh	-2889
kom	-2890
ହି	-2891
сі	-2892
▁શ	-2893
▁don	-2894
och	-2895
▁ад	-2896
тә	-2897
▁seo	-2898
enga	-2899
ві	-2900
цы	-2901
itra	-2902
eks	-2903
она	-2904
ົນ	-2905
mun	-2906
▁ა	-2907
▁fac	-2908
ෙන	-2909
por	-2910
ipo	-2911
▁tik	-2912
िए	-2913
▁maf	-2914
चा	-2915
เป	-2916
ස්	-2917
ၼ်	-2918
ugu	-2919
าย	-2920
▁hab	-2921
▁word	-2922
មាន	-2923
uko	-2924
ություն	-2925
val	-2926
dz	-2927
ital	-2928
▁ав	-2929
بل	-2930
هه	-2931
ados	-2932
oy	-2933
ុង	-2934
▁sus	-2935
▁гэ	-2936
шы	-2937
▁int	-2938
▁das	-2939
سی	-2940
adan	-2941
EN	-2942
ണ്ട	-2943
▁sak	-2944
ува	-2945
tur	-2946
▁fam	-2947
▁ua	-2948
ional	-2949
▁Die	-2950
▁probl	-2951
▁pak	-2952
▁Ind	-2953
adz	-2954
▁sist	-2955
িল	-2956
cij	-2957
▁الخ	-2958
ប់	-2959
led	-2960
▁אוי	-2961
▁cont	-2962
▁It	-2963
▁produk	-2964
bar	-2965
جم	-2966
▁bon	-2967
قى	-2968
▁Li	-2969
▁έ	-2970
▁ور	-2971
pos	-2972
نىڭ	-2973
འད	-2974
డు	-2975
**	-2976
▁Be	-2977
▁ର	-2978
য়া	-2979
forma	-2980
▁Il	-2981
ੋਂ	-2982
่ง	-2983
ret	-2984
AT	-2985
uss	-2986
▁што	-2987
▁კ	-2988
▁Э	-2989
אַל	-2990
▁cor	-2991
▁mü	-2992
inda	-2993
▁ю	-2994
▁ա	-2995
າດ	-2996
ዎች	-2997
▁ihe	-2998
ður	-2999
▁અને	-3000
▁ಎ	-3001
▁সম	-3002
▁dina	-3003
ནས་	-3004
ть	-3005
▁ን	-3006
že	-3007
▁post	-3008
▁dec	-3009
▁bez	-3010
ір	-3011
ರಿ	-3012
▁تي	-3013
jn	-3014
▁cas	-3015
òr	-3016
atra	-3017
ode	-3018
▁ach	-3019
ቸው	-3020
▁לה	-3021
▁ham	-3022
apat	-3023
//	-3024
لو	-3025
नि	-3026
▁ili	-3027
▁this	-3028
עס	-3029
▁است	-3030
▁տ	-3031
jer	-3032
דער	-3033
▁تع	-3034
ོགས་	-3035
ren	-3036
ಸ್	-3037
▁있	-3038
قي	-3039
san	-3040
▁बा	-3041
▁ڕ	-3042
ột	-3043
▁እና	-3044
▁have	-3045
▁parti	-3046
▁મા	-3047
ider	-3048
▁ale	-3049
uar	-3050
▁And	-3051
ည္	-3052
▁ያ	-3053
ින්	-3054
äl	-3055
ativ	-3056
ити	-3057
▁bab	-3058
▁vil	-3059
▁inform	-3060
▁Da	-3061
ына	-3062
▁nak	-3063
▁nou	-3064
ໍ່	-3065
▁mm	-3066
▁nk	-3067
्व	-3068
▁kita	-3069
▁from	-3070
νο	-3071
اپ	-3072
ém	-3073
▁will	-3074
▁Ф	-3075
joni	-3076
ன்ற	-3077
ර්	-3078
ining	-3079
্থ	-3080
في	-3081
▁leg	-3082
ели	-3083
ିବା	-3084
▁న	-3085
▁ল	-3086
ção	-3087
ող	-3088
ска	-3089
▁דער	-3090
▁кө	-3091
ོས་	-3092
▁ذ	-3093
jet	-3094
่น	-3095
▁samp	-3096
ign	-3097
▁är	-3098
ango	-3099
asyon	-3100
تم	-3101
▁ਆ	-3102
ེད་	-3103
ови	-3104
▁Az	-3105
aliz	-3106
әй	-3107
▁প্ৰ	-3108
టి	-3109
▁نے	-3110
▁ရ	-3111
दा	-3112
ັງ	-3113
ược	-3114
▁Kr	-3115
amente	-3116
▁out	-3117
▁الإ	-3118
ངས་	-3119
με	-3120
лан	-3121
נו	-3122
▁program	-3123
มี	-3124
▁had	-3125
▁और	-3126
▁vel	-3127
▁Pol	-3128
▁র	-3129
ື່	-3130
anja	-3131
▁مح	-3132
କୁ	-3133
▁кон	-3134
▁neg	-3135
алі	-3136
ình	-3137
▁lit	-3138
ית	-3139
سم	-3140
سلسل	-3141
▁bah	-3142
ots	-3143
اني	-3144
▁ച	-3145
▁pla	-3146
él	-3147
гра	-3148
ਾਨ	-3149
▁اي	-3150
cu	-3151
hal	-3152
▁tele	-3153
עט	-3154
▁itu	-3155
יק	-3156
▁որ	-3157
ude	-3158
▁tidak	-3159
▁kes	-3160
asta	-3161
чен	-3162
▁ó	-3163
▁Bar	-3164
گە	-3165
▁Inter	-3166
të	-3167
▁ee	-3168
anti	-3169
টি	-3170
▁вы	-3171
əs	-3172
دو	-3173
▁щ	-3174
▁iki	-3175
كى	-3176
▁الله	-3177
▁علي	-3178
▁بن	-3179
став	-3180
://	-3181
▁ኣብ	-3182
▁uch	-3183
니다	-3184
▁inst	-3185
▁වි	-3186
▁உ	-3187
ंग	-3188
able	-3189
▁Sch	-3190
▁ти	-3191
ери	-3192
และ	-3193
▁red	-3194
▁он	-3195
▁Ho	-3196
ең	-3197
▁war	-3198
ます	-3199
▁ഇ	-3200
ിയ	-3201
▁Im	-3202
▁wo	-3203
াজ	-3204
ുക	-3205
▁وي	-3206
ovi	-3207
یش	-3208
▁mana	-3209
onu	-3210
▁ara	-3211
ết	-3212
▁kana	-3213
▁sé	-3214
▁պ	-3215
ön	-3216
▁जा	-3217
གྲ	-3218
endo	-3219
ель	-3220
▁под	-3221
▁Me	-3222
ams	-3223
▁may	-3224
িব	-3225
▁iş	-3226
ến	-3227
ອນ	-3228
▁spe	-3229
esh	-3230
achd	-3231
уп	-3232
▁Uk	-3233
▁ווי	-3234
oti	-3235
בר	-3236
ON	-3237
ely	-3238
▁ud	-3239
oga	-3240
▁कार	-3241
▁Pro	-3242
്യ	-3243
▁ora	-3244
▁ఇ	-3245
▁dom	-3246
pen	-3247
▁tem	-3248
ेश	-3249
▁mom	-3250
▁так	-3251
▁sub	-3252
anto	-3253
qa	-3254
డి	-3255
▁ट	-3256
ໃຫ	-3257
ling	-3258
asan	-3259
▁ሰ	-3260
ši	-3261
كس	-3262
▁pel	-3263
nih	-3264
ետ	-3265
ած	-3266
▁თ	-3267
▁Ph	-3268
▁مت	-3269
asy	-3270
ств	-3271
▁Qu	-3272
ының	-3273
▁मा	-3274
vr	-3275
در	-3276
चे	-3277
эх	-3278
tif	-3279
▁tut	-3280
▁İ	-3281
▁dari	-3282
ടെ	-3283
ོག་	-3284
▁yok	-3285
кан	-3286
ži	-3287
aho	-3288
▁pikeun	-3289
ES	-3290
▁нь	-3291
▁تح	-3292
▁nw	-3293
tir	-3294
τικ	-3295
▁Fa	-3296
▁ແລະ	-3297
▁cre	-3298
မ်	-3299
▁mir	-3300
nen	-3301
ää	-3302
▁सम	-3303
▁prov	-3304
▁but	-3305
▁”	-3306
▁የሚ	-3307
▁сам	-3308
ów	-3309
će	-3310
pon	-3311
ef	-3312
ោះ	-3313
vers	-3314
▁plan	-3315
▁rel	-3316
▁პ	-3317
▁fel	-3318
▁estas	-3319
▁دی	-3320
sz	-3321
▁ali	-3322
จะ	-3323
नु	-3324
yst	-3325
▁các	-3326
iai	-3327
וק	-3328
ິດ	-3329
▁చే	-3330
AS	-3331
etr	-3332
▁Um	-3333
▁ju	-3334
▁form	-3335
▁કે	-3336
они	-3337
▁της	-3338
ེས་	-3339
▁ඇ	-3340
▁الص	-3341
▁pang	-3342
டு	-3343
ті	-3344
▁Ak	-3345
كن	-3346
ного	-3347
ມີ	-3348
▁က	-3349
ুল	-3350
▁gl	-3351
▁դ	-3352
▁vr	-3353
эд	-3354
▁peng	-3355
chd	-3356
дер	-3357
▁không	-3358
ði	-3359
אָס	-3360
àn	-3361
▁mor	-3362
ikh	-3363
▁vun	-3364
ড়	-3365
▁tat	-3366
azi	-3367
نے	-3368
▁lib	-3369
▁mill	-3370
ogle	-3371
າກ	-3372
▁kwe	-3373
yen	-3374
▁kup	-3375
зе	-3376
੍ਰ	-3377
▁dé	-3378
▁ole	-3379
рат	-3380
▁sj	-3381
▁muri	-3382
ump	-3383
▁Ж	-3384
еле	-3385
ຫຼ	-3386
umu	-3387
ום	-3388
▁được	-3389
▁anjeun	-3390
▁ض	-3391
umb	-3392
inen	-3393
לע	-3394
▁ዘ	-3395
ची	-3396
▁ગ	-3397
▁proj	-3398
èn	-3399
▁sec	-3400
▁ná	-3401
dar	-3402
▁ना	-3403
τι	-3404
erk	-3405
odo	-3406
urt	-3407
ल्या	-3408
ations	-3409
▁Man	-3410
ัง	-3411
atau	-3412
وع	-3413
▁top	-3414
ideo	-3415
ोग	-3416
сан	-3417
▁بۆ	-3418
ುವ	-3419
▁त्या	-3420
▁ය	-3421
рав	-3422
▁Tha	-3423
isha	-3424
ของ	-3425
مال	-3426
▁kok	-3427
▁ఉ	-3428
▁Mo	-3429
اا	-3430
▁kv	-3431
່ານ	-3432
ave	-3433
▁kep	-3434
▁if	-3435
ຫນ	-3436
▁ആ	-3437
eki	-3438
rez	-3439
▁කර	-3440
▁xwe	-3441
して	-3442
க்கு	-3443
▁baş	-3444
▁Si	-3445
ិង	-3446
εί	-3447
ို့	-3448
្យ	-3449
కి	-3450
ཀྱི་	-3451
▁مل	-3452
ақ	-3453
್ಟ	-3454
▁απ	-3455
ance	-3456
ວ່າ	-3457
cc	-3458
adu	-3459
бе	-3460
▁fan	-3461
▁بول	-3462
alu	-3463
▁rek	-3464
שר	-3465
eno	-3466
াস	-3467
ện	-3468
өг	-3469
лен	-3470
ھی	-3471
ете	-3472
شى	-3473
wir	-3474
ça	-3475
də	-3476
▁إلى	-3477
بار	-3478
▁At	-3479
อย	-3480
است	-3481
ிக	-3482
sl	-3483
▁ngo	-3484
ێت	-3485
▁iš	-3486
»,	-3487
ဖြ	-3488
λο	-3489
نه	-3490
ays	-3491
igi	-3492
wit	-3493
രു	-3494
▁care	-3495
ிர	-3496
abil	-3497
իր	-3498
iden	-3499
▁वा	-3500
ပါတ	-3501
▁nei	-3502
▁την	-3503
ड़	-3504
ىنىڭ	-3505
ེན་	-3506
▁cent	-3507
isan	-3508
eter	-3509
ारी	-3510
aza	-3511
עם	-3512
▁pap	-3513
یه	-3514
uto	-3515
▁polit	-3516
▁գ	-3517
ност	-3518
mail	-3519
▁gar	-3520
▁पा	-3521
שט	-3522
▁пред	-3523
▁ני	-3524
ener	-3525
ျပ	-3526
▁bhe	-3527
оль	-3528
▁dok	-3529
▁ద	-3530
▁hv	-3531
▁җ	-3532
ember	-3533
из	-3534
uld	-3535
مر	-3536
ების	-3537
වා	-3538
ezi	-3539
צי	-3540
ಿಕ	-3541
لة	-3542
شت	-3543
▁pent	-3544
▁לא	-3545
му	-3546
▁بعد	-3547
ىي	-3548
▁ĉ	-3549
▁Fran	-3550
▁κα	-3551
ıl	-3552
ịa	-3553
▁ای	-3554
ју	-3555
▁хо	-3556
ਿੰ	-3557
▁থ	-3558
▁akan	-3559
▁sed	-3560
▁ግ	-3561
ල්	-3562
▁मु	-3563
▁nep	-3564
ண்ட	-3565
ਆਂ	-3566
uman	-3567
▁pov	-3568
▁serv	-3569
zu	-3570
AL	-3571
یان	-3572
▁tam	-3573
ነት	-3574
olu	-3575
াদ	-3576
ebut	-3577
▁We	-3578
كم	-3579
iswa	-3580
onga	-3581
ცი	-3582
ogy	-3583
▁một	-3584
▁dob	-3585
ັກ	-3586
gar	-3587
ုံ	-3588
▁بر	-3589
▁Kom	-3590
▁బ	-3591
لام	-3592
▁që	-3593
▁htt	-3594
esp	-3595
▁ste	-3596
▁ئى	-3597
▁ଜ	-3598
wen	-3599
ላይ	-3600
ario	-3601
ều	-3602
ree	-3603
urn	-3604
▁ہیں	-3605
ister	-3606
pt	-3607
▁pour	-3608
يف	-3609
▁ли	-3610
▁wak	-3611
▁եւ	-3612
▁kunye	-3613
▁Dr	-3614
ม่	-3615
▁sob	-3616
▁мә	-3617
зі	-3618
yb	-3619
èl	-3620
▁բ	-3621
ách	-3622
▁kont	-3623
▁ide	-3624
▁let	-3625
ില	-3626
ีย	-3627
▁על	-3628
אר	-3629
ät	-3630
▁resp	-3631
по	-3632
ları	-3633
เล	-3634
ள்ள	-3635
▁voor	-3636
▁بو	-3637
▁ಮಾ	-3638
ίν	-3639
ылы	-3640
bil	-3641
ដែល	-3642
▁ҷ	-3643
uch	-3644
ulle	-3645
ume	-3646
nosti	-3647
اص	-3648
▁fra	-3649
▁हु	-3650
ishi	-3651
▁gö	-3652
▁ан	-3653
▁ос	-3654
ða	-3655
▁Wh	-3656
ിക്ക	-3657
ных	-3658
▁ड	-3659
bal	-3660
▁este	-3661
це	-3662
vat	-3663
inc	-3664
oi	-3665
ions	-3666
eden	-3667
ል።	-3668
▁nó	-3669
ଛି	-3670
jem	-3671
▁cel	-3672
lov	-3673
்ச	-3674
▁ό	-3675
ız	-3676
elen	-3677
དེ་	-3678
ày	-3679
ekk	-3680
▁Em	-3681
ър	-3682
ès	-3683
ობ	-3684
बा	-3685
གས	-3686
▁Ny	-3687
فر	-3688
lay	-3689
▁Я	-3690
IS	-3691
ún	-3692
reo	-3693
રા	-3694
▁ਹੋ	-3695
ئی	-3696
▁пер	-3697
орт	-3698
eren	-3699
▁inf	-3700
erm	-3701
idir	-3702
▁ତ	-3703
▁Mal	-3704
েন	-3705
гар	-3706
ەس	-3707
ski	-3708
▁Ex	-3709
imin	-3710
▁tah	-3711
▁ው	-3712
वि	-3713
imu	-3714
▁რო	-3715
▁vit	-3716
eso	-3717
▁бү	-3718
gun	-3719
▁ۋ	-3720
ាល	-3721
ват	-3722
ప్	-3723
▁end	-3724
▁pada	-3725
▁Bo	-3726
ក្រ	-3727
ago	-3728
لقة	-3729
ული	-3730
▁gör	-3731
بة	-3732
▁tí	-3733
▁For	-3734
ange	-3735
قا	-3736
ให้	-3737
ෙන්	-3738
inne	-3739
▁ও	-3740
▁тү	-3741
ார	-3742
ว่า	-3743
▁cer	-3744
gal	-3745
שי	-3746
ες	-3747
esch	-3748
हर	-3749
▁komp	-3750
▁შე	-3751
▁že	-3752
લા	-3753
ध्य	-3754
တဲ့	-3755
▁hand	-3756
ady	-3757
aks	-3758
ৰু	-3759
жи	-3760
osta	-3761
▁ਅਤੇ	-3762
▁tsy	-3763
เป็น	-3764
မျ	-3765
uts	-3766
යි	-3767
ack	-3768
▁ই	-3769
▁cap	-3770
མས་	-3771
って	-3772
OS	-3773
▁ile	-3774
▁Ա	-3775
ענען	-3776
wat	-3777
କ୍	-3778
்ற	-3779
الي	-3780
by	-3781
యి	-3782
▁سان	-3783
ంత	-3784
င့်	-3785
▁ပ	-3786
ūs	-3787
اخ	-3788
בן	-3789
enye	-3790
ිර	-3791
itsa	-3792
gai	-3793
▁mol	-3794
enei	-3795
وج	-3796
្ស	-3797
."	-3798
▁ರ	-3799
▁inte	-3800
पा	-3801
េះ	-3802
alis	-3803
▁aus	-3804
nolog	-3805
ék	-3806
▁bag	-3807
ོར་	-3808
ின்	-3809
▁як	-3810
▁till	-3811
inan	-3812
ně	-3813
ण्या	-3814
omwe	-3815
kur	-3816
шт	-3817
ੱਚ	-3818
▁Š	-3819
▁dei	-3820
ười	-3821
nes	-3822
ంట	-3823
وان	-3824
▁nom	-3825
ປັນ	-3826
арт	-3827
▁pros	-3828
▁ih	-3829
▁سي	-3830
▁må	-3831
▁lati	-3832
yar	-3833
▁exp	-3834
▁ins	-3835
▁prim	-3836
chadh	-3837
су	-3838
▁dha	-3839
נט	-3840
▁New	-3841
▁maka	-3842
enk	-3843
റ്റ	-3844
inci	-3845
reg	-3846
ок	-3847
მა	-3848
ām	-3849
▁Ч	-3850
です	-3851
ற்ற	-3852
▁ৰ	-3853
ega	-3854
raz	-3855
▁eller	-3856
▁ර	-3857
த்து	-3858
าน	-3859
▁qui	-3860
▁ପ୍ର	-3861
▁пр	-3862
же	-3863
uke	-3864
▁się	-3865
ونو	-3866
ạn	-3867
▁nez	-3868
▁ikke	-3869
iran	-3870
▁era	-3871
▁trong	-3872
▁*	-3873
كل	-3874
esu	-3875
ופ	-3876
คว	-3877
▁వి	-3878
▁ved	-3879
▁فى	-3880
lav	-3881
▁lap	-3882
oft	-3883
▁meny	-3884
▁пол	-3885
့္	-3886
▁gw	-3887
▁dil	-3888
वर	-3889
ពី	-3890
कर	-3891
iche	-3892
▁Car	-3893
្វ	-3894
ាយ	-3895
▁wi	-3896
āk	-3897
аг	-3898
ји	-3899
▁الر	-3900
▁alt	-3901
▁pad	-3902
esto	-3903
ян	-3904
ững	-3905
мат	-3906
emu	-3907
ovan	-3908
▁fyr	-3909
▁მო	-3910
▁оп	-3911
▁•	-3912
▁ና	-3913
iver	-3914
ိုင်	-3915
alla	-3916
ού	-3917
્ટ	-3918
ident	-3919
▁ket	-3920
ээр	-3921
▁wan	-3922
त्	-3923
▁një	-3924
เร	-3925
▁کړ	-3926
agan	-3927
لب	-3928
▁bw	-3929
ིང་	-3930
idd	-3931
सी	-3932
▁?	-3933
မွ	-3934
chito	-3935
▁hy	-3936
▁Amer	-3937
amat	-3938
▁dep	-3939
▁tom	-3940
өө	-3941
गा	-3942
хи	-3943
▁мо	-3944
▁Ja	-3945
▁ukuba	-3946
▁ი	-3947
▁tet	-3948
▁rad	-3949
▁дә	-3950
اره	-3951
▁hor	-3952
્યા	-3953
▁ат	-3954
ུལ་	-3955
▁পৰ	-3956
▁गर्	-3957
yê	-3958
▁bay	-3959
တ္	-3960
▁Je	-3961
▁kons	-3962
した	-3963
▁už	-3964
كت	-3965
▁Қ	-3966
аст	-3967
▁څ	-3968
▁leb	-3969
▁dol	-3970
▁sil	-3971
נג	-3972
▁Kar	-3973
ів	-3974
ësh	-3975
ەوە	-3976
▁Đ	-3977
▁tl	-3978
▁bakal	-3979
ագ	-3980
ument	-3981
ID	-3982
ುತ್ತ	-3983
эм	-3984
ants	-3985
था	-3986
ਤੀ	-3987
▁bur	-3988
གི་	-3989
▁ஆ	-3990
ally	-3991
ден	-3992
ğı	-3993
▁Ni	-3994
òn	-3995
▁စ	-3996
leri	-3997
ап	-3998
▁saka	-3999
▁lik	-4000
▁പ്ര	-4001
ალ	-4002
▁ଯ	-4003
▁với	-4004
▁جن	-4005
▁Men	-4006
▁als	-4007
▁খ	-4008
▁ett	-4009
▁ث	-4010
▁..	-4011
ük	-4012
▁ఎ	-4013
▁وأ	-4014
▁مسلسل	-4015
▁Po	-4016
▁von	-4017
itan	-4018
äm	-4019
ება	-4020
▁iy	-4021
▁acc	-4022
ների	-4023
▁مس	-4024
▁сво	-4025
▁эш	-4026
ন্ত	-4027
lin	-4028
▁imp	-4029
idade	-4030
द्	-4031
ales	-4032
eyan	-4033
▁pir	-4034
▁đi	-4035
▁nach	-4036
ера	-4037
hau	-4038
angi	-4039
▁ż	-4040
nt	-4041
▁ike	-4042
▁she	-4043
▁ben	-4044
ums	-4045
ого	-4046
atr	-4047
ungan	-4048
མི་	-4049
▁ré	-4050
áil	-4051
ната	-4052
ئے	-4053
▁ଭ	-4054
ক্ষ	-4055
uan	-4056
الى	-4057
bat	-4058
คร	-4059
▁مر	-4060
▁futhi	-4061
unk	-4062
▁Ә	-4063
ikk	-4064
▁ahụ	-4065
nis	-4066
etsa	-4067
oku	-4068
ության	-4069
▁gro	-4070
nyň	-4071
བས	-4072
નો	-4073
▁Ş	-4074
ette	-4075
▁как	-4076
uran	-4077
▁tamb	-4078
ვი	-4079
مه	-4080
ຄວ	-4081
ibh	-4082
ាក់	-4083
idan	-4084
áv	-4085
▁ہو	-4086
▁წ	-4087
▁egy	-4088
▁ಪ್ರ	-4089
αν	-4090
▁tas	-4091
▁ս	-4092
etan	-4093
ēr	-4094
▁ڏ	-4095
▁ڪري	-4096
ivo	-4097
▁ina	-4098
ester	-4099
▁kug	-4100
▁nes	-4101
▁poz	-4102
లి	-4103
▁alle	-4104
రు	-4105
āt	-4106
▁tap	-4107
▁ari	-4108
تا	-4109
▁كل	-4110
త్	-4111
▁oa	-4112
▁ris	-4113
AM	-4114
եւ	-4115
üm	-4116
ical	-4117
ace	-4118
ones	-4119
izo	-4120
▁rev	-4121
▁US	-4122
idhe	-4123
▁qil	-4124
েশ	-4125
▁अस	-4126
▁oh	-4127
ေန	-4128
▁ବି	-4129
▁რ	-4130
▁Jo	-4131
ิน	-4132
lus	-4133
▁loc	-4134
▁עס	-4135
енә	-4136
▁اع	-4137
▁bor	-4138
တာ	-4139
ần	-4140
ਤਾ	-4141
zer	-4142
▁που	-4143
zjoni	-4144
adas	-4145
unu	-4146
ướ	-4147
▁entre	-4148
mes	-4149
urd	-4150
lum	-4151
ല്ല	-4152
▁mut	-4153
াপ	-4154
ών	-4155
dd	-4156
jan	-4157
▁jag	-4158
▁ел	-4159
વી	-4160
ebook	-4161
жа	-4162
▁دي	-4163
▁lak	-4164
▁gre	-4165
▁ਦਾ	-4166
▁מיט	-4167
བས་	-4168
▁online	-4169
ໃຫ້	-4170
क्त	-4171
▁ਨੇ	-4172
▁بي	-4173
▁sú	-4174
▁Su	-4175
▁для	-4176
▁اح	-4177
▁وم	-4178
▁esp	-4179
▁Fr	-4180
▁biz	-4181
ков	-4182
ogo	-4183
▁են	-4184
▁ស	-4185
▁θ	-4186
▁ак	-4187
▁ru	-4188
غا	-4189
තු	-4190
сын	-4191
ရာ	-4192
ender	-4193
▁ದ	-4194
▁არ	-4195
▁fol	-4196
▁Ser	-4197
▁bik	-4198
▁ṣe	-4199
▁უ	-4200
nost	-4201
▁Med	-4202
یت	-4203
ტი	-4204
▁vu	-4205
រប	-4206
▁iti	-4207
▁Mas	-4208
ibu	-4209
▁tá	-4210
▁kuri	-4211
ահ	-4212
्री	-4213
▁кат	-4214
▁dev	-4215
ým	-4216
alm	-4217
▁وز	-4218
ыт	-4219
▁vid	-4220
▁הי	-4221
으로	-4222
มา	-4223
מי	-4224
enci	-4225
fin	-4226
▁الذ	-4227
omat	-4228
itas	-4229
སྤ	-4230
▁هم	-4231
लाई	-4232
▁ਚ	-4233
▁beg	-4234
لف	-4235
▁người	-4236
▁kuf	-4237
aga	-4238
ред	-4239
្នុង	-4240
▁ул	-4241
หน	-4242
xt	-4243
ឹង	-4244
▁best	-4245
▁kant	-4246
▁ध	-4247
▁yek	-4248
בי	-4249
▁आप	-4250
סי	-4251
▁bul	-4252
ско	-4253
▁איר	-4254
▁dans	-4255
▁Her	-4256
enzi	-4257
भा	-4258
ುದ	-4259
حمد	-4260
▁हैं	-4261
».	-4262
▁ئۇ	-4263
டி	-4264
ví	-4265
▁tə	-4266
еп	-4267
▁פֿאַר	-4268
▁ඉ	-4269
▁sim	-4270
રી	-4271
▁dest	-4272
▁كان	-4273
anso	-4274
ray	-4275
لىق	-4276
ои	-4277
تح	-4278
▁ት	-4279
▁num	-4280
াহ	-4281
iten	-4282
ational	-4283
▁stud	-4284
ਰੀ	-4285
▁այ	-4286
▁수	-4287
эй	-4288
ସ୍	-4289
▁վ	-4290
▁sang	-4291
ισ	-4292
▁whaka	-4293
ated	-4294
▁bud	-4295
▁üç	-4296
ष्ट	-4297
,”	-4298
▁contr	-4299
ув	-4300
دان	-4301
▁ಜ	-4302
▁এই	-4303
ាម	-4304
▁nhi	-4305
essa	-4306
λλ	-4307
▁Europ	-4308
▁अप	-4309
ပ္	-4310
▁skal	-4311
▁এক	-4312
▁الط	-4313
tions	-4314
ិន	-4315
кра	-4316
▁மு	-4317
.,	-4318
▁uit	-4319
rag	-4320
ក្នុង	-4321
▁ले	-4322
ាប់	-4323
тив	-4324
▁هو	-4325
▁Google	-4326
▁những	-4327
öl	-4328
și	-4329
▁une	-4330
ама	-4331
▁سن	-4332
weni	-4333
اض	-4334
▁dib	-4335
की	-4336
▁செ	-4337
▁mam	-4338
upa	-4339
▁सु	-4340
▁eb	-4341
עק	-4342
ipa	-4343
▁lim	-4344
▁ফ	-4345
▁사	-4346
ელ	-4347
ty	-4348
ུས་	-4349
вет	-4350
▁maj	-4351
▁kin	-4352
بد	-4353
▁ukuthi	-4354
ონ	-4355
▁για	-4356
OR	-4357
റെ	-4358
rin	-4359
▁الي	-4360
▁App	-4361
agy	-4362
▁συ	-4363
ania	-4364
ில	-4365
▁els	-4366
цца	-4367
▁Ag	-4368
ág	-4369
بو	-4370
▁sud	-4371
▁مق	-4372
▁Mat	-4373
▁ntchito	-4374
uks	-4375
cy	-4376
irin	-4377
ալ	-4378
יים	-4379
▁ଗ	-4380
▁χ	-4381
kon	-4382
ես	-4383
▁roz	-4384
▁గ	-4385
▁در	-4386
▁iç	-4387
encia	-4388
▁خو	-4389
▁Fac	-4390
▁η	-4391
▁+	-4392
্প	-4393
▁និង	-4394
ਿੱ	-4395
ëm	-4396
ಂತ	-4397
▁bus	-4398
▁тур	-4399
фи	-4400
▁జ	-4401
ой	-4402
▁થ	-4403
▁vak	-4404
ša	-4405
ynda	-4406
▁από	-4407
্ম	-4408
ခဲ့	-4409
ଥିଲ	-4410
▁aqu	-4411
▁hore	-4412
▁vý	-4413
ውን	-4414
ិត	-4415
▁sí	-4416
▁hogy	-4417
дам	-4418
તી	-4419
▁tok	-4420
ནང་	-4421
fl	-4422
▁trad	-4423
▁کان	-4424
▁kop	-4425
ство	-4426
▁más	-4427
ಿನ	-4428
ான	-4429
▁Iz	-4430
▁fer	-4431
дин	-4432
eba	-4433
ిన	-4434
▁did	-4435
ekile	-4436
ไม่	-4437
▁hr	-4438
far	-4439
äh	-4440
ustr	-4441
jes	-4442
atha	-4443
▁bit	-4444
मी	-4445
ton	-4446
mek	-4447
лед	-4448
etu	-4449
▁#	-4450
▁Ber	-4451
ien	-4452
▁Kon	-4453
▁ə	-4454
▁Ver	-4455
amas	-4456
lọ	-4457
िया	-4458
▁Den	-4459
ัก	-4460
ंद	-4461
ambo	-4462
ihan	-4463
ší	-4464
ña	-4465
າງ	-4466
एको	-4467
ser	-4468
вар	-4469
یم	-4470
▁jî	-4471
▁mob	-4472
▁tim	-4473
▁conc	-4474
▁sn	-4475
вер	-4476
ۇل	-4477
rọ	-4478
▁સા	-4479
үүл	-4480
່ນ	-4481
lari	-4482
וא	-4483
òm	-4484
anz	-4485
ونه	-4486
ët	-4487
▁मि	-4488
▁yr	-4489
wl	-4490
ಿದೆ	-4491
▁esta	-4492
▁nang	-4493
▁кил	-4494
▁atau	-4495
тк	-4496
▁ਵਿੱਚ	-4497
▁пов	-4498
เก	-4499
▁ala	-4500
عا	-4501
wọ	-4502
▁ken	-4503
ать	-4504
ូវ	-4505
▁ary	-4506
uze	-4507
ိုး	-4508
nan	-4509
▁يا	-4510
con	-4511
▁kn	-4512
▁გა	-4513
كر	-4514
▁rap	-4515
جه	-4516
ିକ	-4517
ਦਾ	-4518
▁aga	-4519
▁muk	-4520
▁sinn	-4521
ාර	-4522
eler	-4523
▁бил	-4524
over	-4525
▁Os	-4526
amos	-4527
ition	-4528
ха	-4529
੍ਹ	-4530
▁પ્ર	-4531
ချ	-4532
▁pok	-4533
ingi	-4534
▁kem	-4535
ზე	-4536
▁import	-4537
▁informa	-4538
itat	-4539
tid	-4540
гийн	-4541
ေတြ	-4542
sin	-4543
▁mik	-4544
▁hev	-4545
▁publ	-4546
så	-4547
ួយ	-4548
aso	-4549
ोज	-4550
ନ୍ତି	-4551
لال	-4552
યા	-4553
▁koji	-4554
mak	-4555
wana	-4556
▁nap	-4557
လို	-4558
▁Ne	-4559
▁ireo	-4560
гов	-4561
▁ayaa	-4562
▁lig	-4563
▁لم	-4564
▁буд	-4565
▁như	-4566
атар	-4567
འབ	-4568
ible	-4569
▁put	-4570
ಕ್ಕ	-4571
ilm	-4572
▁more	-4573
▁mg	-4574
ಾಗಿ	-4575
णि	-4576
ques	-4577
ijn	-4578
▁пар	-4579
▁سو	-4580
udz	-4581
▁under	-4582
▁ada	-4583
itor	-4584
غه	-4585
ื่อ	-4586
▁fh	-4587
IT	-4588
▁تق	-4589
▁ກ	-4590
yp	-4591
omh	-4592
ལས་	-4593
тан	-4594
ີ້	-4595
зна	-4596
hin	-4597
ាត	-4598
▁без	-4599
▁অন	-4600
ความ	-4601
іні	-4602
won	-4603
گر	-4604
▁የተ	-4605
них	-4606
صر	-4607
tre	-4608
ရှ	-4609
به	-4610
▁בי	-4611
াব	-4612
▁Հ	-4613
▁कु	-4614
▁prz	-4615
▁ру	-4616
oso	-4617
אַט	-4618
ົ້າ	-4619
▁hon	-4620
sy	-4621
èr	-4622
▁ነው	-4623
▁Des	-4624
__	-4625
ຈະ	-4626
▁esc	-4627
▁इस	-4628
istan	-4629
ải	-4630
▁!	-4631
iter	-4632
▁hist	-4633
ход	-4634
▁تم	-4635
شن	-4636
ник	-4637
▁bhith	-4638
ador	-4639
ble	-4640
▁hj	-4641
ুর	-4642
ungu	-4643
▁juga	-4644
▁ур	-4645
▁mad	-4646
נה	-4647
out	-4648
▁съ	-4649
ಂದು	-4650
ρά	-4651
▁gra	-4652
па	-4653
iler	-4654
▁ભ	-4655
▁sho	-4656
▁nwere	-4657
▁සි	-4658
မ်း	-4659
الم	-4660
▁בא	-4661
ించ	-4662
మా	-4663
cija	-4664
ທ່ານ	-4665
üş	-4666
▁Cl	-4667
▁tod	-4668
▁لي	-4669
▁شي	-4670
▁ځ	-4671
मे	-4672
arra	-4673
անի	-4674
ého	-4675
τά	-4676
▁bin	-4677
▁ses	-4678
ambiri	-4679
ман	-4680
▁fy	-4681
▁വി	-4682
නය	-4683
▁На	-4684
egi	-4685
illa	-4686
àng	-4687
ендә	-4688
▁န	-4689
▁airson	-4690
▁nat	-4691
way	-4692
vol	-4693
▁rez	-4694
នៅ	-4695
yor	-4696
▁ዓ	-4697
ונג	-4698
ukh	-4699
כל	-4700
ନ୍ତ	-4701
ार्	-4702
▁Ap	-4703
▁ges	-4704
▁الث	-4705
abr	-4706
ាំង	-4707
ၾက	-4708
мет	-4709
ahl	-4710
▁نہ	-4711
▁Ga	-4712
▁É	-4713
mon	-4714
iq	-4715
່ວ	-4716
ཡོད་	-4717
ται	-4718
▁То	-4719
etse	-4720
้ง	-4721
ုိ	-4722
లా	-4723
▁επ	-4724
▁our	-4725
่าง	-4726
has	-4727
خل	-4728
에서	-4729
ilik	-4730
ເປັນ	-4731
gg	-4732
न्त	-4733
kun	-4734
▁fram	-4735
▁gus	-4736
▁ډ	-4737
▁במ	-4738
yin	-4739
ibe	-4740
ение	-4741
▁eu	-4742
▁التي	-4743
▁ఈ	-4744
كان	-4745
osti	-4746
אַק	-4747
▁tie	-4748
сэн	-4749
▁ካ	-4750
▁land	-4751
ube	-4752
дын	-4753
kal	-4754
nar	-4755
edz	-4756
▁ول	-4757
lag	-4758
AD	-4759
▁ich	-4760
bol	-4761
▁ደ	-4762
▁say	-4763
▁ní	-4764
▁ਇਸ	-4765
ဝ်	-4766
▁să	-4767
tan	-4768
▁પર	-4769
із	-4770
дың	-4771
әне	-4772
ée	-4773
nej	-4774
tav	-4775
ului	-4776
▁ድ	-4777
וצ	-4778
yu	-4779
▁ret	-4780
яр	-4781
ោយ	-4782
ார்	-4783
isen	-4784
▁hl	-4785
▁ہے۔	-4786
▁apr	-4787
▁»	-4788
▁aka	-4789
ường	-4790
ਹੀ	-4791
▁Ing	-4792
▁adalah	-4793
▁الحلقة	-4794
ogu	-4795
▁اخ	-4796
نگ	-4797
▁від	-4798
ının	-4799
bet	-4800
fon	-4801
гүй	-4802
عي	-4803
itet	-4804
was	-4805
▁kod	-4806
ња	-4807
ਜ਼	-4808
wak	-4809
ươ	-4810
▁или	-4811
▁pass	-4812
ี้	-4813
ουν	-4814
▁რომ	-4815
ាង	-4816
سان	-4817
ните	-4818
ater	-4819
હે	-4820
▁déi	-4821
िस	-4822
fs	-4823
▁Eng	-4824
ຄວາມ	-4825
▁ላይ	-4826
▁tú	-4827
чно	-4828
▁hin	-4829
▁ኢ	-4830
▁Tür	-4831
োৱ	-4832
▁Har	-4833
ioni	-4834
▁gam	-4835
opa	-4836
ები	-4837
▁पु	-4838
▁ам	-4839
ման	-4840
▁им	-4841
▁пос	-4842
enge	-4843
oss	-4844
asti	-4845
ێن	-4846
▁भी	-4847
әс	-4848
hy	-4849
cio	-4850
אל	-4851
▁ọrụ	-4852
ટે	-4853
▁Mi	-4854
šk	-4855
car	-4856
▁بار	-4857
▁ako	-4858
▁hun	-4859
▁cal	-4860
ibi	-4861
▁hay	-4862
▁Gu	-4863
oria	-4864
EL	-4865
irwa	-4866
▁bis	-4867
▁his	-4868
utu	-4869
لان	-4870
▁spr	-4871
▁Ge	-4872
િક	-4873
▁și	-4874
่ว	-4875
irk	-4876
cho	-4877
ត្រ	-4878
ള്ള	-4879
▁bek	-4880
ına	-4881
mal	-4882
▁그	-4883
▁ake	-4884
ox	-4885
▁ẹ	-4886
utt	-4887
уль	-4888
ວກ	-4889
▁gb	-4890
omi	-4891
▁sor	-4892
▁chuan	-4893
▁sampeyan	-4894
తి	-4895
زي	-4896
▁lah	-4897
ික	-4898
▁upp	-4899
▁tip	-4900
wanda	-4901
▁nad	-4902
▁مۇ	-4903
▁via	-4904
ர்க	-4905
▁бал	-4906
atti	-4907
سب	-4908
ils	-4909
inis	-4910
▁هذا	-4911
▁produc	-4912
▁ling	-4913
▁Bi	-4914
▁dim	-4915
▁ша	-4916
ਦੇ	-4917
нов	-4918
▁app	-4919
ές	-4920
များ	-4921
ታት	-4922
▁prez	-4923
ارت	-4924
ektr	-4925
োগ	-4926
▁opp	-4927
یز	-4928
ថា	-4929
сты	-4930
อน	-4931
▁үз	-4932
େବ	-4933
▁гар	-4934
گەن	-4935
▁сай	-4936
lim	-4937
▁zo	-4938
eze	-4939
haw	-4940
kh	-4941
▁mum	-4942
នេះ	-4943
لق	-4944
▁grup	-4945
▁झ	-4946
ād	-4947
ns	-4948
▁katika	-4949
▁baz	-4950
▁годи	-4951
▁fé	-4952
ET	-4953
ành	-4954
isu	-4955
aty	-4956
▁ym	-4957
▁комп	-4958
ây	-4959
▁পর	-4960
▁kini	-4961
▁site	-4962
না	-4963
iex	-4964
▁ban	-4965
▁geb	-4966
▁Α	-4967
ité	-4968
▁data	-4969
▁бир	-4970
▁кор	-4971
▁ov	-4972
གྱི་	-4973
▁دې	-4974
alia	-4975
ить	-4976
หล	-4977
ষ্ট	-4978
▁ආ	-4979
nog	-4980
omen	-4981
ێک	-4982
cel	-4983
ମ୍	-4984
▁προ	-4985
าง	-4986
▁Ed	-4987
ample	-4988
app	-4989
▁isi	-4990
▁ٻ	-4991
ثر	-4992
ект	-4993
ultur	-4994
दी	-4995
▁tit	-4996
ылар	-4997
▁لاء	-4998
amento	-4999
лай	-5000
▁وب	-5001
cher	-5002
▁dip	-5003
িয়ে	-5004
▁аж	-5005
▁jeg	-5006
▁kontr	-5007
خص	-5008
ייט	-5009
▁auf	-5010
ák	-5011
▁ಗ	-5012
чу	-5013
ىت	-5014
ประ	-5015
▁ду	-5016
lela	-5017
ရွ	-5018
▁Ti	-5019
oup	-5020
ces	-5021
▁ons	-5022
erat	-5023
▁Mae	-5024
▁Ọ	-5025
esha	-5026
▁مد	-5027
▁гра	-5028
▁dd	-5029
▁tau	-5030
▁get	-5031
▁their	-5032
стон	-5033
▁nar	-5034
▁بل	-5035
ök	-5036
ప్ప	-5037
▁mh	-5038
්ය	-5039
ään	-5040
ార్	-5041
ന്റെ	-5042
▁star	-5043
▁וואָס	-5044
şt	-5045
ಂಡ	-5046
▁pentru	-5047
▁mais	-5048
her	-5049
ems	-5050
གཞ	-5051
tag	-5052
isto	-5053
▁ਖ	-5054
хо	-5055
▁ਕੀ	-5056
▁ned	-5057
бы	-5058
▁Dir	-5059
fir	-5060
ראָ	-5061
urr	-5062
etta	-5063
▁ги	-5064
▁وق	-5065
▁зна	-5066
▁האָ	-5067
abar	-5068
apan	-5069
גי	-5070
ោក	-5071
▁öz	-5072
▁ish	-5073
▁جا	-5074
▁ple	-5075
ാന	-5076
വി	-5077
ភា	-5078
entes	-5079
idwa	-5080
xi	-5081
▁new	-5082
▁waxa	-5083
▁priv	-5084
▁kwaye	-5085
▁ایک	-5086
nak	-5087
ഞ്	-5088
ED	-5089
▁uu	-5090
▁اب	-5091
ondo	-5092
▁დ	-5093
िका	-5094
ರೆ	-5095
entr	-5096
▁राज	-5097
каз	-5098
hom	-5099
▁lea	-5100
▁anda	-5101
شر	-5102
▁ફ	-5103
▁leis	-5104
ongo	-5105
▁jan	-5106
лийн	-5107
▁tai	-5108
▁để	-5109
akar	-5110
abe	-5111
otel	-5112
డా	-5113
▁ഒ	-5114
▁sad	-5115
itz	-5116
▁pw	-5117
▁thể	-5118
▁Ц	-5119
▁आणि	-5120
▁дру	-5121
cer	-5122
▁$	-5123
▁Afr	-5124
▁ખ	-5125
ingar	-5126
▁Dan	-5127
▁ئە	-5128
▁aku	-5129
убли	-5130
ախ	-5131
▁đã	-5132
ิด	-5133
▁Ra	-5134
can	-5135
▁белән	-5136
েই	-5137
▁khi	-5138
akhulu	-5139
йл	-5140
ước	-5141
ვა	-5142
ρό	-5143
áz	-5144
atis	-5145
▁ඔ	-5146
мәт	-5147
▁væ	-5148
hai	-5149
▁koe	-5150
àr	-5151
ək	-5152
▁bang	-5153
སྐྱ	-5154
name	-5155
ics	-5156
कि	-5157
нан	-5158
▁menj	-5159
▁Op	-5160
▁مط	-5161
ory	-5162
▁আৰু	-5163
rif	-5164
▁sau	-5165
▁ජ	-5166
áin	-5167
▁mé	-5168
ുന്നു	-5169
ản	-5170
▁kuwa	-5171
vet	-5172
ැන	-5173
ارات	-5174
ров	-5175
וח	-5176
onda	-5177
uph	-5178
ibil	-5179
кла	-5180
▁жи	-5181
▁eff	-5182
ôi	-5183
▁Mus	-5184
дай	-5185
וש	-5186
yy	-5187
سلام	-5188
▁vai	-5189
මා	-5190
▁yar	-5191
▁কৰি	-5192
ගේ	-5193
▁bod	-5194
▁kuch	-5195
jed	-5196
achadh	-5197
▁gener	-5198
āj	-5199
▁eru	-5200
▁hier	-5201
▁سی	-5202
▁بھی	-5203
वे	-5204
ाने	-5205
ंत	-5206
abu	-5207
▁ສ	-5208
▁off	-5209
يك	-5210
သည်	-5211
้อง	-5212
▁ø	-5213
▁Ro	-5214
aky	-5215
སྒ	-5216
եղ	-5217
וס	-5218
нд	-5219
ད།	-5220
ъл	-5221
▁τα	-5222
▁እንደ	-5223
ương	-5224
uw	-5225
▁대	-5226
▁வி	-5227
▁Ir	-5228
low	-5229
▁ħ	-5230
ingen	-5231
ầu	-5232
▁କରି	-5233
▁بين	-5234
▁ප්ර	-5235
ough	-5236
oun	-5237
ети	-5238
ства	-5239
anh	-5240
▁mund	-5241
▁પણ	-5242
íc	-5243
▁നി	-5244
εν	-5245
اند	-5246
▁kami	-5247
▁Sk	-5248
▁لو	-5249
▁sex	-5250
يرة	-5251
یی	-5252
ହା	-5253
क्र	-5254
▁ку	-5255
ەش	-5256
▁fot	-5257
ეთ	-5258
oji	-5259
▁στο	-5260
った	-5261
▁Chr	-5262
▁ચ	-5263
▁më	-5264
ລາ	-5265
fat	-5266
▁pul	-5267
▁ting	-5268
▁kay	-5269
ង្	-5270
▁pom	-5271
▁Mu	-5272
របស់	-5273
ောက်	-5274
▁teh	-5275
ക്ക്	-5276
ublik	-5277
▁zok	-5278
▁جان	-5279
umo	-5280
▁بد	-5281
וט	-5282
▁ան	-5283
امل	-5284
ུགས་	-5285
▁iP	-5286
elu	-5287
ҳи	-5288
្នក	-5289
عب	-5290
▁kil	-5291
ულ	-5292
كون	-5293
িয়	-5294
ਹਾ	-5295
▁film	-5296
σει	-5297
▁Nd	-5298
▁zap	-5299
▁Č	-5300
ಾನ	-5301
▁سكس	-5302
enu	-5303
▁hom	-5304
▁ու	-5305
maz	-5306
ná	-5307
▁frå	-5308
▁ڪر	-5309
inter	-5310
قل	-5311
▁nec	-5312
▁arr	-5313
ेल	-5314
ρί	-5315
רא	-5316
iks	-5317
▁ባ	-5318
▁ጥ	-5319
▁ਤੋਂ	-5320
vir	-5321
▁fè	-5322
អ្នក	-5323
рам	-5324
ུན་	-5325
▁Ε	-5326
▁jak	-5327
ynd	-5328
▁sag	-5329
ēj	-5330
▁uchun	-5331
лем	-5332
IC	-5333
▁ey	-5334
▁bilan	-5335
ety	-5336
▁mk	-5337
ไป	-5338
▁jeung	-5339
▁pon	-5340
ird	-5341
uny	-5342
▁تن	-5343
ဆို	-5344
tas	-5345
ठी	-5346
▁ټ	-5347
ism	-5348
▁cara	-5349
uer	-5350
UR	-5351
▁með	-5352
▁Sam	-5353
oo	-5354
▁ip	-5355
سا	-5356
uhan	-5357
رم	-5358
▁vor	-5359
ართ	-5360
▁kit	-5361
ంగా	-5362
▁ژ	-5363
ità	-5364
▁Tur	-5365
тай	-5366
פֿ	-5367
last	-5368
▁video	-5369
▁אַז	-5370
▁ሓ	-5371
onan	-5372
رض	-5373
anamh	-5374
جل	-5375
▁You	-5376
▁mur	-5377
དག	-5378
▁nun	-5379
▁че	-5380
ىڭ	-5381
▁ସେ	-5382
ျဖ	-5383
ụta	-5384
லை	-5385
oks	-5386
▁ছ	-5387
кол	-5388
▁mind	-5389
лю	-5390
ક્	-5391
▁ла	-5392
वी	-5393
▁nel	-5394
ذه	-5395
ारा	-5396
bay	-5397
ู้	-5398
དུ་	-5399
ád	-5400
hod	-5401
II	-5402
мә	-5403
ài	-5404
ေတာ	-5405
eva	-5406
▁Wa	-5407
kor	-5408
លោក	-5409
ীয়	-5410
bur	-5411
▁lí	-5412
▁করে	-5413
▁ര	-5414
पाल	-5415
▁लाग	-5416
ows	-5417
azo	-5418
▁Ac	-5419
yên	-5420
anas	-5421
န်း	-5422
▁მი	-5423
ster	-5424
▁нар	-5425
▁ଲ	-5426
▁بت	-5427
ົາ	-5428
▁Ter	-5429
şı	-5430
मु	-5431
ept	-5432
▁Ç	-5433
▁нап	-5434
ιο	-5435
▁шу	-5436
ekin	-5437
रो	-5438
▁rem	-5439
▁mafai	-5440
яд	-5441
fan	-5442
▁دو	-5443
enter	-5444
▁tla	-5445
▁pê	-5446
▁Facebook	-5447
ву	-5448
▁سره	-5449
ଟି	-5450
xe	-5451
tal	-5452
▁long	-5453
▁ბ	-5454
ক্ত	-5455
ham	-5456
▁Por	-5457
eve	-5458
▁sö	-5459
pres	-5460
▁یہ	-5461
עג	-5462
▁ۋە	-5463
▁one	-5464
▁nor	-5465
▁ит	-5466
ارة	-5467
▁гу	-5468
ിച്ച	-5469
▁թ	-5470
▁izay	-5471
hair	-5472
ambi	-5473
tica	-5474
vor	-5475
▁gur	-5476
ći	-5477
▁ഉ	-5478
ingan	-5479
▁mae	-5480
nom	-5481
ອກ	-5482
▁ble	-5483
▁bū	-5484
үл	-5485
In	-5486
ому	-5487
▁zim	-5488
lich	-5489
ન્	-5490
առ	-5491
inye	-5492
ware	-5493
ipe	-5494
ực	-5495
▁yap	-5496
ús	-5497
ເຮ	-5498
▁wal	-5499
▁tagata	-5500
வி	-5501
▁ಶ	-5502
▁gh	-5503
ված	-5504
іл	-5505
▁pil	-5506
ਹਿ	-5507
ức	-5508
▁הח	-5509
འག	-5510
ခ်	-5511
▁jẹ	-5512
▁کور	-5513
▁tri	-5514
▁Et	-5515
ində	-5516
ູ້	-5517
ാണ്	-5518
▁деп	-5519
▁ಮಾಡ	-5520
▁år	-5521
áb	-5522
ines	-5523
ಾದ	-5524
▁dav	-5525
kov	-5526
▁vari	-5527
ós	-5528
त्त	-5529
▁ook	-5530
wk	-5531
▁anyị	-5532
hich	-5533
եց	-5534
▁sobre	-5535
▁مە	-5536
▁기	-5537
▁độ	-5538
อก	-5539
▁ep	-5540
্ধ	-5541
▁اپ	-5542
▁bạn	-5543
▁Fl	-5544
▁Þ	-5545
▁ras	-5546
ნი	-5547
▁זיי	-5548
inte	-5549
▁پێ	-5550
▁Va	-5551
uter	-5552
หร	-5553
ဖြစ်	-5554
▁ry	-5555
▁أو	-5556
णा	-5557
▁ገ	-5558
obh	-5559
▁zak	-5560
ະນ	-5561
▁ဒ	-5562
▁deg	-5563
▁વિ	-5564
▁mab	-5565
▁organiz	-5566
ાય	-5567
ူး	-5568
▁וה	-5569
▁στη	-5570
▁CO	-5571
ła	-5572
ੱਕ	-5573
aca	-5574
cie	-5575
▁få	-5576
acha	-5577
▁ထ	-5578
ட்டு	-5579
ապ	-5580
▁nah	-5581
▁ബ	-5582
opp	-5583
▁soo	-5584
▁ଶ	-5585
▁tir	-5586
▁аб	-5587
ας	-5588
▁ని	-5589
eku	-5590
rad	-5591
▁کار	-5592
▁সং	-5593
ုပ်	-5594
▁β	-5595
▁رو	-5596
▁prev	-5597
▁lava	-5598
▁qo	-5599
ilt	-5600
ုံး	-5601
oud	-5602
AC	-5603
ିତ	-5604
▁mos	-5605
▁ਪ੍ਰ	-5606
▁skr	-5607
ից	-5608
▁ktor	-5609
בער	-5610
انو	-5611
▁thi	-5612
▁leng	-5613
www	-5614
tụ	-5615
حة	-5616
▁Ek	-5617
īt	-5618
ûn	-5619
▁ін	-5620
▁ਲਈ	-5621
्रा	-5622
▁email	-5623
▁بەر	-5624
▁قال	-5625
▁Ste	-5626
ено	-5627
ép	-5628
ebenz	-5629
▁bilen	-5630
čen	-5631
▁кол	-5632
່າງ	-5633
مة	-5634
ργ	-5635
▁Af	-5636
▁San	-5637
ҷи	-5638
▁də	-5639
▁rom	-5640
▁ieu	-5641
ṣẹ	-5642
iniň	-5643
yal	-5644
સ્	-5645
▁nog	-5646
kel	-5647
▁saya	-5648
תי	-5649
פר	-5650
▁Ал	-5651
កម្	-5652
▁ส	-5653
ັ້ນ	-5654
ുടെ	-5655
▁sistem	-5656
▁بۇ	-5657
وري	-5658
▁uta	-5659
స్త	-5660
▁Sal	-5661
▁dra	-5662
דז	-5663
▁આવ	-5664
મે	-5665
▁dun	-5666
own	-5667
▁Π	-5668
▁φ	-5669
ំណ	-5670
▁plus	-5671
example	-5672
ības	-5673
தி	-5674
▁Joh	-5675
lem	-5676
ید	-5677
▁şi	-5678
▁parte	-5679
▁Ob	-5680
▁port	-5681
▁پار	-5682
нэ	-5683
▁ਹਨ	-5684
▁мат	-5685
ችን	-5686
üz	-5687
ない	-5688
өт	-5689
▁zam	-5690
ian	-5691
ន្	-5692
ทํา	-5693
▁ଓ	-5694
وف	-5695
מה	-5696
▁کە	-5697
ົງ	-5698
▁Mil	-5699
раз	-5700
▁Ku	-5701
nam	-5702
्ष	-5703
▁Do	-5704
med	-5705
▁kakhulu	-5706
▁Aw	-5707
▁бас	-5708
рон	-5709
្ឋ	-5710
▁ਭ	-5711
μέ	-5712
▁bei	-5713
▁roto	-5714
▁чы	-5715
ادي	-5716
▁sẽ	-5717
▁)	-5718
▁हा	-5719
ily	-5720
قع	-5721
EM	-5722
ści	-5723
▁Mad	-5724
ེར་	-5725
▁beb	-5726
▁ena	-5727
iment	-5728
یس	-5729
▁zi	-5730
ந்து	-5731
▁kung	-5732
▁تھ	-5733
▁가	-5734
▁דעם	-5735
▁افغان	-5736
ής	-5737
▁also	-5738
▁kot	-5739
▁wedi	-5740
obe	-5741
ির	-5742
тыр	-5743
▁bed	-5744
ction	-5745
ithi	-5746
وال	-5747
taa	-5748
su	-5749
▁هڪ	-5750
йг	-5751
мы	-5752
చ్	-5753
לא	-5754
ۆر	-5755
▁Mon	-5756
టు	-5757
άν	-5758
▁sok	-5759
ingo	-5760
øl	-5761
▁tang	-5762
▁سب	-5763
ίναι	-5764
▁wer	-5765
кә	-5766
ikel	-5767
osp	-5768
েল	-5769
▁бы	-5770
ູ່	-5771
мер	-5772
▁кан	-5773
ates	-5774
гаа	-5775
▁ਨਾਲ	-5776
nim	-5777
▁भा	-5778
ទេ	-5779
▁আম	-5780
▁Est	-5781
ྲི	-5782
▁Univers	-5783
▁für	-5784
аты	-5785
тэй	-5786
عت	-5787
“,	-5788
гол	-5789
▁pet	-5790
▁svoj	-5791
ਦੀ	-5792
нист	-5793
సు	-5794
▁tout	-5795
▁dre	-5796
ាស	-5797
оп	-5798
ný	-5799
usia	-5800
ომ	-5801
▁prom	-5802
▁này	-5803
▁ઉ	-5804
hez	-5805
вор	-5806
ogra	-5807
▁ĝ	-5808
▁liv	-5809
▁ве	-5810
▁համ	-5811
ພາ	-5812
ತ್ತು	-5813
ടു	-5814
▁bany	-5815
lex	-5816
▁байна	-5817
▁انت	-5818
する	-5819
ంలో	-5820
មួយ	-5821
స్తు	-5822
ពេ	-5823
െയ	-5824
ties	-5825
фор	-5826
ως	-5827
▁fit	-5828
atal	-5829
▁sw	-5830
▁सि	-5831
▁જે	-5832
ayan	-5833
agh	-5834
▁lam	-5835
တွေ	-5836
ogram	-5837
▁della	-5838
▁că	-5839
▁yra	-5840
▁map	-5841
යේ	-5842
undi	-5843
indi	-5844
ering	-5845
ेत	-5846
untu	-5847
del	-5848
ụk	-5849
ትን	-5850
োন	-5851
ដ្ឋ	-5852
▁ব্য	-5853
▁sah	-5854
▁tou	-5855
US	-5856
▁kwi	-5857
▁ವಿ	-5858
رح	-5859
ตั	-5860
▁وه	-5861
אָל	-5862
ริ	-5863
▁blog	-5864
▁tor	-5865
▁չ	-5866
▁mə	-5867
elf	-5868
ges	-5869
▁ଚ	-5870
▁Ki	-5871
hip	-5872
чес	-5873
▁ড	-5874
▁жана	-5875
ades	-5876
dal	-5877
eten	-5878
▁minn	-5879
▁ٿي	-5880
▁mung	-5881
vin	-5882
wal	-5883
▁הש	-5884
▁ڪرڻ	-5885
▁gir	-5886
▁խ	-5887
іль	-5888
▁også	-5889
▁ট	-5890
að	-5891
اك	-5892
డ్	-5893
▁jou	-5894
こと	-5895
бу	-5896
arch	-5897
heid	-5898
▁kah	-5899
▁problem	-5900
▁ஒ	-5901
देश	-5902
ög	-5903
▁मे	-5904
▁הת	-5905
জন	-5906
မ္	-5907
▁ನಿ	-5908
▁foi	-5909
▁Col	-5910
▁кал	-5911
ske	-5912
▁materi	-5913
લી	-5914
ווי	-5915
འ་	-5916
▁ही	-5917
▁σε	-5918
້ອງ	-5919
ائي	-5920
▁तर	-5921
นี้	-5922
▁නි	-5923
со	-5924
▁test	-5925
mit	-5926
▁veg	-5927
သူ	-5928
▁sik	-5929
دىن	-5930
▁մի	-5931
▁â	-5932
anyň	-5933
ခြ	-5934
▁Nor	-5935
ee	-5936
▁pem	-5937
עמ	-5938
iew	-5939
bagai	-5940
▁ք	-5941
▁ngā	-5942
▁αν	-5943
ਲਾ	-5944
ບໍ່	-5945
aten	-5946
orld	-5947
▁mig	-5948
▁Τ	-5949
iph	-5950
▁karo	-5951
▁Reg	-5952
ոն	-5953
▁πα	-5954
obi	-5955
▁će	-5956
anao	-5957
▁ئۆ	-5958
ăm	-5959
ിക	-5960
กับ	-5961
▁ਜਾ	-5962
ời	-5963
etso	-5964
--------	-5965
▁Air	-5966
▁mid	-5967
▁ধ	-5968
gb	-5969
ಾಯ	-5970
imiz	-5971
ก็	-5972
ത്ര	-5973
ống	-5974
རྩ	-5975
eria	-5976
tain	-5977
ves	-5978
ಾವ	-5979
μο	-5980
▁ਵੀ	-5981
▁latou	-5982
▁fal	-5983
จาก	-5984
▁they	-5985
imas	-5986
▁מה	-5987
tern	-5988
най	-5989
uhl	-5990
▁sul	-5991
င့္	-5992
ন্দ	-5993
လာ	-5994
ന്ന്	-5995
даг	-5996
▁למ	-5997
angka	-5998
oph	-5999
▁Σ	-6000
ლის	-6001
isc	-6002
▁ঘ	-6003
igan	-6004
imba	-6005
ུག་	-6006
▁하	-6007
odd	-6008
▁kre	-6009
न्द	-6010
uda	-6011
▁ಈ	-6012
▁ਫ	-6013
▁oper	-6014
pat	-6015
▁Lo	-6016
▁kos	-6017
▁ਸ਼	-6018
▁लिए	-6019
▁және	-6020
▁aki	-6021
▁forma	-6022
▁गरे	-6023
▁This	-6024
ელი	-6025
kaz	-6026
ولو	-6027
wazi	-6028
şa	-6029
աղ	-6030
get	-6031
pọ	-6032
▁тор	-6033
është	-6034
өм	-6035
ото	-6036
öv	-6037
лат	-6038
टी	-6039
ரி	-6040
lyk	-6041
ezo	-6042
▁ters	-6043
▁oku	-6044
▁aha	-6045
▁Í	-6046
▁Ke	-6047
ron	-6048
▁jar	-6049
▁ଉ	-6050
ận	-6051
igo	-6052
▁ات	-6053
▁pie	-6054
▁oth	-6055
ета	-6056
iliz	-6057
▁bre	-6058
cs	-6059
ନା	-6060
tive	-6061
cional	-6062
▁υ	-6063
ది	-6064
ענט	-6065
ệt	-6066
▁është	-6067
ದಲ್ಲಿ	-6068
▁지	-6069
пи	-6070
нең	-6071
zọ	-6072
රු	-6073
ଛନ୍ତି	-6074
నే	-6075
▁mereka	-6076
▁Rep	-6077
▁js	-6078
λα	-6079
ទី	-6080
ော်	-6081
لىك	-6082
ောင်	-6083
▁แ	-6084
▁ano	-6085
▁gị	-6086
һы	-6087
лах	-6088
ograf	-6089
ತಿ	-6090
ديد	-6091
annya	-6092
▁निर्	-6093
▁هي	-6094
če	-6095
▁syst	-6096
▁té	-6097
▁Á	-6098
▁ll	-6099
▁জন	-6100
▁first	-6101
ريق	-6102
ால்	-6103
dı	-6104
▁ис	-6105
ເຂ	-6106
opo	-6107
ēt	-6108
elis	-6109
▁सर	-6110
ungen	-6111
ས།	-6112
▁norm	-6113
ùng	-6114
▁Ol	-6115
din	-6116
kmen	-6117
ញ្	-6118
▁менен	-6119
ུར་	-6120
▁mend	-6121
ազ	-6122
ilar	-6123
▁bij	-6124
ijk	-6125
דר	-6126
हीं	-6127
▁দে	-6128
▁Lat	-6129
roid	-6130
gaz	-6131
tie	-6132
▁kā	-6133
сть	-6134
ece	-6135
سه	-6136
▁ima	-6137
▁iad	-6138
▁ដ	-6139
เพ	-6140
್ಮ	-6141
ளை	-6142
ще	-6143
▁Val	-6144
เด	-6145
▁өз	-6146
مت	-6147
כן	-6148
គ្រ	-6149
▁ё	-6150
oke	-6151
ello	-6152
▁صور	-6153
▁сал	-6154
isin	-6155
arb	-6156
▁plat	-6157
▁것	-6158
աստ	-6159
ົດ	-6160
▁kann	-6161
▁जि	-6162
ိူ	-6163
から	-6164
गर	-6165
else	-6166
▁matou	-6167
▁ಅವ	-6168
וע	-6169
▁ked	-6170
λη	-6171
िर	-6172
▁ska	-6173
▁work	-6174
amal	-6175
▁prep	-6176
into	-6177
ద్	-6178
▁elektr	-6179
кен	-6180
taj	-6181
ийг	-6182
▁হয়	-6183
òt	-6184
ív	-6185
rt	-6186
abi	-6187
▁hari	-6188
▁ек	-6189
▁sve	-6190
▁кра	-6191
indows	-6192
▁eks	-6193
ങ്ങള	-6194
isten	-6195
ijiet	-6196
▁пот	-6197
▁real	-6198
▁diff	-6199
ٽي	-6200
ىپ	-6201
los	-6202
▁είναι	-6203
▁kai	-6204
▁sav	-6205
શે	-6206
dır	-6207
вал	-6208
▁its	-6209
اط	-6210
ാര	-6211
ირ	-6212
zv	-6213
▁rẹ	-6214
مى	-6215
▁tul	-6216
નું	-6217
ihugu	-6218
ន្ត	-6219
▁Ө	-6220
▁maar	-6221
▁الز	-6222
▁ജ	-6223
area	-6224
wm	-6225
▁hak	-6226
usan	-6227
▁fre	-6228
▁нас	-6229
nych	-6230
ယ္။	-6231
▁hann	-6232
ახ	-6233
▁før	-6234
ags	-6235
▁sama	-6236
ụrụ	-6237
kol	-6238
plic	-6239
▁hef	-6240
▁hol	-6241
ơn	-6242
▁mok	-6243
▁oleh	-6244
▁lin	-6245
ព្រ	-6246
คุ	-6247
ýar	-6248
nj	-6249
▁cs	-6250
reb	-6251
وووو	-6252
ათ	-6253
▁उप	-6254
▁پي	-6255
uair	-6256
antes	-6257
ཚོགས་	-6258
▁ven	-6259
▁zon	-6260
ным	-6261
emos	-6262
བཞ	-6263
▁கு	-6264
▁ont	-6265
▁drug	-6266
ۇن	-6267
▁kt	-6268
anten	-6269
▁internet	-6270
▁oder	-6271
ће	-6272
êm	-6273
▁što	-6274
τό	-6275
▁chun	-6276
ối	-6277
akake	-6278
▁time	-6279
رق	-6280
ұр	-6281
▁зам	-6282
ಾರೆ	-6283
▁div	-6284
▁ас	-6285
adar	-6286
ලා	-6287
เข	-6288
▁และ	-6289
▁күр	-6290
▁мил	-6291
▁neb	-6292
▁ቀ	-6293
లే	-6294
▁اج	-6295
ည်း	-6296
gt	-6297
ення	-6298
ېر	-6299
عان	-6300
▁lebih	-6301
▁jest	-6302
atik	-6303
▁ხ	-6304
skap	-6305
វិ	-6306
▁Bel	-6307
edia	-6308
ଷ୍	-6309
▁շ	-6310
itel	-6311
ེལ་	-6312
idu	-6313
bir	-6314
ũng	-6315
▁hau	-6316
▁ໃນ	-6317
éier	-6318
cije	-6319
▁መን	-6320
իս	-6321
acht	-6322
▁жа	-6323
▁bot	-6324
my	-6325
▁مج	-6326
յան	-6327
ယ်။	-6328
റി	-6329
num	-6330
ಟ್ಟ	-6331
▁מש	-6332
▁kia	-6333
ରୁ	-6334
λε	-6335
ним	-6336
ມາ	-6337
▁рай	-6338
▁які	-6339
▁तो	-6340
ക്ഷ	-6341
uten	-6342
▁ئەم	-6343
ଲି	-6344
sch	-6345
upu	-6346
ുള്ള	-6347
▁dij	-6348
.)	-6349
▁Ur	-6350
فت	-6351
jek	-6352
ानी	-6353
ായി	-6354
odu	-6355
omp	-6356
igin	-6357
▁ओ	-6358
ंड	-6359
▁nal	-6360
ুন	-6361
ទៅ	-6362
▁Mag	-6363
ited	-6364
▁Cr	-6365
▁kra	-6366
ło	-6367
▁tech	-6368
နှ	-6369
▁mà	-6370
ಿಗೆ	-6371
▁beh	-6372
aw	-6373
▁Cor	-6374
ிரு	-6375
ື່ອ	-6376
tat	-6377
▁urang	-6378
rar	-6379
idz	-6380
▁sha	-6381
వా	-6382
▁Bl	-6383
སྟ	-6384
▁لاءِ	-6385
াগ	-6386
éiert	-6387
▁živ	-6388
้อ	-6389
ើង	-6390
▁siz	-6391
ောင်း	-6392
▁پاک	-6393
▁ew	-6394
▁ولا	-6395
မှာ	-6396
▁hian	-6397
▁కా	-6398
ír	-6399
▁natur	-6400
▁των	-6401
ном	-6402
வு	-6403
ვის	-6404
รา	-6405
engo	-6406
igt	-6407
স্থ	-6408
▁نظ	-6409
ayi	-6410
▁dapat	-6411
ើយ	-6412
▁rak	-6413
ינג	-6414
▁лю	-6415
▁wax	-6416
ۇش	-6417
unan	-6418
▁نا	-6419
כט	-6420
асы	-6421
ilor	-6422
▁const	-6423
▁orang	-6424
ją	-6425
ರುವ	-6426
▁camp	-6427
िव	-6428
ంగ	-6429
ész	-6430
▁wel	-6431
▁ګ	-6432
lech	-6433
уч	-6434
unay	-6435
▁Du	-6436
IL	-6437
చ్చ	-6438
▁இரு	-6439
▁Str	-6440
▁Der	-6441
ছিল	-6442
วย	-6443
هی	-6444
еләр	-6445
▁social	-6446
дз	-6447
бар	-6448
ların	-6449
νη	-6450
avo	-6451
adda	-6452
བོད་	-6453
မွာ	-6454
▁seu	-6455
entu	-6456
▁asi	-6457
press	-6458
usta	-6459
ម្រ	-6460
nia	-6461
▁tun	-6462
fel	-6463
▁پن	-6464
▁sie	-6465
▁아	-6466
▁кел	-6467
rac	-6468
▁lj	-6469
dh	-6470
fen	-6471
యా	-6472
iril	-6473
▁эр	-6474
▁http	-6475
খন	-6476
ќе	-6477
▁Nam	-6478
▁cond	-6479
▁ئې	-6480
▁pay	-6481
ege	-6482
nic	-6483
ной	-6484
▁يې	-6485
▁ens	-6486
▁nen	-6487
▁î	-6488
द्ध	-6489
راء	-6490
▁Tá	-6491
▁رہ	-6492
ຸດ	-6493
▁ඒ	-6494
▁não	-6495
ینی	-6496
ूर्	-6497
ល់	-6498
اً	-6499
▁менән	-6500
קס	-6501
हु	-6502
▁ନି	-6503
sat	-6504
σε	-6505
ора	-6506
▁cos	-6507
▁ფ	-6508
utan	-6509
▁לע	-6510
ၵ်	-6511
ემ	-6512
▁الل	-6513
▁sap	-6514
▁මෙ	-6515
əm	-6516
▁kamp	-6517
▁ከም	-6518
▁about	-6519
ထား	-6520
load	-6521
▁тр	-6522
▁geç	-6523
ark	-6524
ਰਾ	-6525
üt	-6526
unik	-6527
ền	-6528
▁Gal	-6529
▁көр	-6530
ří	-6531
fik	-6532
▁ئەو	-6533
کړ	-6534
▁કો	-6535
▁bers	-6536
ош	-6537
ըն	-6538
टा	-6539
pre	-6540
▁ಚ	-6541
اہ	-6542
▁خپ	-6543
र्ष	-6544
чки	-6545
omba	-6546
ăng	-6547
▁Κ	-6548
ୋଇ	-6549
▁ער	-6550
▁Ö	-6551
දු	-6552
ཀྱ	-6553
▁يع	-6554
བའི་	-6555
▁bib	-6556
оры	-6557
ител	-6558
тын	-6559
▁రా	-6560
▁Les	-6561
ային	-6562
йын	-6563
કો	-6564
می	-6565
zeko	-6566
▁сар	-6567
ਵਾ	-6568
אַן	-6569
▁آهن	-6570
▁نو	-6571
гыз	-6572
▁दु	-6573
undu	-6574
ock	-6575
lis	-6576
abh	-6577
iru	-6578
▁bagi	-6579
▁что	-6580
umana	-6581
▁ezi	-6582
ေရ	-6583
ật	-6584
änd	-6585
ப்	-6586
තා	-6587
▁Sup	-6588
న్ని	-6589
теп	-6590
▁उन	-6591
حد	-6592
ًا	-6593
▁đến	-6594
ech	-6595
តែ	-6596
▁vin	-6597
▁کیا	-6598
▁Nov	-6599
▁ون	-6600
აც	-6601
▁전	-6602
▁чи	-6603
gj	-6604
ók	-6605
ýär	-6606
etti	-6607
▁lis	-6608
AK	-6609
▁мар	-6610
▁nuk	-6611
▁тер	-6612
▁zijn	-6613
▁кам	-6614
хан	-6615
▁stat	-6616
▁ប	-6617
▁Mac	-6618
▁એક	-6619
습니다	-6620
الب	-6621
ష్	-6622
лас	-6623
▁mek	-6624
▁قىلى	-6625
▁ár	-6626
ଡ଼	-6627
▁poss	-6628
▁qab	-6629
ىرى	-6630
ape	-6631
▁wê	-6632
্চ	-6633
hol	-6634
ត្ត	-6635
iej	-6636
سن	-6637
▁എന്ന	-6638
సి	-6639
▁enc	-6640
▁vas	-6641
▁mó	-6642
▁செய	-6643
طة	-6644
▁نہیں	-6645
▁ڊ	-6646
▁हे	-6647
ាច	-6648
τή	-6649
▁fyrir	-6650
UN	-6651
ները	-6652
ijas	-6653
וג	-6654
▁eile	-6655
▁سەر	-6656
▁sich	-6657
арус	-6658
ร์	-6659
ಲು	-6660
еҙ	-6661
▁হৈ	-6662
টা	-6663
▁եր	-6664
▁орган	-6665
འཛ	-6666
ંગ	-6667
ীৰ	-6668
▁بع	-6669
▁Mer	-6670
▁alla	-6671
▁போ	-6672
אַמ	-6673
teri	-6674
бр	-6675
ત્ર	-6676
▁éta	-6677
▁ere	-6678
▁උ	-6679
دۇ	-6680
▁иш	-6681
loa	-6682
کو	-6683
▁għal	-6684
▁സ്	-6685
amm	-6686
▁ናይ	-6687
▁izany	-6688
▁માટે	-6689
eds	-6690
umba	-6691
▁रहे	-6692
▁בע	-6693
nas	-6694
ыу	-6695
ции	-6696
▁kter	-6697
ාල	-6698
inya	-6699
▁جيڪ	-6700
▁시	-6701
lab	-6702
▁باش	-6703
▁apa	-6704
ciones	-6705
ິນ	-6706
▁stand	-6707
▁ink	-6708
▁І	-6709
rá	-6710
ρε	-6711
▁yi	-6712
ҙә	-6713
▁રા	-6714
្ម	-6715
ower	-6716
▁கொ	-6717
rab	-6718
▁ሲ	-6719
▁cum	-6720
▁በመ	-6721
▁tatou	-6722
sten	-6723
▁मो	-6724
قان	-6725
IM	-6726
opi	-6727
uki	-6728
▁uga	-6729
wng	-6730
вод	-6731
্ক	-6732
▁www	-6733
aru	-6734
धिक	-6735
בל	-6736
▁aktiv	-6737
OM	-6738
itr	-6739
▁which	-6740
▁wọn	-6741
▁bid	-6742
unya	-6743
▁ພ	-6744
gel	-6745
ijo	-6746
▁իր	-6747
লৈ	-6748
ភាព	-6749
▁זי	-6750
▁За	-6751
▁ठ	-6752
န္း	-6753
▁yer	-6754
▁mata	-6755
دام	-6756
үм	-6757
▁log	-6758
خر	-6759
▁qar	-6760
dag	-6761
lang	-6762
▁zd	-6763
pas	-6764
▁wek	-6765
ugar	-6766
▁উপ	-6767
pan	-6768
bor	-6769
པར་	-6770
сия	-6771
▁into	-6772
alam	-6773
▁gun	-6774
nek	-6775
Pr	-6776
бер	-6777
▁difer	-6778
▁nge	-6779
▁لی	-6780
اڵ	-6781
▁кер	-6782
▁اول	-6783
اۋ	-6784
▁тә	-6785
▁там	-6786
ଥିବା	-6787
▁що	-6788
adau	-6789
्च	-6790
▁từ	-6791
▁ғ	-6792
▁یو	-6793
▁한	-6794
elwa	-6795
੍ਹਾਂ	-6796
དང་།	-6797
mm	-6798
ریک	-6799
▁anti	-6800
▁aba	-6801
یو	-6802
▁Apple	-6803
خه	-6804
ные	-6805
▁zá	-6806
▁यां	-6807
▁lá	-6808
bek	-6809
יינ	-6810
स्थ	-6811
▁IS	-6812
▁هن	-6813
▁пом	-6814
ຫມ	-6815
▁bra	-6816
▁જો	-6817
ıs	-6818
igen	-6819
ील	-6820
▁cyn	-6821
зм	-6822
मान	-6823
▁rat	-6824
▁sos	-6825
الت	-6826
▁dod	-6827
واز	-6828
kara	-6829
▁بح	-6830
مو	-6831
▁שה	-6832
▁Bal	-6833
law	-6834
▁gol	-6835
▁שט	-6836
▁אויף	-6837
▁وو	-6838
ices	-6839
elei	-6840
ەپ	-6841
ાવ	-6842
▁ჩ	-6843
лары	-6844
usu	-6845
عل	-6846
ାମ	-6847
▁mand	-6848
▁princi	-6849
ös	-6850
wch	-6851
ms	-6852
▁وج	-6853
گی	-6854
▁aý	-6855
▁kuy	-6856
jt	-6857
▁ህ	-6858
oms	-6859
▁sat	-6860
▁سر	-6861
▁biex	-6862
▁fuq	-6863
▁oz	-6864
▁kanthi	-6865
ık	-6866
imh	-6867
ateg	-6868
້ອ	-6869
▁compl	-6870
▁paling	-6871
▁බව	-6872
్యా	-6873
▁حي	-6874
▁cũng	-6875
▁Av	-6876
▁kepada	-6877
esk	-6878
wed	-6879
imwe	-6880
▁זענען	-6881
▁Dep	-6882
gang	-6883
hang	-6884
חר	-6885
▁ამ	-6886
інде	-6887
▁व्य	-6888
▁tamin	-6889
▁ဆ	-6890
กล	-6891
▁lek	-6892
▁foto	-6893
OL	-6894
лам	-6895
ют	-6896
ანი	-6897
▁حک	-6898
ەي	-6899
ная	-6900
▁స్	-6901
чин	-6902
▁ሕ	-6903
inden	-6904
ଣ୍	-6905
▁họ	-6906
▁profes	-6907
▁מא	-6908
óg	-6909
kil	-6910
▁mahi	-6911
▁heb	-6912
▁đó	-6913
ком	-6914
қа	-6915
ั้น	-6916
▁ښ	-6917
وهان	-6918
რი	-6919
▁قار	-6920
▁מי	-6921
▁gut	-6922
лык	-6923
ası	-6924
▁way	-6925
եկ	-6926
ča	-6927
ope	-6928
сөн	-6929
iska	-6930
voj	-6931
いる	-6932
▁ҳам	-6933
▁مان	-6934
በር	-6935
▁был	-6936
ରି	-6937
mel	-6938
yz	-6939
▁cil	-6940
iju	-6941
जी	-6942
▁prot	-6943
icha	-6944
▁deb	-6945
ំន	-6946
ина	-6947
▁fut	-6948
ଙ୍କୁ	-6949
hen	-6950
▁ê	-6951
▁kao	-6952
▁aig	-6953
▁tagħ	-6954
▁ged	-6955
▁слу	-6956
ција	-6957
ivi	-6958
▁ար	-6959
्रे	-6960
ader	-6961
▁fah	-6962
wel	-6963
▁१	-6964
▁כל	-6965
hone	-6966
▁الو	-6967
ұл	-6968
сті	-6969
ንድ	-6970
▁when	-6971
▁pes	-6972
akti	-6973
པོ་	-6974
ුණ	-6975
irí	-6976
▁mud	-6977
ولي	-6978
ல்ல	-6979
▁công	-6980
ovo	-6981
šo	-6982
kje	-6983
▁ਤੇ	-6984
යක්	-6985
اغ	-6986
▁شو	-6987
▁કરી	-6988
ებს	-6989
छि	-6990
▁prote	-6991
▁https	-6992
▁बि	-6993
jel	-6994
ينة	-6995
▁Pas	-6996
ಿಂದ	-6997
ួន	-6998
ەڵ	-6999
▁cur	-7000
▁محمد	-7001
▁Μ	-7002
ەز	-7003
iner	-7004
ения	-7005
ಗಳು	-7006
▁TV	-7007
▁eo	-7008
▁frá	-7009
▁Pre	-7010
wyd	-7011
াধ	-7012
▁Esc	-7013
ief	-7014
దు	-7015
▁ል	-7016
ولة	-7017
▁xa	-7018
ăn	-7019
හි	-7020
▁day	-7021
▁مص	-7022
▁გამ	-7023
▁ond	-7024
ੀਆਂ	-7025
рі	-7026
ikir	-7027
▁аст	-7028
inti	-7029
aph	-7030
▁хә	-7031
ოს	-7032
ദ്	-7033
ють	-7034
जा	-7035
еше	-7036
ুৰ	-7037
තර	-7038
▁add	-7039
▁હો	-7040
stan	-7041
ــــ	-7042
▁wis	-7043
jal	-7044
▁تج	-7045
enya	-7046
▁mož	-7047
▁առ	-7048
ເລ	-7049
راق	-7050
▁تص	-7051
བཅ	-7052
ຈາກ	-7053
оў	-7054
лог	-7055
▁hei	-7056
▁aon	-7057
▁tê	-7058
ران	-7059
રે	-7060
නා	-7061
▁או	-7062
▁bad	-7063
esso	-7064
▁ön	-7065
्ह	-7066
witter	-7067
▁làm	-7068
apo	-7069
▁θα	-7070
▁ହୋଇ	-7071
▁lain	-7072
iske	-7073
ਕਾਰ	-7074
▁যে	-7075
▁waar	-7076
▁hah	-7077
▁мек	-7078
ages	-7079
ολ	-7080
▁ста	-7081
ուր	-7082
ಕ್ಷ	-7083
ադ	-7084
▁pero	-7085
▁اسان	-7086
দ্ধ	-7087
hala	-7088
▁ring	-7089
шу	-7090
▁qa	-7091
▁cả	-7092
ပြီး	-7093
▁לי	-7094
IA	-7095
▁út	-7096
zik	-7097
äs	-7098
▁whakam	-7099
ıq	-7100
▁edil	-7101
óð	-7102
વામાં	-7103
તો	-7104
▁fu	-7105
▁عمل	-7106
▁сан	-7107
tet	-7108
jak	-7109
▁eis	-7110
▁kwambiri	-7111
▁یې	-7112
▁මේ	-7113
rio	-7114
ėl	-7115
▁عام	-7116
æt	-7117
▁ست	-7118
алық	-7119
èm	-7120
ον	-7121
▁oc	-7122
▁ڈ	-7123
gl	-7124
னை	-7125
ool	-7126
▁कार्य	-7127
▁kak	-7128
▁ٹ	-7129
ters	-7130
େଇ	-7131
ිබ	-7132
▁ਵਿਚ	-7133
uns	-7134
తో	-7135
ായ	-7136
ative	-7137
ური	-7138
▁send	-7139
site	-7140
่อง	-7141
▁அவ	-7142
▁ശ	-7143
טיק	-7144
ಂಬ	-7145
གིས་	-7146
▁тел	-7147
▁төр	-7148
▁Mod	-7149
▁nhiều	-7150
вы	-7151
▁bha	-7152
øg	-7153
▁توهان	-7154
▁situ	-7155
▁Sel	-7156
▁ап	-7157
▁emp	-7158
▁১	-7159
arn	-7160
▁ਸੀ	-7161
▁αυ	-7162
عى	-7163
▁тар	-7164
▁gaz	-7165
▁tum	-7166
▁komanso	-7167
ျဖစ္	-7168
▁gas	-7169
▁dili	-7170
ຢູ່	-7171
lash	-7172
eket	-7173
otra	-7174
رن	-7175
▁lle	-7176
ევ	-7177
siy	-7178
▁fet	-7179
▁ڪن	-7180
кон	-7181
эт	-7182
нар	-7183
▁wy	-7184
▁ху	-7185
নে	-7186
unc	-7187
ынан	-7188
▁ក	-7189
inum	-7190
ាត់	-7191
ོབ་	-7192
བྱེད་	-7193
ນີ້	-7194
بت	-7195
ਵੇ	-7196
فس	-7197
నా	-7198
ཁྱ	-7199
▁район	-7200
તિ	-7201
▁Pe	-7202
▁Res	-7203
wydd	-7204
ੱਖ	-7205
ाना	-7206
əl	-7207
▁мі	-7208
နေ	-7209
гө	-7210
▁الذي	-7211
פי	-7212
يني	-7213
IR	-7214
issa	-7215
ስተ	-7216
▁дека	-7217
▁Би	-7218
äk	-7219
▁like	-7220
anka	-7221
ности	-7222
ስጥ	-7223
▁الغ	-7224
▁mani	-7225
▁హ	-7226
rị	-7227
دن	-7228
▁ау	-7229
ους	-7230
▁niv	-7231
▁come	-7232
▁noma	-7233
tual	-7234
oran	-7235
оз	-7236
साठी	-7237
кистон	-7238
EO	-7239
▁soci	-7240
▁ପାଇ	-7241
day	-7242
▁prec	-7243
ركة	-7244
▁ndipo	-7245
ਣਾ	-7246
▁rest	-7247
▁abantu	-7248
▁خۆ	-7249
▁tā	-7250
▁dels	-7251
▁بم	-7252
ões	-7253
ერთ	-7254
▁լ	-7255
▁భ	-7256
šu	-7257
ıñ	-7258
rik	-7259
▁بىر	-7260
ный	-7261
▁sia	-7262
َّ	-7263
▁lar	-7264
▁нам	-7265
дат	-7266
▁శ	-7267
▁Sc	-7268
▁తె	-7269
chu	-7270
▁ung	-7271
rem	-7272
▁ומ	-7273
ገር	-7274
້ງ	-7275
اته	-7276
▁bli	-7277
ҙы	-7278
pad	-7279
დი	-7280
әп	-7281
ця	-7282
▁ये	-7283
uno	-7284
▁vend	-7285
▁fas	-7286
ätt	-7287
حي	-7288
▁دور	-7289
had	-7290
คุณ	-7291
▁بس	-7292
inar	-7293
ിന	-7294
AP	-7295
minist	-7296
نة	-7297
▁ಭ	-7298
ເທ	-7299
ମାନ	-7300
རི	-7301
ény	-7302
▁보	-7303
กัน	-7304
▁વા	-7305
isy	-7306
ခု	-7307
▁ил	-7308
tima	-7309
▁πε	-7310
ләре	-7311
▁роз	-7312
▁།	-7313
uva	-7314
,"	-7315
бек	-7316
▁về	-7317
▁Og	-7318
່າວ	-7319
▁وس	-7320
ена	-7321
▁ቅ	-7322
ଥିଲେ	-7323
▁Kan	-7324
may	-7325
▁ქ	-7326
esz	-7327
ध्ये	-7328
oca	-7329
▁band	-7330
▁kala	-7331
▁има	-7332
ника	-7333
▁بىل	-7334
עד	-7335
▁सो	-7336
▁jen	-7337
אַס	-7338
▁ಉ	-7339
▁ġ	-7340
ері	-7341
▁gün	-7342
ەکانی	-7343
▁זיין	-7344
▁सरकार	-7345
ရှိ	-7346
asha	-7347
▁ол	-7348
ഞ്ഞ	-7349
▁lip	-7350
རྒྱ་	-7351
וז	-7352
erne	-7353
▁mba	-7354
алык	-7355
ില്	-7356
କ୍ଷ	-7357
▁zab	-7358
▁def	-7359
▁बता	-7360
چى	-7361
өй	-7362
almente	-7363
▁gad	-7364
িৰ	-7365
эрэг	-7366
▁ngwa	-7367
▁yen	-7368
▁Windows	-7369
▁ј	-7370
▁door	-7371
ict	-7372
▁زی	-7373
ley	-7374
ubo	-7375
pro	-7376
دىڭ	-7377
ća	-7378
kir	-7379
▁Pi	-7380
▁제	-7381
▁bos	-7382
qq	-7383
owy	-7384
▁газ	-7385
▁arī	-7386
ໄປ	-7387
્યું	-7388
▁għall	-7389
▁fyri	-7390
ọrọ	-7391
▁Tel	-7392
▁comun	-7393
alta	-7394
க்	-7395
▁kuz	-7396
ورت	-7397
▁вре	-7398
ມື	-7399
▁Som	-7400
ርት	-7401
EC	-7402
णी	-7403
▁مث	-7404
មិន	-7405
кы	-7406
ht	-7407
▁pit	-7408
▁Od	-7409
ating	-7410
inst	-7411
▁ped	-7412
حت	-7413
▁کرد	-7414
▁સ્	-7415
▁daar	-7416
▁All	-7417
▁ĉi	-7418
ích	-7419
كي	-7420
▁жыл	-7421
ahay	-7422
▁тех	-7423
lak	-7424
▁zav	-7425
▁eit	-7426
하는	-7427
igu	-7428
rup	-7429
▁આપ	-7430
▁bheil	-7431
▁إن	-7432
▁arbe	-7433
ukt	-7434
пе	-7435
anza	-7436
ስት	-7437
▁wie	-7438
▁eine	-7439
▁bhfu	-7440
อา	-7441
কা	-7442
▁ở	-7443
▁kei	-7444
▁Dav	-7445
▁sind	-7446
▁oy	-7447
▁بش	-7448
্ন	-7449
▁super	-7450
▁кыз	-7451
▁пад	-7452
▁help	-7453
▁prem	-7454
▁ಒ	-7455
▁tako	-7456
ੱਲ	-7457
ավոր	-7458
อย่าง	-7459
ادى	-7460
▁bila	-7461
ಂಗ	-7462
▁פאַר	-7463
бот	-7464
ཡོ	-7465
stand	-7466
ស្រ	-7467
▁aho	-7468
лов	-7469
▁२	-7470
▁teu	-7471
▁alang	-7472
ಾಲ	-7473
્યો	-7474
eller	-7475
ober	-7476
ன்று	-7477
ші	-7478
▁ир	-7479
ତ୍	-7480
▁toe	-7481
κε	-7482
▁може	-7483
oine	-7484
ለው	-7485
▁мас	-7486
ན།	-7487
▁taea	-7488
लो	-7489
qt	-7490
త్ర	-7491
▁bhfuil	-7492
▁ല	-7493
рийн	-7494
ral	-7495
▁kë	-7496
iness	-7497
▁না	-7498
▁مخ	-7499
اڻ	-7500
মান	-7501
▁vum	-7502
ያን	-7503
ení	-7504
▁הע	-7505
ุด	-7506
ах	-7507
▁most	-7508
▁anak	-7509
▁pai	-7510
▁njeng	-7511
వి	-7512
ەب	-7513
▁Ми	-7514
عر	-7515
্ড	-7516
wih	-7517
▁час	-7518
кин	-7519
েও	-7520
▁moun	-7521
▁уч	-7522
дал	-7523
اتی	-7524
ବା	-7525
ਨਾ	-7526
otu	-7527
▁mell	-7528
▁unha	-7529
ۈر	-7530
▁pob	-7531
▁lé	-7532
شي	-7533
ople	-7534
▁وع	-7535
▁kapa	-7536
ball	-7537
▁नहीं	-7538
▁Can	-7539
zz	-7540
شی	-7541
▁lagi	-7542
▁ಯ	-7543
▁Tu	-7544
гел	-7545
ใช	-7546
əb	-7547
nji	-7548
iyan	-7549
ည္း	-7550
ມ່ນ	-7551
ོའི་	-7552
ತ್ರ	-7553
ốc	-7554
▁make	-7555
աշ	-7556
▁પા	-7557
▁اللي	-7558
မာ	-7559
▁vào	-7560
▁τους	-7561
اتي	-7562
ấy	-7563
▁سال	-7564
▁ການ	-7565
▁sili	-7566
▁Kurd	-7567
ания	-7568
ಿತ	-7569
గు	-7570
:||	-7571
про	-7572
ño	-7573
wyr	-7574
سة	-7575
▁menjadi	-7576
ធ្វ	-7577
аның	-7578
ikt	-7579
etsi	-7580
ikat	-7581
▁מיר	-7582
▁qual	-7583
ச்ச	-7584
▁Bir	-7585
▁ທີ່	-7586
▁tiasa	-7587
▁activ	-7588
गी	-7589
▁وح	-7590
▁Sie	-7591
ंत्र	-7592
ți	-7593
kap	-7594
▁հետ	-7595
מו	-7596
نو	-7597
▁kuba	-7598
աք	-7599
▁их	-7600
yə	-7601
قد	-7602
onte	-7603
▁τον	-7604
▁ते	-7605
प्र	-7606
ftir	-7607
ichte	-7608
ច្	-7609
▁jam	-7610
▁मह	-7611
estiv	-7612
ồng	-7613
शा	-7614
ادة	-7615
igur	-7616
▁Mah	-7617
▁пры	-7618
kas	-7619
▁Art	-7620
ита	-7621
▁strat	-7622
▁ਇਹ	-7623
▁kj	-7624
▁ren	-7625
▁يت	-7626
ulan	-7627
▁هذه	-7628
ismo	-7629
nika	-7630
ومت	-7631
มาก	-7632
▁divers	-7633
▁ውስጥ	-7634
ání	-7635
▁public	-7636
ందు	-7637
undo	-7638
▁देख	-7639
▁ನೀ	-7640
▁yab	-7641
رائ	-7642
▁contra	-7643
ཆེན་	-7644
נים	-7645
▁ec	-7646
▁Pl	-7647
▁telah	-7648
ույ	-7649
▁ekonom	-7650
▁ikkje	-7651
ದು	-7652
▁jy	-7653
نان	-7654
คน	-7655
ğan	-7656
▁Hal	-7657
▁Web	-7658
▁oor	-7659
kez	-7660
dị	-7661
ضل	-7662
▁다	-7663
ཕྱ	-7664
้ว	-7665
ான்	-7666
vaj	-7667
unge	-7668
▁سم	-7669
▁اق	-7670
હી	-7671
▁doc	-7672
xx	-7673
▁Tra	-7674
გი	-7675
בה	-7676
usti	-7677
▁정	-7678
▁eh	-7679
ײַ	-7680
ัด	-7681
▁وہ	-7682
▁apar	-7683
▁می	-7684
שה	-7685
ಮ್ಮ	-7686
▁rum	-7687
▁sti	-7688
టీ	-7689
انا	-7690
کر	-7691
▁გან	-7692
ାରେ	-7693
ਸੀ	-7694
වි	-7695
▁dy	-7696
vert	-7697
▁Nga	-7698
▁yan	-7699
гал	-7700
ileng	-7701
ូល	-7702
स्ट	-7703
▁ня	-7704
্গ	-7705
ved	-7706
▁gran	-7707
▁nicht	-7708
mod	-7709
▁sez	-7710
▁hang	-7711
លើ	-7712
▁energ	-7713
▁ekki	-7714
▁pār	-7715
ması	-7716
▁kanye	-7717
▁who	-7718
imit	-7719
▁nya	-7720
ុំ	-7721
▁הר	-7722
▁Android	-7723
▁dụ	-7724
▁Mor	-7725
▁indiv	-7726
▁start	-7727
▁عبد	-7728
ၿပ	-7729
ами	-7730
▁perm	-7731
ធ្វើ	-7732
ень	-7733
ities	-7734
▁nab	-7735
เว	-7736
sg	-7737
ansi	-7738
ပါတယ်။	-7739
ឆ្ន	-7740
▁අප	-7741
ikal	-7742
લ્	-7743
miş	-7744
▁ì	-7745
▁stor	-7746
isp	-7747
▁prav	-7748
▁እንዲ	-7749
ੁਰ	-7750
rah	-7751
▁באַ	-7752
ष्	-7753
వు	-7754
kii	-7755
িশ	-7756
▁মু	-7757
▁ans	-7758
ండ	-7759
▁olan	-7760
▁يق	-7761
▁हम	-7762
▁св	-7763
▁tudi	-7764
▁Ben	-7765
តិ	-7766
ision	-7767
▁partici	-7768
TA	-7769
perti	-7770
▁km	-7771
īg	-7772
▁дол	-7773
▁Ин	-7774
യും	-7775
▁ost	-7776
ាន់	-7777
▁speci	-7778
▁simp	-7779
ົມ	-7780
▁Бел	-7781
▁sent	-7782
тор	-7783
▁پی	-7784
हरु	-7785
engi	-7786
▁Մ	-7787
▁tuk	-7788
ihl	-7789
ပါတယ္။	-7790
টো	-7791
ustri	-7792
યો	-7793
ुप	-7794
เท	-7795
▁өл	-7796
တို	-7797
བར	-7798
aria	-7799
ဦး	-7800
▁sua	-7801
نام	-7802
▁ნ	-7803
щи	-7804
▁hoe	-7805
දී	-7806
▁lil	-7807
لاق	-7808
ဲ႔	-7809
▁Ah	-7810
rd	-7811
▁भार	-7812
▁مست	-7813
▁satu	-7814
egen	-7815
сон	-7816
เส	-7817
ອບ	-7818
“.	-7819
▁자	-7820
emen	-7821
▁If	-7822
ोल	-7823
▁Prod	-7824
▁Gi	-7825
▁Vo	-7826
ක්ෂ	-7827
ದೆ	-7828
ීමට	-7829
ублика	-7830
hawi	-7831
▁cz	-7832
രിക്ക	-7833
վել	-7834
▁lại	-7835
িস	-7836
གནས་	-7837
ଧ୍ୟ	-7838
शी	-7839
ต้อง	-7840
▁nz	-7841
larda	-7842
▁στην	-7843
▁கா	-7844
իկ	-7845
▁siy	-7846
อบ	-7847
በት	-7848
ệc	-7849
▁iji	-7850
▁nur	-7851
▁जो	-7852
ləri	-7853
том	-7854
្ង	-7855
wet	-7856
ány	-7857
ody	-7858
óm	-7859
ulaga	-7860
▁Pres	-7861
▁ажил	-7862
▁ilə	-7863
▁লা	-7864
▁Om	-7865
ຫລ	-7866
मि	-7867
▁dam	-7868
▁ار	-7869
▁semp	-7870
ង់	-7871
▁bank	-7872
ارى	-7873
▁وقت	-7874
קר	-7875
طي	-7876
▁Post	-7877
▁पनि	-7878
▁இந்த	-7879
стра	-7880
▁other	-7881
▁kako	-7882
ellen	-7883
▁אַר	-7884
nat	-7885
▁tw	-7886
▁tersebut	-7887
אי	-7888
****	-7889
▁sebagai	-7890
ingiz	-7891
ၼ်း	-7892
▁پاکستان	-7893
▁الا	-7894
▁зар	-7895
▁veri	-7896
▁Тоҷи	-7897
▁got	-7898
རྒྱལ་	-7899
ລັດ	-7900
▁Yo	-7901
abat	-7902
▁gat	-7903
عمال	-7904
ടി	-7905
▁fund	-7906
▁slu	-7907
▁pend	-7908
emm	-7909
▁Fil	-7910
েকে	-7911
▁Пре	-7912
ारे	-7913
esc	-7914
ôn	-7915
▁dira	-7916
ėj	-7917
▁سگ	-7918
යා	-7919
ึง	-7920
ಕ್ಕೆ	-7921
▁tv	-7922
ırım	-7923
enas	-7924
▁עם	-7925
ery	-7926
ິງ	-7927
ính	-7928
েত	-7929
uso	-7930
▁lai	-7931
▁Ү	-7932
ğa	-7933
▁২	-7934
▁uy	-7935
▁hir	-7936
obal	-7937
ful	-7938
▁సి	-7939
སླ	-7940
▁τι	-7941
ipt	-7942
ót	-7943
▁бір	-7944
▁ሁ	-7945
▁bere	-7946
ği	-7947
нин	-7948
▁عم	-7949
▁കാ	-7950
▁prost	-7951
ਨ੍ਹਾਂ	-7952
ត្រូវ	-7953
gram	-7954
inge	-7955
rama	-7956
▁दो	-7957
▁அத	-7958
▁най	-7959
▁متر	-7960
▁أي	-7961
▁ще	-7962
▁Nu	-7963
▁use	-7964
▁اليوم	-7965
vik	-7966
әш	-7967
▁dua	-7968
▁жат	-7969
ዚህ	-7970
ىندا	-7971
PS	-7972
ຄົນ	-7973
ึ่ง	-7974
гын	-7975
yll	-7976
▁just	-7977
▁tol	-7978
jum	-7979
ั้ง	-7980
ogi	-7981
▁ml	-7982
ijos	-7983
▁thr	-7984
▁የመ	-7985
▁gü	-7986
▁מת	-7987
▁lenei	-7988
ቶች	-7989
▁zar	-7990
inj	-7991
äll	-7992
▁Kat	-7993
▁සහ	-7994
ội	-7995
▁hil	-7996
die	-7997
alth	-7998
▁پو	-7999
AB	-8000
ಿದ್ದಾರೆ	-8001
រដ្ឋ	-8002
▁tih	-8003
ਿਸ	-8004
▁estis	-8005
▁atá	-8006
▁փ	-8007
ົບ	-8008
▁أم	-8009
▁ସ୍	-8010
chas	-8011
▁үйл	-8012
ต่	-8013
اااا	-8014
▁vz	-8015
▁exc	-8016
▁који	-8017
▁בר	-8018
▁ሃ	-8019
ସି	-8020
ົວ	-8021
tab	-8022
บบ	-8023
ρω	-8024
▁ئێ	-8025
ლობ	-8026
зы	-8027
стем	-8028
ործ	-8029
▁Gre	-8030
UM	-8031
▁maz	-8032
▁tho	-8033
▁zvin	-8034
▁aç	-8035
iman	-8036
▁profess	-8037
▁ըն	-8038
ints	-8039
▁Allah	-8040
▁آپ	-8041
cul	-8042
مكن	-8043
▁хар	-8044
െന്ന	-8045
▁vê	-8046
ກັບ	-8047
үз	-8048
ಡಿ	-8049
▁کۆ	-8050
▁වැ	-8051
abb	-8052
ళ్	-8053
▁Тоҷикистон	-8054
idza	-8055
qh	-8056
▁nod	-8057
вро	-8058
кар	-8059
▁them	-8060
erek	-8061
íonn	-8062
▁vez	-8063
▁imong	-8064
але	-8065
גע	-8066
ལྟ	-8067
မြ	-8068
▁ха	-8069
eres	-8070
sko	-8071
▁ning	-8072
qo	-8073
▁सह	-8074
న్నా	-8075
apt	-8076
▁Î	-8077
gov	-8078
egu	-8079
▁ਮੁ	-8080
وری	-8081
▁ਕੇ	-8082
▁خلال	-8083
тин	-8084
▁conta	-8085
▁vous	-8086
▁هغه	-8087
သာ	-8088
odzi	-8089
▁bona	-8090
гээ	-8091
▁més	-8092
ılı	-8093
▁Укра	-8094
زل	-8095
атын	-8096
▁tay	-8097
▁ле	-8098
▁بې	-8099
fun	-8100
iona	-8101
த்தில்	-8102
ខ្ល	-8103
akathi	-8104
▁gor	-8105
бі	-8106
ρη	-8107
ଥା	-8108
▁ڇ	-8109
ผู้	-8110
ေါ	-8111
чна	-8112
មក	-8113
pal	-8114
▁yem	-8115
▁saat	-8116
sm	-8117
utha	-8118
sto	-8119
ನೆ	-8120
િયા	-8121
ورة	-8122
ດີ	-8123
arm	-8124
▁mara	-8125
▁ରା	-8126
ilia	-8127
▁والم	-8128
▁ola	-8129
▁sas	-8130
ู่	-8131
ുമ	-8132
ံု	-8133
ින	-8134
▁മാ	-8135
▁%	-8136
▁שי	-8137
▁perf	-8138
โด	-8139
▁Anda	-8140
աբ	-8141
▁Za	-8142
▁عند	-8143
▁nú	-8144
▁media	-8145
anie	-8146
ίας	-8147
▁syn	-8148
▁suk	-8149
ệu	-8150
مار	-8151
ดี	-8152
ından	-8153
ەۋ	-8154
לה	-8155
▁көн	-8156
эв	-8157
arbe	-8158
▁كۆ	-8159
▁ref	-8160
▁হয়ে	-8161
▁PR	-8162
ът	-8163
กร	-8164
▁onye	-8165
▁ngh	-8166
טער	-8167
ატ	-8168
inas	-8169
rid	-8170
agu	-8171
ႃႈ	-8172
ારે	-8173
▁vet	-8174
īdz	-8175
▁باس	-8176
▁izan	-8177
▁Cym	-8178
лән	-8179
▁জান	-8180
rom	-8181
మ్	-8182
ếu	-8183
▁lal	-8184
▁ұ	-8185
add	-8186
әү	-8187
▁iPhone	-8188
▁ус	-8189
▁गा	-8190
▁yoo	-8191
גר	-8192
בע	-8193
▁تت	-8194
▁wok	-8195
▁Ik	-8196
▁bị	-8197
ovat	-8198
ls	-8199
ңа	-8200
ector	-8201
lish	-8202
angu	-8203
inger	-8204
▁ٿو	-8205
▁sport	-8206
▁ໄດ້	-8207
edwa	-8208
edu	-8209
▁ڪيو	-8210
upi	-8211
unj	-8212
ebenzi	-8213
izz	-8214
ວງ	-8215
▁مي	-8216
▁Pal	-8217
▁tika	-8218
හා	-8219
▁каб	-8220
انه	-8221
▁gia	-8222
న్నారు	-8223
▁tij	-8224
úr	-8225
▁Ο	-8226
onta	-8227
▁ଏହି	-8228
ནི་	-8229
ιά	-8230
illi	-8231
সম	-8232
bon	-8233
▁poč	-8234
қи	-8235
▁Mart	-8236
▁pur	-8237
ໂດ	-8238
îr	-8239
ىس	-8240
áng	-8241
▁neu	-8242
▁ќе	-8243
▁හැ	-8244
оро	-8245
ំព	-8246
કે	-8247
▁Don	-8248
▁jw	-8249
▁تب	-8250
երի	-8251
▁ອ	-8252
yle	-8253
▁bec	-8254
▁ngaph	-8255
න්නේ	-8256
▁بی	-8257
▁kapena	-8258
▁dö	-8259
ትዮ	-8260
▁kart	-8261
று	-8262
▁lagu	-8263
▁قبل	-8264
ותר	-8265
▁ech	-8266
▁fj	-8267
▁naz	-8268
▁яш	-8269
▁hyn	-8270
ृत	-8271
ote	-8272
▁ۇ	-8273
▁taimi	-8274
pak	-8275
▁nev	-8276
бор	-8277
pir	-8278
σης	-8279
▁pẹ	-8280
▁loo	-8281
ခံ	-8282
ère	-8283
▁koje	-8284
ကျ	-8285
ନ୍ଦ	-8286
ái	-8287
اسي	-8288
▁rw	-8289
डी	-8290
றி	-8291
ҙа	-8292
▁trên	-8293
ບັນ	-8294
hathi	-8295
pet	-8296
▁ତା	-8297
ལྷ	-8298
که	-8299
▁Sm	-8300
্দ	-8301
arin	-8302
▁حال	-8303
hla	-8304
vent	-8305
lack	-8306
▁በተ	-8307
▁ጉ	-8308
wara	-8309
elik	-8310
▁pens	-8311
▁ಮತ್ತು	-8312
лав	-8313
▁кит	-8314
نس	-8315
ेट	-8316
▁ጋ	-8317
▁काम	-8318
▁utawa	-8319
ষ্	-8320
▁Up	-8321
▁само	-8322
ове	-8323
ました	-8324
▁зап	-8325
ім	-8326
ەکان	-8327
▁yet	-8328
orang	-8329
▁Ca	-8330
icht	-8331
▁iri	-8332
▁það	-8333
andan	-8334
▁بأ	-8335
ಟ್	-8336
ေပ	-8337
idhean	-8338
▁kandi	-8339
▁niet	-8340
гон	-8341
▁мал	-8342
▁Bur	-8343
▁pemb	-8344
▁পা	-8345
arana	-8346
ীর	-8347
čno	-8348
▁aug	-8349
èk	-8350
▁ፍ	-8351
▁mwa	-8352
▁наш	-8353
▁Ан	-8354
كة	-8355
▁peri	-8356
ငံ	-8357
зу	-8358
▁مار	-8359
▁Jos	-8360
ły	-8361
▁tina	-8362
لىرى	-8363
▁ਆਪ	-8364
▁well	-8365
ogona	-8366
▁Jes	-8367
rak	-8368
imbo	-8369
▁нај	-8370
інің	-8371
▁प्रति	-8372
▁Fe	-8373
▁saj	-8374
identi	-8375
▁المت	-8376
ðar	-8377
ણી	-8378
▁Kur	-8379
ūt	-8380
ूर	-8381
وار	-8382
▁seh	-8383
▁юм	-8384
▁auch	-8385
ុន	-8386
నికి	-8387
ເຊ	-8388
▁Ji	-8389
▁បាន	-8390
່ຽ	-8391
ۇپ	-8392
onder	-8393
▁ད	-8394
▁सर्	-8395
íl	-8396
▁sự	-8397
▁Rom	-8398
ոս	-8399
كه	-8400
▁дип	-8401
▁nå	-8402
▁ଖ	-8403
▁Net	-8404
▁kale	-8405
▁bert	-8406
▁تور	-8407
inz	-8408
ада	-8409
▁фор	-8410
▁köz	-8411
вання	-8412
ექ	-8413
▁mac	-8414
▁oldu	-8415
miss	-8416
▁주	-8417
▁smo	-8418
enie	-8419
ربي	-8420
▁kua	-8421
မှု	-8422
rod	-8423
ела	-8424
▁mest	-8425
wala	-8426
▁dist	-8427
gay	-8428
ตร	-8429
dən	-8430
▁ቤ	-8431
bit	-8432
▁maua	-8433
▁wala	-8434
lec	-8435
VID	-8436
चार	-8437
øk	-8438
ಾಮ	-8439
▁мин	-8440
оти	-8441
▁huet	-8442
ຜູ້	-8443
larni	-8444
รับ	-8445
▁Eg	-8446
▁avec	-8447
ຕໍ່	-8448
▁zomwe	-8449
▁pog	-8450
▁साथ	-8451
isyon	-8452
דיק	-8453
IK	-8454
িনি	-8455
эж	-8456
▁اهو	-8457
ឹក	-8458
▁како	-8459
▁univers	-8460
haidh	-8461
▁נישט	-8462
▁பெ	-8463
▁için	-8464
▁ví	-8465
▁Gl	-8466
င်ႈ	-8467
ለም	-8468
▁تش	-8469
▁قان	-8470
▁enn	-8471
োক	-8472
མཐ	-8473
▁тап	-8474
▁سات	-8475
▁ngal	-8476
laryň	-8477
▁օ	-8478
▁فی	-8479
assa	-8480
جود	-8481
▁ಮು	-8482
▁மா	-8483
ཞིག་	-8484
ступ	-8485
▁ikki	-8486
သည်။	-8487
lja	-8488
▁were	-8489
▁ပြ	-8490
▁qay	-8491
വാ	-8492
ska	-8493
oru	-8494
▁realiz	-8495
▁adunay	-8496
æk	-8497
▁luga	-8498
يي	-8499
▁өчен	-8500
▁hulle	-8501
▁God	-8502
▁zen	-8503
atin	-8504
ུབ་	-8505
રો	-8506
▁får	-8507
▁קענען	-8508
ហើយ	-8509
▁nui	-8510
တြ	-8511
▁kä	-8512
ளு	-8513
ປີ	-8514
jav	-8515
▁onder	-8516
ାବ	-8517
ět	-8518
ске	-8519
བྱས་	-8520
▁kim	-8521
âm	-8522
▁bara	-8523
▁mobil	-8524
፡፡	-8525
▁йыл	-8526
ကာ	-8527
▁अनु	-8528
▁પો	-8529
▁że	-8530
▁beste	-8531
ību	-8532
పు	-8533
▁bro	-8534
ahr	-8535
wab	-8536
▁dost	-8537
▁ment	-8538
स्य	-8539
▁तु	-8540
ingga	-8541
క్ష	-8542
▁δια	-8543
ərbay	-8544
ilan	-8545
фт	-8546
▁طور	-8547
க்கும்	-8548
▁bok	-8549
▁дав	-8550
▁ŝ	-8551
яс	-8552
▁Rus	-8553
▁cam	-8554
▁intern	-8555
▁been	-8556
▁අව	-8557
▁එක	-8558
▁uns	-8559
ío	-8560
লেন	-8561
▁fak	-8562
ເພ	-8563
▁ટ	-8564
andle	-8565
ebu	-8566
▁chú	-8567
ക്കാ	-8568
ids	-8569
দের	-8570
ਟੀ	-8571
કા	-8572
nov	-8573
▁seng	-8574
▁Lu	-8575
енең	-8576
▁доб	-8577
▁lelei	-8578
ضاف	-8579
anii	-8580
ابل	-8581
''	-8582
وني	-8583
▁ఏ	-8584
മായി	-8585
akter	-8586
▁iku	-8587
det	-8588
isë	-8589
▁how	-8590
▁Sol	-8591
धान	-8592
▁nti	-8593
▁ለመ	-8594
▁خان	-8595
ງານ	-8596
ಷ್ಟ	-8597
ണ്ട്	-8598
▁អ	-8599
IP	-8600
ວັນ	-8601
▁ہیں۔	-8602
ಡೆ	-8603
နိုင်	-8604
စား	-8605
اهد	-8606
▁aŭ	-8607
iec	-8608
лер	-8609
abor	-8610
▁रह	-8611
▁ਸਾ	-8612
udio	-8613
▁Nh	-8614
▁mao	-8615
unta	-8616
elwe	-8617
udo	-8618
འབྲ	-8619
▁sebel	-8620
tak	-8621
adem	-8622
ilgan	-8623
▁mash	-8624
▁ast	-8625
▁лі	-8626
ене	-8627
▁funk	-8628
ლა	-8629
▁Kal	-8630
▁kho	-8631
нал	-8632
▁ນ	-8633
▁bû	-8634
▁απο	-8635
yat	-8636
бай	-8637
uai	-8638
▁בש	-8639
▁તો	-8640
▁لأ	-8641
▁üçün	-8642
▁big	-8643
өх	-8644
ног	-8645
jat	-8646
▁việc	-8647
▁blir	-8648
▁guk	-8649
▁ഒരു	-8650
▁Escort	-8651
entar	-8652
▁iyi	-8653
▁פר	-8654
▁حق	-8655
▁aplik	-8656
bin	-8657
ራት	-8658
دد	-8659
하고	-8660
▁tenei	-8661
ipi	-8662
▁වෙ	-8663
êu	-8664
▁nje	-8665
▁Ez	-8666
▁sens	-8667
ალი	-8668
दै	-8669
কল	-8670
▁vill	-8671
laş	-8672
います	-8673
ळे	-8674
ēm	-8675
дық	-8676
बर	-8677
ican	-8678
▁гол	-8679
ové	-8680
эс	-8681
▁seperti	-8682
▁tad	-8683
▁చె	-8684
▁ઘ	-8685
▁বিশ	-8686
གཏ	-8687
пар	-8688
għu	-8689
ато	-8690
akin	-8691
wis	-8692
▁тал	-8693
▁Türkmen	-8694
टर	-8695
ава	-8696
▁John	-8697
▁ସମ	-8698
▁thì	-8699
ሪያ	-8700
ורך	-8701
▁compr	-8702
idades	-8703
عم	-8704
▁some	-8705
ныя	-8706
рани	-8707
سته	-8708
▁interes	-8709
▁المن	-8710
่ม	-8711
itse	-8712
▁equ	-8713
▁नेपाल	-8714
ných	-8715
▁худ	-8716
▁Про	-8717
wah	-8718
▁seri	-8719
kam	-8720
ທາງ	-8721
íoch	-8722
ката	-8723
ણે	-8724
▁وف	-8725
రా	-8726
дна	-8727
▁ava	-8728
sti	-8729
BC	-8730
▁Kh	-8731
eker	-8732
▁memp	-8733
cions	-8734
▁Pers	-8735
ਿਲ	-8736
▁jul	-8737
anggo	-8738
▁incl	-8739
ິ່ງ	-8740
▁ет	-8741
▁gara	-8742
orit	-8743
ત્	-8744
emba	-8745
▁կար	-8746
kọ	-8747
enen	-8748
▁افغانستان	-8749
orwa	-8750
▁mere	-8751
▁dad	-8752
▁hàng	-8753
▁phải	-8754
کي	-8755
▁basa	-8756
▁מס	-8757
धी	-8758
▁ਸਮ	-8759
جب	-8760
ので	-8761
▁kli	-8762
mək	-8763
анда	-8764
ۇق	-8765
ស្	-8766
▁Dit	-8767
▁zem	-8768
▁פּראָ	-8769
▁zna	-8770
ől	-8771
bb	-8772
dom	-8773
▁chỉ	-8774
▁respons	-8775
tel	-8776
ਿਆਂ	-8777
▁था	-8778
ensi	-8779
▁सुर	-8780
▁está	-8781
▁ner	-8782
▁tant	-8783
ตัว	-8784
ustom	-8785
lara	-8786
vil	-8787
▁אנ	-8788
uat	-8789
▁يوم	-8790
▁tað	-8791
▁Tim	-8792
ଡି	-8793
ឲ្យ	-8794
▁מער	-8795
▁tino	-8796
▁nik	-8797
tay	-8798
שים	-8799
owo	-8800
▁kush	-8801
лық	-8802
▁ic	-8803
▁Fo	-8804
ahang	-8805
▁Ä	-8806
დე	-8807
▁مب	-8808
▁ndik	-8809
ంచి	-8810
▁කිර	-8811
▁اش	-8812
▁disc	-8813
▁Mic	-8814
ập	-8815
วิ	-8816
idos	-8817
тары	-8818
▁Mak	-8819
▁Δ	-8820
дің	-8821
▁त्यां	-8822
جة	-8823
▁ဘ	-8824
දා	-8825
agar	-8826
aut	-8827
ris	-8828
кән	-8829
▁הב	-8830
لاف	-8831
ires	-8832
ாய	-8833
่าน	-8834
▁مه	-8835
ێك	-8836
лау	-8837
čk	-8838
ையில்	-8839
▁nye	-8840
▁ukus	-8841
عه	-8842
▁නො	-8843
લે	-8844
หม	-8845
▁ù	-8846
▁experi	-8847
မ္း	-8848
▁गर	-8849
▁الى	-8850
▁ever	-8851
▁past	-8852
▁කිය	-8853
සා	-8854
▁অনু	-8855
▁naa	-8856
▁iwe	-8857
ိုင္	-8858
▁what	-8859
▁hur	-8860
▁bun	-8861
èanamh	-8862
▁ò	-8863
▁በአ	-8864
▁hafa	-8865
ពេល	-8866
▁sudah	-8867
لەر	-8868
ूप	-8869
▁dop	-8870
▁banyak	-8871
epe	-8872
▁przy	-8873
രുന്നു	-8874
िन	-8875
ници	-8876
eksi	-8877
ोक	-8878
▁trav	-8879
ох	-8880
▁તેમ	-8881
kanye	-8882
த்	-8883
▁dru	-8884
сә	-8885
▁ظ	-8886
пра	-8887
ছেন	-8888
▁आय	-8889
▁ના	-8890
▁Dis	-8891
▁सम्	-8892
دىكى	-8893
▁ebe	-8894
ytt	-8895
▁ụlọ	-8896
сте	-8897
▁ij	-8898
▁kama	-8899
קי	-8900
ติ	-8901
тал	-8902
ትዮጵ	-8903
▁ர	-8904
▁під	-8905
ভা	-8906
▁että	-8907
▁there	-8908
বি	-8909
▁קאָ	-8910
дж	-8911
▁jin	-8912
есе	-8913
▁የአ	-8914
صف	-8915
▁uv	-8916
ဟာ	-8917
▁iche	-8918
▁مترجم	-8919
▁være	-8920
้าน	-8921
דע	-8922
▁זה	-8923
▁ائ	-8924
iser	-8925
▁Pod	-8926
itik	-8927
▁കു	-8928
▁izy	-8929
▁lay	-8930
થે	-8931
ġġ	-8932
▁olar	-8933
ển	-8934
aden	-8935
aze	-8936
▁الان	-8937
▁đầu	-8938
▁ese	-8939
ડી	-8940
▁ald	-8941
▁term	-8942
▁පි	-8943
▁барои	-8944
andla	-8945
νε	-8946
▁üçin	-8947
ukwa	-8948
әх	-8949
inā	-8950
ciju	-8951
ყო	-8952
▁କି	-8953
θε	-8954
▁ani	-8955
▁কৰা	-8956
ever	-8957
ebe	-8958
▁ಸ್	-8959
मध्ये	-8960
▁hiện	-8961
▁שמ	-8962
upe	-8963
дыр	-8964
とい	-8965
ོལ་	-8966
▁intr	-8967
ələr	-8968
owi	-8969
णे	-8970
ຮັບ	-8971
ligt	-8972
▁ginn	-8973
گى	-8974
טר	-8975
▁sep	-8976
▁غير	-8977
▁පැ	-8978
्यां	-8979
OT	-8980
▁apl	-8981
ទេស	-8982
▁ପାଇଁ	-8983
ړه	-8984
▁Sen	-8985
▁Ž	-8986
ਡੀ	-8987
▁ചെയ	-8988
▁mez	-8989
▁aman	-8990
▁eftir	-8991
্যা	-8992
▁Баш	-8993
eken	-8994
িম	-8995
▁که	-8996
iston	-8997
▁كور	-8998
▁May	-8999
မ်ား	-9000
▁edi	-9001
ستی	-9002
▁mog	-9003
▁prac	-9004
есп	-9005
▁mma	-9006
ặc	-9007
▁Dem	-9008
▁λ	-9009
яз	-9010
୍ୟା	-9011
▁قد	-9012
▁جس	-9013
epa	-9014
▁cada	-9015
▁Cu	-9016
▁Los	-9017
▁arg	-9018
▁down	-9019
achta	-9020
ষ্ঠ	-9021
ằng	-9022
ultura	-9023
Al	-9024
rach	-9025
▁алып	-9026
ښت	-9027
zat	-9028
ód	-9029
hun	-9030
▁خط	-9031
ങ്ക	-9032
▁ដែល	-9033
ിൽ	-9034
áp	-9035
▁tại	-9036
لت	-9037
▁pasi	-9038
▁По	-9039
▁Cas	-9040
▁vert	-9041
رر	-9042
▁riba	-9043
▁ши	-9044
ampi	-9045
ื่อง	-9046
mis	-9047
▁sunt	-9048
андар	-9049
▁لت	-9050
▁dụng	-9051
▁кай	-9052
▁בה	-9053
يب	-9054
▁bê	-9055
öz	-9056
▁विश	-9057
▁nhà	-9058
▁II	-9059
▁ఫ	-9060
▁quan	-9061
மை	-9062
▁hid	-9063
elela	-9064
äng	-9065
▁स्थ	-9066
▁auk	-9067
▁hit	-9068
iaj	-9069
ebi	-9070
цыя	-9071
▁ord	-9072
▁эм	-9073
elas	-9074
गे	-9075
▁še	-9076
wang	-9077
ด้วย	-9078
▁ለማ	-9079
ིའི་	-9080
▁வே	-9081
▁uf	-9082
oper	-9083
هههه	-9084
▁nama	-9085
▁మా	-9086
▁ά	-9087
▁malo	-9088
טן	-9089
▁चा	-9090
▁දෙ	-9091
▁έχ	-9092
▁থেকে	-9093
▁fana	-9094
zan	-9095
েক	-9096
▁vš	-9097
▁Hy	-9098
▁ին	-9099
ards	-9100
wys	-9101
▁dum	-9102
▁ਸਕ	-9103
gah	-9104
ਜਾ	-9105
▁mass	-9106
ද්	-9107
▁Afrika	-9108
▁систем	-9109
ҡа	-9110
wes	-9111
បី	-9112
лага	-9113
ទាំង	-9114
▁واح	-9115
डा	-9116
▁pin	-9117
ภา	-9118
▁civ	-9119
ိဳ	-9120
पर	-9121
וכ	-9122
ੈਂ	-9123
orth	-9124
nin	-9125
ရေး	-9126
θη	-9127
act	-9128
स्था	-9129
שן	-9130
▁fhe	-9131
▁dah	-9132
ལོ་	-9133
▁يو	-9134
▁ኤ	-9135
▁ਕਰਨ	-9136
ियो	-9137
angk	-9138
▁dek	-9139
čne	-9140
éd	-9141
▁کرنے	-9142
▁интер	-9143
▁okanye	-9144
▁sis	-9145
ào	-9146
▁സം	-9147
▁gev	-9148
▁جم	-9149
▁સં	-9150
ێکی	-9151
▁nghi	-9152
▁keç	-9153
ৃত	-9154
▁Рус	-9155
arte	-9156
▁yam	-9157
▁яр	-9158
òng	-9159
▁सब	-9160
ಗಳನ್ನು	-9161
үнд	-9162
▁úr	-9163
ೇಶ	-9164
ன்ன	-9165
▁aron	-9166
òl	-9167
ሆን	-9168
▁dey	-9169
▁Lib	-9170
pil	-9171
▁hê	-9172
▁म्ह	-9173
wee	-9174
▁أك	-9175
▁rh	-9176
▁یا	-9177
ljen	-9178
▁salah	-9179
vē	-9180
isch	-9181
ಳ್	-9182
▁vad	-9183
རང་	-9184
▁vik	-9185
ireo	-9186
▁maga	-9187
▁এব	-9188
▁Met	-9189
utin	-9190
кер	-9191
▁meer	-9192
▁ግን	-9193
▁haz	-9194
uega	-9195
▁мэд	-9196
▁pert	-9197
▁rend	-9198
ðu	-9199
▁verður	-9200
իմ	-9201
ทาง	-9202
▁въ	-9203
▁কে	-9204
සු	-9205
▁kuv	-9206
▁së	-9207
▁պատ	-9208
ασ	-9209
▁finan	-9210
скі	-9211
క్క	-9212
▁حس	-9213
▁Rwanda	-9214
stagram	-9215
):	-9216
נס	-9217
гер	-9218
्न	-9219
▁deur	-9220
▁رس	-9221
োৱা	-9222
▁यह	-9223
ición	-9224
▁ram	-9225
▁viz	-9226
▁Kl	-9227
▁прав	-9228
जे	-9229
▁situa	-9230
്മ	-9231
šanas	-9232
پاره	-9233
▁Ukra	-9234
ାର୍	-9235
▁því	-9236
▁lona	-9237
גן	-9238
▁qal	-9239
▁pẹlu	-9240
րան	-9241
بير	-9242
▁Rob	-9243
▁хам	-9244
unye	-9245
▁маш	-9246
ႏွ	-9247
▁Sur	-9248
▁któ	-9249
▁won	-9250
▁kodwa	-9251
དོན་	-9252
îk	-9253
▁ስለ	-9254
▁ਸਿੰ	-9255
▁حتى	-9256
▁tash	-9257
େଶ	-9258
итет	-9259
ۆژ	-9260
ಾಜ	-9261
▁play	-9262
dio	-9263
▁gew	-9264
arg	-9265
▁בת	-9266
▁omwe	-9267
ाली	-9268
▁הוא	-9269
ਹੀਂ	-9270
hur	-9271
пер	-9272
ുന്നത്	-9273
▁final	-9274
▁ή	-9275
▁כי	-9276
ýän	-9277
oftware	-9278
ทุ	-9279
mad	-9280
▁dies	-9281
▁zvak	-9282
▁위	-9283
িছ	-9284
ayon	-9285
ختلف	-9286
пол	-9287
ager	-9288
kum	-9289
sim	-9290
▁andre	-9291
▁City	-9292
▁yên	-9293
stav	-9294
åde	-9295
དྲ	-9296
atea	-9297
▁ကို	-9298
▁oli	-9299
hail	-9300
כם	-9301
▁बे	-9302
žen	-9303
nol	-9304
akw	-9305
▁ಸಂ	-9306
▁milli	-9307
▁ton	-9308
▁My	-9309
istas	-9310
▁minangka	-9311
▁Serv	-9312
ແລະ	-9313
▁ወደ	-9314
▁yat	-9315
▁alg	-9316
▁otr	-9317
▁AS	-9318
sol	-9319
▁nä	-9320
DA	-9321
рак	-9322
▁अधिक	-9323
ారి	-9324
แล้ว	-9325
inio	-9326
itos	-9327
▁perc	-9328
▁kiel	-9329
ebenza	-9330
▁=	-9331
ուս	-9332
ites	-9333
ربية	-9334
▁үҙ	-9335
▁result	-9336
ությունը	-9337
ligi	-9338
▁gratis	-9339
▁Дар	-9340
▁wil	-9341
▁Amerika	-9342
leş	-9343
▁ae	-9344
▁hø	-9345
ቸውን	-9346
▁نق	-9347
▁wana	-9348
ется	-9349
▁link	-9350
stu	-9351
fy	-9352
ែង	-9353
ឆ្នាំ	-9354
▁China	-9355
iap	-9356
sku	-9357
▁lid	-9358
▁Kam	-9359
fol	-9360
▁want	-9361
▁هه	-9362
នឹង	-9363
▁IN	-9364
▁אונ	-9365
दे	-9366
ihat	-9367
▁కొ	-9368
▁иде	-9369
نية	-9370
pli	-9371
ங்கள்	-9372
▁Wik	-9373
▁wong	-9374
▁enk	-9375
▁მე	-9376
▁kiu	-9377
▁ທ່ານ	-9378
▁Wat	-9379
ಪ್	-9380
▁शा	-9381
ሆነ	-9382
▁berk	-9383
▁zan	-9384
ເສ	-9385
idente	-9386
▁kompl	-9387
▁PC	-9388
▁Kol	-9389
كە	-9390
äv	-9391
ใจ	-9392
▁проц	-9393
▁уз	-9394
▁наз	-9395
ść	-9396
▁Vol	-9397
▁Internet	-9398
skih	-9399
▁people	-9400
▁пай	-9401
▁sana	-9402
▁Dar	-9403
▁Ev	-9404
ildi	-9405
▁model	-9406
anei	-9407
ಚ್	-9408
هوه	-9409
▁Не	-9410
akeun	-9411
▁UN	-9412
▁वर्ष	-9413
▁color	-9414
ລາວ	-9415
▁האָבן	-9416
▁Gen	-9417
ঙ্গ	-9418
▁pret	-9419
alaga	-9420
▁Ул	-9421
▁әй	-9422
ۈن	-9423
သား	-9424
▁क्ष	-9425
▁sistema	-9426
ingu	-9427
▁ener	-9428
▁Mir	-9429
anana	-9430
▁cle	-9431
iller	-9432
▁Ба	-9433
وش	-9434
▁sech	-9435
▁בל	-9436
പ്പെ	-9437
дааст	-9438
ுக	-9439
▁געוו	-9440
ээл	-9441
ກັນ	-9442
улар	-9443
pecial	-9444
▁só	-9445
され	-9446
ικό	-9447
▁τις	-9448
▁nch	-9449
གྱ	-9450
жав	-9451
▁គ	-9452
ණය	-9453
เล่น	-9454
पी	-9455
ổi	-9456
රි	-9457
את	-9458
ັ້ງ	-9459
▁پرو	-9460
তা	-9461
ஸ்	-9462
ungs	-9463
▁aur	-9464
▁gov	-9465
ାତ	-9466
аса	-9467
быз	-9468
osan	-9469
עה	-9470
▁Ս	-9471
▁mewn	-9472
ለት	-9473
했다	-9474
irira	-9475
jd	-9476
ある	-9477
▁refer	-9478
▁Aut	-9479
▁bene	-9480
ཡིན་	-9481
nem	-9482
ೇಕ	-9483
▁น	-9484
ikas	-9485
▁સાથે	-9486
▁Inst	-9487
▁զ	-9488
▁অভ	-9489
agen	-9490
ито	-9491
zin	-9492
азақ	-9493
াঁ	-9494
▁design	-9495
▁projek	-9496
کت	-9497
▁ಎಂದು	-9498
ikar	-9499
נות	-9500
▁tro	-9501
▁ess	-9502
ත්ව	-9503
omas	-9504
▁quy	-9505
umbi	-9506
▁lahko	-9507
▁Port	-9508
โดย	-9509
▁Vir	-9510
ыс	-9511
▁HD	-9512
▁हि	-9513
▁থাক	-9514
ុក	-9515
▁Sec	-9516
ின	-9517
▁경	-9518
оми	-9519
งาน	-9520
▁जी	-9521
หรือ	-9522
ури	-9523
▁нэг	-9524
ာင္	-9525
ສາ	-9526
▁للم	-9527
ason	-9528
▁ਦਿੱ	-9529
ાન	-9530
ặt	-9531
▁sawi	-9532
کھ	-9533
avi	-9534
ելու	-9535
rop	-9536
▁etter	-9537
berg	-9538
▁kudu	-9539
ਨੀ	-9540
▁ukuze	-9541
zn	-9542
лап	-9543
▁Azərbay	-9544
pol	-9545
▁තිබ	-9546
ເຈ	-9547
▁ఒ	-9548
orr	-9549
▁יש	-9550
ຕ່	-9551
▁xu	-9552
inių	-9553
▁vide	-9554
ýan	-9555
▁تھا	-9556
рад	-9557
▁ദ	-9558
▁все	-9559
▁дз	-9560
yek	-9561
▁দু	-9562
liga	-9563
▁Fin	-9564
▁Mel	-9565
▁Pan	-9566
▁Fir	-9567
▁hjá	-9568
▁भएको	-9569
enden	-9570
▁тра	-9571
▁cir	-9572
ਾਈ	-9573
▁인	-9574
▁ਸਿੰਘ	-9575
▁ä	-9576
ору	-9577
ائی	-9578
úc	-9579
▁high	-9580
ahia	-9581
▁بیر	-9582
डे	-9583
وض	-9584
▁dhu	-9585
▁қал	-9586
apit	-9587
uza	-9588
▁dak	-9589
ཡང་	-9590
stra	-9591
▁website	-9592
ảo	-9593
▁duh	-9594
▁nhất	-9595
лаг	-9596
ures	-9597
אס	-9598
▁байгаа	-9599
བཟ	-9600
idas	-9601
▁teg	-9602
▁lau	-9603
كەن	-9604
▁Sem	-9605
ланы	-9606
▁blo	-9607
▁Mul	-9608
▁وك	-9609
aste	-9610
ၿပီး	-9611
▁Pu	-9612
▁ტ	-9613
ắc	-9614
azione	-9615
▁sir	-9616
არი	-9617
▁वे	-9618
icion	-9619
▁הק	-9620
కా	-9621
ረት	-9622
ния	-9623
▁ஒரு	-9624
▁ọn	-9625
▁Gar	-9626
▁più	-9627
▁uni	-9628
▁ٽ	-9629
PR	-9630
ێز	-9631
▁rah	-9632
▁তার	-9633
رام	-9634
ໂດຍ	-9635
▁పా	-9636
▁kasebut	-9637
ños	-9638
hd	-9639
▁iv	-9640
____	-9641
▁δεν	-9642
▁ඇති	-9643
usaha	-9644
ыя	-9645
ikhathi	-9646
ýa	-9647
דים	-9648
▁tempo	-9649
▁pav	-9650
▁меди	-9651
IV	-9652
▁മു	-9653
▁rok	-9654
▁εκ	-9655
▁hart	-9656
ык	-9657
▁sono	-9658
ಳ್ಳ	-9659
িয়া	-9660
మి	-9661
ುದು	-9662
ేశ	-9663
▁ric	-9664
zak	-9665
ulis	-9666
▁requ	-9667
いた	-9668
цыі	-9669
ော့	-9670
wane	-9671
▁بىلەن	-9672
▁hot	-9673
ekileyo	-9674
शन	-9675
▁rod	-9676
иту	-9677
ektor	-9678
▁fem	-9679
ຶ່ງ	-9680
▁rela	-9681
gab	-9682
▁sug	-9683
ધી	-9684
▁waa	-9685
ық	-9686
юн	-9687
cle	-9688
▁masa	-9689
▁job	-9690
ಾರ್	-9691
▁insp	-9692
འཕ	-9693
▁fant	-9694
▁luwih	-9695
оби	-9696
ែក	-9697
▁dv	-9698
▁taun	-9699
▁tahun	-9700
urg	-9701
iais	-9702
▁সে	-9703
▁адам	-9704
طف	-9705
▁قات	-9706
цу	-9707
▁mug	-9708
لې	-9709
▁уҡ	-9710
ವು	-9711
king	-9712
Ma	-9713
▁Sil	-9714
hezulu	-9715
▁naš	-9716
▁کم	-9717
AG	-9718
▁sr	-9719
▁Us	-9720
▁Мон	-9721
ebel	-9722
▁পৰা	-9723
رار	-9724
▁vs	-9725
▁distr	-9726
ྲིད་	-9727
སྒྲ	-9728
گه	-9729
ghị	-9730
▁medi	-9731
▁સુ	-9732
▁rud	-9733
šen	-9734
▁ሊ	-9735
ថ្ង	-9736
▁Nj	-9737
oe	-9738
▁Minister	-9739
amak	-9740
жээ	-9741
▁pli	-9742
▁Off	-9743
▁fav	-9744
▁jer	-9745
ڏهن	-9746
▁rê	-9747
▁خبر	-9748
ūr	-9749
عو	-9750
иль	-9751
weg	-9752
▁Ger	-9753
▁cun	-9754
▁тем	-9755
ጊዜ	-9756
ëtt	-9757
▁등	-9758
ينا	-9759
elele	-9760
ements	-9761
▁لپاره	-9762
راب	-9763
▁lum	-9764
▁kaip	-9765
▁dara	-9766
▁much	-9767
▁Cons	-9768
ថ្ងៃ	-9769
ichean	-9770
زة	-9771
▁किया	-9772
▁ខ	-9773
▁pasa	-9774
▁thành	-9775
▁hai	-9776
asar	-9777
▁хэрэг	-9778
よう	-9779
اسى	-9780
xo	-9781
ikut	-9782
ips	-9783
▁мог	-9784
▁మీ	-9785
නු	-9786
дем	-9787
циј	-9788
རྣ	-9789
▁قص	-9790
edo	-9791
ھن	-9792
യാണ്	-9793
▁list	-9794
▁બા	-9795
▁הפ	-9796
cl	-9797
▁모	-9798
▁sangat	-9799
لوم	-9800
onse	-9801
تاب	-9802
▁moment	-9803
▁հայ	-9804
inə	-9805
ục	-9806
bog	-9807
▁தொ	-9808
ife	-9809
▁dette	-9810
▁گه	-9811
▁కూ	-9812
▁epi	-9813
▁ဝ	-9814
ትዮጵያ	-9815
dat	-9816
ائل	-9817
ugh	-9818
ượng	-9819
lament	-9820
▁ја	-9821
▁ካብ	-9822
ාර්	-9823
যোগ	-9824
▁need	-9825
mä	-9826
▁حيث	-9827
రో	-9828
▁ٿا	-9829
▁ناو	-9830
▁dí	-9831
▁iza	-9832
andid	-9833
▁وی	-9834
eman	-9835
▁są	-9836
mos	-9837
ness	-9838
▁than	-9839
atie	-9840
ਣੇ	-9841
டை	-9842
▁cat	-9843
▁Ci	-9844
▁dass	-9845
ည့်	-9846
▁samo	-9847
▁Rad	-9848
ము	-9849
▁сер	-9850
▁hm	-9851
čin	-9852
▁आज	-9853
सार	-9854
erti	-9855
ଥିଲା	-9856
ابق	-9857
▁dell	-9858
▁Bak	-9859
ọd	-9860
▁vaz	-9861
▁ती	-9862
ုပ္	-9863
▁kle	-9864
बाट	-9865
▁dug	-9866
▁Ра	-9867
▁hơn	-9868
▁גר	-9869
མཚ	-9870
ấp	-9871
▁పె	-9872
▁cm	-9873
▁Max	-9874
itiv	-9875
▁тан	-9876
▁האט	-9877
▁him	-9878
▁නැ	-9879
▁system	-9880
ăr	-9881
რა	-9882
▁تۇ	-9883
▁над	-9884
elek	-9885
▁ats	-9886
ких	-9887
ৰে	-9888
▁nih	-9889
▁moet	-9890
elig	-9891
▁ś	-9892
вр	-9893
ସ୍ତ	-9894
▁नाही	-9895
▁tetahi	-9896
▁Ul	-9897
▁special	-9898
▁gob	-9899
▁გამო	-9900
ەڭ	-9901
▁mange	-9902
כול	-9903
▁vera	-9904
▁લો	-9905
▁sid	-9906
ћи	-9907
ຊາ	-9908
▁अभ	-9909
▁οι	-9910
འགྲ	-9911
▁اله	-9912
شار	-9913
័យ	-9914
▁vot	-9915
▁tapi	-9916
▁kali	-9917
▁nə	-9918
▁jav	-9919
▁prob	-9920
▁daha	-9921
ыргыз	-9922
מת	-9923
▁peny	-9924
▁सक	-9925
▁ਕੋ	-9926
ામ	-9927
▁කො	-9928
над	-9929
▁ori	-9930
ڌي	-9931
▁vien	-9932
ေရး	-9933
▁સમ	-9934
fica	-9935
▁tôi	-9936
▁azy	-9937
▁মান	-9938
ารถ	-9939
▁pus	-9940
aq	-9941
кий	-9942
▁free	-9943
▁tent	-9944
▁Twitter	-9945
▁ଫ	-9946
াৰে	-9947
lí	-9948
▁теле	-9949
ږي	-9950
ವನ್ನು	-9951
▁Aruba	-9952
▁μέ	-9953
▁چار	-9954
▁kien	-9955
▁Han	-9956
থা	-9957
▁þess	-9958
▁find	-9959
ание	-9960
▁ity	-9961
дук	-9962
▁zat	-9963
▁موقع	-9964
▁મો	-9965
bel	-9966
ху	-9967
alen	-9968
tach	-9969
amit	-9970
ċi	-9971
▁fost	-9972
▁סי	-9973
▁प्रा	-9974
▁Slov	-9975
odh	-9976
▁کرت	-9977
▁kg	-9978
ых	-9979
▁була	-9980
▁Ze	-9981
▁anal	-9982
▁prip	-9983
▁rol	-9984
▁impr	-9985
ода	-9986
σεις	-9987
дэг	-9988
ერი	-9989
▁мак	-9990
යක	-9991
▁bien	-9992
при	-9993
▁ડ	-9994
cin	-9995
tia	-9996
рал	-9997
▁dadi	-9998
ିନ	-9999
ਲੀ	-10000
дов	-10001
▁vida	-10002
ലെ	-10003
րա	-10004
மி	-10005
▁කළ	-10006
iyat	-10007
▁ଏବ	-10008
ىق	-10009
úil	-10010
âu	-10011
▁Ср	-10012
▁many	-10013
ලි	-10014
▁나	-10015
без	-10016
aron	-10017
▁הה	-10018
▁Del	-10019
عار	-10020
▁الآ	-10021
▁tren	-10022
▁דיין	-10023
▁ਉਹ	-10024
tes	-10025
ུད་	-10026
wira	-10027
▁Ass	-10028
ுவ	-10029
อร์	-10030
ofa	-10031
блем	-10032
མེད་	-10033
વે	-10034
тың	-10035
ייל	-10036
олог	-10037
ਲੇ	-10038
▁dog	-10039
log	-10040
▁일	-10041
້າງ	-10042
ادی	-10043
▁mj	-10044
▁Ce	-10045
ជន	-10046
Ch	-10047
▁sonra	-10048
The	-10049
▁కో	-10050
ambar	-10051
▁وار	-10052
▁savo	-10053
བཀ	-10054
ढ़	-10055
▁€	-10056
▁behar	-10057
ុម	-10058
▁dro	-10059
ميع	-10060
▁mua	-10061
юць	-10062
andin	-10063
▁मै	-10064
▁cuide	-10065
ئيس	-10066
zione	-10067
▁Prof	-10068
▁εν	-10069
▁vie	-10070
ungi	-10071
ិក	-10072
▁كې	-10073
▁Tak	-10074
▁نور	-10075
▁mach	-10076
чил	-10077
▁өн	-10078
atzen	-10079
רים	-10080
▁жол	-10081
▁rus	-10082
▁jako	-10083
سلم	-10084
▁prí	-10085
▁Mos	-10086
wụ	-10087
yer	-10088
▁jew	-10089
▁boleh	-10090
▁akka	-10091
▁ανα	-10092
جن	-10093
اة	-10094
▁lø	-10095
▁otu	-10096
▁бары	-10097
▁kuph	-10098
دف	-10099
ເທດ	-10100
च्	-10101
▁nước	-10102
▁dor	-10103
▁Wi	-10104
▁edhe	-10105
ções	-10106
ées	-10107
▁ohun	-10108
şy	-10109
▁Ə	-10110
▁Land	-10111
asjon	-10112
іс	-10113
▁אָדער	-10114
ук	-10115
▁፣	-10116
▁hə	-10117
▁суд	-10118
▁אח	-10119
▁eil	-10120
▁ਨਹੀਂ	-10121
kaŭ	-10122
▁פֿון	-10123
୍ରୀ	-10124
של	-10125
▁chur	-10126
алары	-10127
قط	-10128
що	-10129
▁Cha	-10130
obil	-10131
ונה	-10132
▁eur	-10133
▁ath	-10134
چە	-10135
ress	-10136
လွ	-10137
raw	-10138
ຫນ້າ	-10139
द्य	-10140
æð	-10141
▁ශ	-10142
▁pawh	-10143
ျမ	-10144
▁տար	-10145
▁স্ব	-10146
▁repres	-10147
tin	-10148
ريد	-10149
ர்கள்	-10150
وە	-10151
ileyo	-10152
ebru	-10153
ік	-10154
▁သူ	-10155
col	-10156
योग	-10157
wọn	-10158
▁Bas	-10159
▁full	-10160
▁mark	-10161
يه	-10162
شان	-10163
สิ	-10164
▁len	-10165
hor	-10166
▁Prez	-10167
▁При	-10168
inka	-10169
ρχ	-10170
にな	-10171
روع	-10172
▁động	-10173
ová	-10174
MS	-10175
▁lê	-10176
▁милли	-10177
ipp	-10178
သည္	-10179
дык	-10180
▁féidir	-10181
ţi	-10182
▁wir	-10183
erer	-10184
хай	-10185
▁май	-10186
▁wéi	-10187
іп	-10188
ಿಲ್ಲ	-10189
зер	-10190
леге	-10191
▁вак	-10192
▁COVID	-10193
▁хү	-10194
ames	-10195
дел	-10196
▁dic	-10197
ཅིག་	-10198
▁Trans	-10199
▁present	-10200
▁når	-10201
น์	-10202
ተኛ	-10203
▁قاز	-10204
▁diz	-10205
▁ns	-10206
éh	-10207
▁छन्	-10208
▁bog	-10209
▁faia	-10210
زم	-10211
▁misy	-10212
▁ယ	-10213
unum	-10214
▁hum	-10215
amar	-10216
▁ମଧ୍ୟ	-10217
▁mí	-10218
lal	-10219
▁szer	-10220
асында	-10221
वार	-10222
▁asp	-10223
ਗਾ	-10224
ផ្	-10225
▁Та	-10226
▁prij	-10227
لاح	-10228
▁lot	-10229
కో	-10230
té	-10231
ైన	-10232
ála	-10233
በረ	-10234
▁wr	-10235
wino	-10236
ာက္	-10237
▁איך	-10238
tai	-10239
ائے	-10240
sel	-10241
▁tš	-10242
ามารถ	-10243
roz	-10244
нага	-10245
▁çal	-10246
ạo	-10247
▁;	-10248
▁ਡ	-10249
ଲା	-10250
њи	-10251
ям	-10252
lama	-10253
▁ที่	-10254
▁झा	-10255
▁մաս	-10256
▁سهر	-10257
ρώ	-10258
▁finn	-10259
▁cab	-10260
achda	-10261
ປະເທດ	-10262
▁Pet	-10263
▁koja	-10264
ೊಂಡ	-10265
▁ምስ	-10266
ahana	-10267
ებული	-10268
ன்ப	-10269
▁·	-10270
▁רי	-10271
ዋል።	-10272
▁පු	-10273
šana	-10274
?”	-10275
▁bev	-10276
hle	-10277
ຸກ	-10278
▁ਹੀ	-10279
ຖະ	-10280
ції	-10281
ρισ	-10282
jec	-10283
▁სამ	-10284
▁fod	-10285
▁আগ	-10286
මු	-10287
ілі	-10288
▁минист	-10289
ใช้	-10290
▁huwa	-10291
لر	-10292
ahanglan	-10293
▁jir	-10294
áo	-10295
ុស	-10296
hị	-10297
uina	-10298
▁koa	-10299
andel	-10300
ury	-10301
qar	-10302
▁bosh	-10303
রা	-10304
▁imb	-10305
▁koma	-10306
▁oni	-10307
ሆኑ	-10308
ambe	-10309
जन	-10310
▁hes	-10311
▁viv	-10312
ลา	-10313
▁сва	-10314
▁Ve	-10315
үп	-10316
തു	-10317
▁AB	-10318
▁خاص	-10319
▁Ե	-10320
իտ	-10321
mir	-10322
স্ত	-10323
okus	-10324
әһ	-10325
erc	-10326
UL	-10327
ома	-10328
▁cost	-10329
icial	-10330
एका	-10331
ாவ	-10332
anye	-10333
▁tä	-10334
གཉ	-10335
дийн	-10336
▁Chi	-10337
amen	-10338
▁game	-10339
▁сә	-10340
▁ئام	-10341
▁מע	-10342
IF	-10343
šč	-10344
الىق	-10345
onal	-10346
aham	-10347
▁करण्या	-10348
zbek	-10349
নি	-10350
▁News	-10351
▁kommer	-10352
ୋଗ	-10353
ີນ	-10354
▁telefon	-10355
ដោយ	-10356
okat	-10357
▁atan	-10358
▁કાર	-10359
atif	-10360
lk	-10361
୍ଚ	-10362
▁tres	-10363
▁كه	-10364
▁verk	-10365
uo	-10366
▁godine	-10367
lá	-10368
ደር	-10369
тәр	-10370
▁gå	-10371
ற்க	-10372
▁Pak	-10373
▁defin	-10374
ød	-10375
ئر	-10376
▁פאר	-10377
▁тре	-10378
▁katoa	-10379
▁نيك	-10380
▁المص	-10381
▁pati	-10382
▁അവ	-10383
▁күп	-10384
▁تف	-10385
ST	-10386
ແມ່ນ	-10387
▁laik	-10388
urnal	-10389
▁yil	-10390
▁있다	-10391
▁जे	-10392
үг	-10393
▁tena	-10394
κα	-10395
dep	-10396
▁hevur	-10397
▁نوم	-10398
▁Ub	-10399
istä	-10400
чни	-10401
ency	-10402
▁cli	-10403
akit	-10404
▁Pat	-10405
▁ኮ	-10406
ੁੰ	-10407
الية	-10408
ูก	-10409
▁dhé	-10410
▁공	-10411
ڪي	-10412
غير	-10413
lygy	-10414
بی	-10415
ighe	-10416
ρέ	-10417
ків	-10418
ৰি	-10419
maq	-10420
▁বাবে	-10421
▁rob	-10422
▁मन	-10423
անակ	-10424
▁Rec	-10425
zea	-10426
▁runga	-10427
ading	-10428
▁fur	-10429
astr	-10430
ûr	-10431
▁दिन	-10432
wam	-10433
▁ngen	-10434
rea	-10435
▁લા	-10436
ຢ່າງ	-10437
▁disp	-10438
كا	-10439
nologi	-10440
▁samt	-10441
שת	-10442
itaj	-10443
តាម	-10444
нес	-10445
▁ము	-10446
▁Dat	-10447
▁kwak	-10448
вед	-10449
▁Ар	-10450
шта	-10451
▁soc	-10452
▁Sooma	-10453
čių	-10454
▁өсөн	-10455
sul	-10456
ٹی	-10457
asiy	-10458
atioun	-10459
▁tub	-10460
ೇಳ	-10461
▁ši	-10462
mp	-10463
▁pele	-10464
▁Ý	-10465
▁సం	-10466
שע	-10467
nje	-10468
▁hava	-10469
иси	-10470
▁હતી	-10471
▁geh	-10472
isit	-10473
ضي	-10474
úbl	-10475
▁hod	-10476
ம்ப	-10477
▁kwenye	-10478
ھر	-10479
▁werden	-10480
گەر	-10481
▁Part	-10482
▁ଟ	-10483
▁алар	-10484
▁יי	-10485
cas	-10486
▁tung	-10487
usus	-10488
ċċ	-10489
▁अव	-10490
▁ně	-10491
▁рас	-10492
क्रम	-10493
▁sett	-10494
▁Ј	-10495
▁ଘ	-10496
้าง	-10497
▁លោក	-10498
انى	-10499
▁نام	-10500
ël	-10501
▁करने	-10502
▁ሚ	-10503
xwe	-10504
əh	-10505
onesia	-10506
ພວກ	-10507
arna	-10508
▁verd	-10509
កម្ម	-10510
ամբ	-10511
▁ster	-10512
sc	-10513
▁mant	-10514
▁ila	-10515
▁Ҳ	-10516
rind	-10517
ekte	-10518
่าย	-10519
edy	-10520
дары	-10521
▁Ig	-10522
སུ་	-10523
▁уп	-10524
omha	-10525
▁גם	-10526
▁awm	-10527
▁նախ	-10528
▁nije	-10529
▁וועט	-10530
▁আর	-10531
▁năm	-10532
▁uyu	-10533
nal	-10534
▁occ	-10535
▁mov	-10536
כי	-10537
▁þe	-10538
▁كما	-10539
▁Η	-10540
çy	-10541
▁ਸੰ	-10542
டிய	-10543
ẫn	-10544
▁ane	-10545
▁bé	-10546
▁तथा	-10547
óp	-10548
ເວ	-10549
▁কৰিব	-10550
▁ਇੱਕ	-10551
ығ	-10552
UT	-10553
jú	-10554
སྡ	-10555
мон	-10556
▁invest	-10557
▁take	-10558
▁гэта	-10559
སློབ་	-10560
▁AM	-10561
μά	-10562
Ar	-10563
▁दा	-10564
▁mumkin	-10565
▁ც	-10566
اتو	-10567
គេ	-10568
▁mt	-10569
▁cad	-10570
ēc	-10571
ধ্য	-10572
▁دن	-10573
▁kore	-10574
▁@	-10575
▁prek	-10576
աջ	-10577
্জ	-10578
▁tö	-10579
ಿಸಿ	-10580
▁نی	-10581
បញ្	-10582
▁ukub	-10583
▁niini	-10584
▁வெ	-10585
aft	-10586
▁fia	-10587
lega	-10588
▁>	-10589
াদের	-10590
▁čas	-10591
▁lè	-10592
ਕਾ	-10593
ండి	-10594
արկ	-10595
▁jum	-10596
▁ይህ	-10597
éad	-10598
▁جۇ	-10599
tara	-10600
▁even	-10601
▁فر	-10602
▁fon	-10603
न्न	-10604
▁chak	-10605
▁số	-10606
▁prie	-10607
কার	-10608
▁IP	-10609
ண்	-10610
oval	-10611
onia	-10612
ìn	-10613
▁jau	-10614
ekti	-10615
▁Che	-10616
▁Kas	-10617
▁מק	-10618
▁बै	-10619
▁aby	-10620
▁grand	-10621
▁nên	-10622
isana	-10623
ться	-10624
ونی	-10625
▁grad	-10626
өв	-10627
▁مەن	-10628
▁আপ	-10629
នោះ	-10630
▁ded	-10631
▁fai	-10632
▁investi	-10633
ཁྲ	-10634
▁bam	-10635
▁кур	-10636
▁pris	-10637
row	-10638
နဲ႔	-10639
▁siya	-10640
▁তেও	-10641
▁dere	-10642
▁market	-10643
▁laga	-10644
▁जान	-10645
▁လူ	-10646
▁рабо	-10647
ંત	-10648
áu	-10649
▁ਬਾ	-10650
▁Sar	-10651
حميل	-10652
▁מח	-10653
য়ার	-10654
▁vat	-10655
той	-10656
▁sala	-10657
▁ਜਾਂ	-10658
▁olduğ	-10659
▁selv	-10660
ứng	-10661
▁Ib	-10662
kah	-10663
र्थ	-10664
▁ነው።	-10665
▁свет	-10666
કાર	-10667
▁ਉਸ	-10668
ත්ත	-10669
▁kans	-10670
▁kif	-10671
ży	-10672
▁kaw	-10673
ney	-10674
ਰੇ	-10675
isho	-10676
rosoft	-10677
ାଗ	-10678
ží	-10679
éng	-10680
▁sun	-10681
▁hap	-10682
▁بهر	-10683
▁ڀ	-10684
▁conf	-10685
eil	-10686
elles	-10687
ense	-10688
ोर	-10689
omm	-10690
▁Бу	-10691
ецца	-10692
ική	-10693
ταν	-10694
▁ધ	-10695
という	-10696
▁badan	-10697
▁ਉਨ੍ਹਾਂ	-10698
▁сек	-10699
િત	-10700
▁құ	-10701
▁وکړ	-10702
▁tala	-10703
▁vä	-10704
ләт	-10705
ظم	-10706
ুৱ	-10707
▁biti	-10708
▁buk	-10709
▁ဢ	-10710
▁Kos	-10711
akukan	-10712
qs	-10713
rau	-10714
iger	-10715
▁ታ	-10716
▁ένα	-10717
▁segu	-10718
hiq	-10719
▁zir	-10720
▁ότι	-10721
▁poc	-10722
ವೆ	-10723
▁۔	-10724
ັ່ງ	-10725
▁дан	-10726
▁Ros	-10727
▁kis	-10728
▁ወይ	-10729
▁mens	-10730
▁tama	-10731
▁සිට	-10732
खा	-10733
ាស់	-10734
οι	-10735
වු	-10736
▁pří	-10737
▁програ	-10738
وات	-10739
▁ഭ	-10740
ål	-10741
ເກ	-10742
▁avy	-10743
▁তেওঁ	-10744
▁мет	-10745
onz	-10746
кур	-10747
ərə	-10748
▁هر	-10749
ណ្	-10750
▁মো	-10751
քի	-10752
ାଯ	-10753
itia	-10754
▁dov	-10755
ünd	-10756
▁ഗ	-10757
стар	-10758
యు	-10759
▁υπ	-10760
▁anga	-10761
ія	-10762
あり	-10763
onj	-10764
▁जात	-10765
▁поч	-10766
ציע	-10767
▁жүр	-10768
اڭ	-10769
σα	-10770
▁düş	-10771
!!!	-10772
تو	-10773
lie	-10774
▁rất	-10775
кай	-10776
øro	-10777
▁حکومت	-10778
▁عليه	-10779
lep	-10780
▁agad	-10781
lastname	-10782
▁వె	-10783
▁agb	-10784
azzjoni	-10785
▁Kor	-10786
ਕੇ	-10787
▁Ali	-10788
▁gach	-10789
▁вер	-10790
ára	-10791
кр	-10792
▁mô	-10793
ische	-10794
▁ман	-10795
▁tog	-10796
mh	-10797
▁ime	-10798
جر	-10799
▁mama	-10800
▁autor	-10801
angkan	-10802
▁elec	-10803
▁ዕ	-10804
็บ	-10805
▁còn	-10806
དཔ	-10807
imento	-10808
▁समा	-10809
▁중	-10810
▁ئال	-10811
དབ	-10812
ments	-10813
angg	-10814
གླ	-10815
ေတာ့	-10816
יה	-10817
▁នៅ	-10818
▁sér	-10819
이다	-10820
ža	-10821
▁zas	-10822
omis	-10823
▁oss	-10824
▁сур	-10825
▁ຕ	-10826
ộc	-10827
▁yaş	-10828
▁PD	-10829
▁қар	-10830
දි	-10831
▁부	-10832
ehova	-10833
▁жар	-10834
▁aso	-10835
▁Apr	-10836
▁tara	-10837
▁وش	-10838
▁sè	-10839
යට	-10840
ႃႇ	-10841
ებით	-10842
▁industri	-10843
▁dab	-10844
▁olu	-10845
▁rá	-10846
ides	-10847
▁მა	-10848
▁sont	-10849
icos	-10850
▁kune	-10851
▁mình	-10852
▁ой	-10853
▁fis	-10854
▁Comp	-10855
▁אל	-10856
▁daug	-10857
נת	-10858
ٽر	-10859
ົກ	-10860
ίδ	-10861
▁hanya	-10862
▁പറ	-10863
მი	-10864
ոլ	-10865
▁here	-10866
▁ọzọ	-10867
▁এবং	-10868
ekî	-10869
oju	-10870
ayê	-10871
▁personal	-10872
andra	-10873
▁ugu	-10874
▁கூ	-10875
বা	-10876
▁አስ	-10877
andu	-10878
▁چو	-10879
TM	-10880
▁Mes	-10881
lib	-10882
μό	-10883
orat	-10884
▁상	-10885
▁chan	-10886
▁Беларус	-10887
uzo	-10888
▁ጋር	-10889
اهدة	-10890
maa	-10891
▁information	-10892
lalo	-10893
▁Tech	-10894
orde	-10895
ouv	-10896
کرد	-10897
▁ڳ	-10898
cak	-10899
ror	-10900
ээс	-10901
▁እዩ	-10902
▁وين	-10903
▁استعمال	-10904
▁सी	-10905
▁गु	-10906
▁hvor	-10907
▁mane	-10908
ơi	-10909
▁minut	-10910
▁επι	-10911
▁nut	-10912
ब्	-10913
jiet	-10914
ໍາລ	-10915
▁kuko	-10916
▁قىل	-10917
▁ను	-10918
itä	-10919
omet	-10920
▁mav	-10921
▁poder	-10922
.+	-10923
êr	-10924
ợp	-10925
▁oe	-10926
ാന്	-10927
inthu	-10928
▁করা	-10929
ēl	-10930
lẹ	-10931
▁дей	-10932
▁პრო	-10933
jin	-10934
▁Para	-10935
▁base	-10936
եմ	-10937
क्षा	-10938
ads	-10939
▁Hol	-10940
▁bef	-10941
▁ຄ	-10942
ាញ	-10943
ojo	-10944
▁Sim	-10945
جان	-10946
▁بعض	-10947
▁اون	-10948
уы	-10949
الة	-10950
elli	-10951
ਦਰ	-10952
վում	-10953
لس	-10954
▁Ն	-10955
وص	-10956
सि	-10957
▁стан	-10958
▁ਰਾ	-10959
▁organis	-10960
িতে	-10961
אָן	-10962
дент	-10963
ራዊ	-10964
zio	-10965
ере	-10966
ም።	-10967
▁adam	-10968
žu	-10969
▁ā	-10970
▁nn	-10971
ipas	-10972
▁مال	-10973
▁гру	-10974
ovana	-10975
ygg	-10976
വും	-10977
▁ஏ	-10978
enia	-10979
▁denne	-10980
▁සම	-10981
वन	-10982
▁সম্প	-10983
▁ಹೊ	-10984
atasi	-10985
ច្ច	-10986
▁diri	-10987
▁differ	-10988
ėt	-10989
olar	-10990
▁gum	-10991
تىپ	-10992
ml	-10993
ێر	-10994
▁урын	-10995
adores	-10996
▁Europe	-10997
شا	-10998
ምን	-10999
ລິ	-11000
לעך	-11001
▁Ok	-11002
ల్లో	-11003
तो	-11004
ване	-11005
ystem	-11006
út	-11007
▁cop	-11008
යෙන්	-11009
zia	-11010
ंक	-11011
ром	-11012
тик	-11013
ška	-11014
▁oswa	-11015
സി	-11016
ئن	-11017
పో	-11018
▁เพ	-11019
ebenzisa	-11020
▁bildir	-11021
imal	-11022
siya	-11023
▁iyang	-11024
जार	-11025
anak	-11026
▁महि	-11027
īb	-11028
▁jal	-11029
ລ້	-11030
▁riv	-11031
atar	-11032
සේ	-11033
ედ	-11034
olla	-11035
▁egin	-11036
urin	-11037
▁kell	-11038
ịrị	-11039
▁үш	-11040
פט	-11041
▁जन	-11042
▁പോ	-11043
▁Instagram	-11044
irik	-11045
▁moż	-11046
дно	-11047
ilis	-11048
▁dawn	-11049
▁кард	-11050
▁پنهن	-11051
▁Het	-11052
न्ह	-11053
ığ	-11054
ेर	-11055
ደረ	-11056
▁жер	-11057
▁Sport	-11058
æl	-11059
▁را	-11060
▁huk	-11061
▁oba	-11062
▁process	-11063
▁ጊዜ	-11064
ắt	-11065
кат	-11066
▁اك	-11067
▁know	-11068
▁same	-11069
עות	-11070
ಲೆ	-11071
рес	-11072
▁Hotel	-11073
▁см	-11074
ရွိ	-11075
▁നട	-11076
▁total	-11077
zar	-11078
▁perso	-11079
▁cael	-11080
▁сол	-11081
જી	-11082
▁only	-11083
үүд	-11084
cijas	-11085
етті	-11086
മ്മ	-11087
සි	-11088
▁Of	-11089
ুলি	-11090
qi	-11091
▁programa	-11092
▁ਪਰ	-11093
▁wali	-11094
usk	-11095
▁English	-11096
▁zina	-11097
orta	-11098
▁المح	-11099
▁wag	-11100
▁համար	-11101
▁yake	-11102
ҙар	-11103
ిక	-11104
ଦ୍	-11105
ekl	-11106
ၾကာ	-11107
ilen	-11108
▁Sr	-11109
བཞིན་	-11110
▁эк	-11111
لاب	-11112
ights	-11113
wenza	-11114
лын	-11115
ບໍ	-11116
фта	-11117
riend	-11118
▁dá	-11119
▁telev	-11120
▁ከተ	-11121
λλά	-11122
ضع	-11123
▁nthawi	-11124
▁voc	-11125
▁बना	-11126
▁علا	-11127
▁ný	-11128
▁საქ	-11129
▁সু	-11130
▁Intern	-11131
▁todo	-11132
اسی	-11133
ये	-11134
ୁର	-11135
▁شوي	-11136
yv	-11137
idwe	-11138
éieren	-11139
өз	-11140
icu	-11141
▁fá	-11142
ેશ	-11143
▁nost	-11144
ຕິ	-11145
თან	-11146
▁chính	-11147
▁these	-11148
ид	-11149
جو	-11150
ểm	-11151
▁Sta	-11152
▁kost	-11153
▁über	-11154
atanga	-11155
▁anya	-11156
ён	-11157
▁back	-11158
елә	-11159
حن	-11160
EK	-11161
ưa	-11162
▁Ю	-11163
▁זיך	-11164
ční	-11165
เง	-11166
▁Sab	-11167
▁ዝተ	-11168
gawe	-11169
нат	-11170
▁meta	-11171
▁אות	-11172
ຽງ	-11173
гаар	-11174
▁ô	-11175
▁zad	-11176
des	-11177
hon	-11178
mış	-11179
vod	-11180
сько	-11181
▁लोग	-11182
ात्र	-11183
▁என	-11184
▁vam	-11185
མཆ	-11186
▁أس	-11187
▁ضر	-11188
uly	-11189
îne	-11190
▁jadi	-11191
ٹر	-11192
ịnh	-11193
icar	-11194
▁efter	-11195
▁hoki	-11196
いて	-11197
▁Jawa	-11198
ូច	-11199
ួល	-11200
▁بط	-11201
ebr	-11202
ขึ	-11203
ष्ट्र	-11204
เม	-11205
unz	-11206
तात	-11207
RA	-11208
▁ಹೆ	-11209
eles	-11210
ต่อ	-11211
جد	-11212
ੋਕ	-11213
այն	-11214
▁طالب	-11215
▁ବା	-11216
tean	-11217
qan	-11218
لات	-11219
edza	-11220
▁tiế	-11221
▁jos	-11222
▁ps	-11223
נד	-11224
وند	-11225
▁কৰে	-11226
ій	-11227
dur	-11228
▁neces	-11229
▁ngad	-11230
pla	-11231
akhala	-11232
şi	-11233
ขึ้น	-11234
▁меш	-11235
ford	-11236
▁הס	-11237
▁মহ	-11238
▁hua	-11239
ંદ	-11240
estival	-11241
તે	-11242
ibo	-11243
▁sosi	-11244
IG	-11245
▁yw	-11246
▁Van	-11247
ப்பு	-11248
▁ira	-11249
▁ਪੰ	-11250
োর	-11251
▁ਤੁ	-11252
PA	-11253
▁шуд	-11254
▁zah	-11255
лин	-11256
्ञ	-11257
yaka	-11258
▁ри	-11259
ម្បី	-11260
▁ის	-11261
▁nim	-11262
ವಾಗಿ	-11263
▁نە	-11264
בים	-11265
▁keb	-11266
চ্	-11267
enteu	-11268
δο	-11269
iyê	-11270
hiya	-11271
▁chin	-11272
تە	-11273
яв	-11274
▁kud	-11275
זה	-11276
▁Kab	-11277
ால	-11278
▁dispon	-11279
▁hợp	-11280
ativa	-11281
קט	-11282
tics	-11283
▁idi	-11284
ahu	-11285
▁ਸਰ	-11286
කු	-11287
▁վեր	-11288
েম	-11289
onde	-11290
ពុ	-11291
▁मान	-11292
▁Ein	-11293
ائين	-11294
▁persona	-11295
▁Gener	-11296
▁ويو	-11297
▁تس	-11298
▁ист	-11299
rij	-11300
erte	-11301
▁nako	-11302
▁She	-11303
........	-11304
▁komun	-11305
ıb	-11306
▁చి	-11307
ତା	-11308
ើន	-11309
qda	-11310
േഷ	-11311
jas	-11312
ەتی	-11313
▁bakeng	-11314
ില്ല	-11315
ىنا	-11316
▁бе	-11317
▁Dev	-11318
▁langs	-11319
▁yol	-11320
▁ук	-11321
▁oge	-11322
erste	-11323
jonijiet	-11324
▁आहेत	-11325
▁ain	-11326
▁tari	-11327
bre	-11328
▁modern	-11329
▁Seg	-11330
iset	-11331
ម៉	-11332
▁War	-11333
▁לח	-11334
ຫາ	-11335
ູນ	-11336
▁prv	-11337
▁AN	-11338
нем	-11339
्ड	-11340
▁nalika	-11341
වර	-11342
▁isa	-11343
▁luchd	-11344
▁kommun	-11345
▁karena	-11346
ekwa	-11347
▁আহ	-11348
▁shum	-11349
▁година	-11350
▁ilang	-11351
▁स्व	-11352
▁ڪي	-11353
בות	-11354
▁از	-11355
▁کورد	-11356
▁га	-11357
▁taka	-11358
енер	-11359
Sh	-11360
▁št	-11361
ូន	-11362
ុខ	-11363
▁לב	-11364
nir	-11365
íocht	-11366
▁কোন	-11367
??	-11368
▁लि	-11369
▁secara	-11370
िएको	-11371
ཀྱིས་	-11372
ଳି	-11373
ази	-11374
▁lui	-11375
کار	-11376
дагы	-11377
nú	-11378
àna	-11379
▁ax	-11380
▁iny	-11381
ħħ	-11382
▁ninu	-11383
nah	-11384
གནང་	-11385
ەند	-11386
▁lọ	-11387
ért	-11388
wiritsa	-11389
ылган	-11390
▁would	-11391
ಡ್	-11392
▁firstname	-11393
cis	-11394
▁tank	-11395
olas	-11396
▁भने	-11397
▁kwem	-11398
ندق	-11399
elj	-11400
xs	-11401
▁primer	-11402
يغ	-11403
▁সময়	-11404
ေလ	-11405
▁Ü	-11406
ாத	-11407
നി	-11408
ენტ	-11409
▁ngu	-11410
▁wɔ	-11411
ണം	-11412
▁iray	-11413
ଷ୍ଟ	-11414
▁кез	-11415
▁unu	-11416
ання	-11417
▁nit	-11418
ოდ	-11419
▁guh	-11420
ấn	-11421
▁lokal	-11422
ampa	-11423
ré	-11424
ذلك	-11425
zą	-11426
▁Dec	-11427
▁ගැන	-11428
▁amer	-11429
BA	-11430
▁నా	-11431
not	-11432
▁خل	-11433
▁popul	-11434
▁fakt	-11435
▁faz	-11436
▁ngati	-11437
icas	-11438
եռ	-11439
ھي	-11440
▁ច	-11441
▁yaz	-11442
▁ਕੀਤਾ	-11443
ims	-11444
teach	-11445
▁ariko	-11446
▁Cent	-11447
▁Resp	-11448
▁bude	-11449
ashon	-11450
ík	-11451
▁Bet	-11452
cias	-11453
nou	-11454
▁tawh	-11455
▁edo	-11456
▁देश	-11457
çe	-11458
еді	-11459
▁fat	-11460
▁gud	-11461
▁hou	-11462
▁ဒီ	-11463
▁nhân	-11464
▁រ	-11465
্ৰী	-11466
లను	-11467
itti	-11468
▁gang	-11469
чә	-11470
wur	-11471
ান্ত	-11472
່ມ	-11473
izin	-11474
okrat	-11475
▁සඳ	-11476
EG	-11477
▁etc	-11478
▁hag	-11479
ој	-11480
▁izi	-11481
▁tus	-11482
ទ្	-11483
हित	-11484
oren	-11485
▁жет	-11486
úl	-11487
▁Sin	-11488
▁جب	-11489
əd	-11490
ۈچ	-11491
ünk	-11492
soci	-11493
▁Ug	-11494
▁དེ་	-11495
▁შემ	-11496
▁xe	-11497
▁ملي	-11498
▁ہم	-11499
▁મળ	-11500
▁പി	-11501
▁ಬೆ	-11502
ạt	-11503
▁Ya	-11504
off	-11505
▁every	-11506
▁io	-11507
▁пас	-11508
лож	-11509
▁stra	-11510
▁pral	-11511
▁Ay	-11512
▁Son	-11513
för	-11514
▁vagy	-11515
icia	-11516
▁کہا	-11517
▁altern	-11518
ிக்க	-11519
▁zn	-11520
itika	-11521
▁pand	-11522
▁zdrav	-11523
ாம்	-11524
▁muh	-11525
ahịa	-11526
▁gebru	-11527
upan	-11528
ຫຼາຍ	-11529
▁ومن	-11530
cións	-11531
▁ਘ	-11532
arang	-11533
▁പു	-11534
त्य	-11535
nym	-11536
▁look	-11537
חה	-11538
▁bob	-11539
▁गया	-11540
▁ול	-11541
tres	-11542
▁local	-11543
ེད།	-11544
▁aks	-11545
форма	-11546
▁fort	-11547
стер	-11548
▁mě	-11549
ண்டு	-11550
CO	-11551
▁saf	-11552
▁المق	-11553
امی	-11554
ित्र	-11555
weza	-11556
וך	-11557
▁gali	-11558
udu	-11559
▁lev	-11560
៊ី	-11561
arios	-11562
▁אז	-11563
باد	-11564
egar	-11565
▁viņ	-11566
St	-11567
май	-11568
▁lei	-11569
▁njih	-11570
ную	-11571
κο	-11572
atia	-11573
▁Jan	-11574
▁datt	-11575
φο	-11576
▁څخه	-11577
ៀត	-11578
མང་	-11579
▁Azərbaycan	-11580
▁बाद	-11581
xh	-11582
▁있는	-11583
اهر	-11584
▁Awọn	-11585
▁биз	-11586
▁več	-11587
මි	-11588
▁taj	-11589
र्म	-11590
unaan	-11591
šan	-11592
▁mọ	-11593
ಾಗಿದೆ	-11594
afa	-11595
▁ýa	-11596
▁Cymru	-11597
କାର	-11598
▁baik	-11599
▁zit	-11600
SS	-11601
ทั้ง	-11602
ného	-11603
▁noho	-11604
üy	-11605
ând	-11606
▁Мар	-11607
▁aro	-11608
▁দেখ	-11609
▁ಇದ	-11610
▁انا	-11611
ிறது	-11612
ਟਰ	-11613
▁EU	-11614
▁වෙන	-11615
▁politik	-11616
ift	-11617
ikia	-11618
ља	-11619
ونا	-11620
wlet	-11621
▁хий	-11622
▁ہی	-11623
▁tulaga	-11624
▁tua	-11625
▁оч	-11626
انية	-11627
ើម្បី	-11628
▁identi	-11629
lardan	-11630
иш	-11631
▁scr	-11632
aaoga	-11633
བར་	-11634
ုတ်	-11635
ນັ້ນ	-11636
larını	-11637
▁kec	-11638
ât	-11639
では	-11640
▁haholo	-11641
ांग	-11642
▁aux	-11643
▁като	-11644
▁ahịa	-11645
▁লগ	-11646
inder	-11647
▁otro	-11648
ដល់	-11649
▁पो	-11650
íð	-11651
▁thời	-11652
▁లే	-11653
nach	-11654
▁nda	-11655
▁Online	-11656
னர்	-11657
nica	-11658
rof	-11659
িং	-11660
▁בח	-11661
කි	-11662
▁ade	-11663
ुक	-11664
eling	-11665
aliya	-11666
ighinn	-11667
▁Latv	-11668
kv	-11669
▁ngam	-11670
▁India	-11671
▁cuk	-11672
▁kara	-11673
embre	-11674
ايي	-11675
تها	-11676
▁ဖ	-11677
▁cin	-11678
ಚ್ಚ	-11679
ध्यक्ष	-11680
▁کړي	-11681
ريب	-11682
íochta	-11683
ubi	-11684
བྱུང་	-11685
രാ	-11686
▁consider	-11687
ēs	-11688
मुळे	-11689
oter	-11690
ово	-11691
elor	-11692
▁ngày	-11693
▁mgbe	-11694
іт	-11695
▁अन	-11696
▁mwaka	-11697
▁गरेको	-11698
LA	-11699
▁পার	-11700
▁litt	-11701
▁gyda	-11702
▁пор	-11703
alle	-11704
▁বিভ	-11705
▁ishl	-11706
▁ծ	-11707
يلة	-11708
▁viet	-11709
uge	-11710
ក្រុម	-11711
▁باب	-11712
xim	-11713
σι	-11714
ია	-11715
rachadh	-11716
כת	-11717
▁tras	-11718
عود	-11719
▁klas	-11720
ালে	-11721
Un	-11722
indən	-11723
▁Isra	-11724
▁minist	-11725
▁Pos	-11726
omu	-11727
uden	-11728
ርስ	-11729
▁signi	-11730
ধান	-11731
▁né	-11732
λογ	-11733
বার	-11734
гуу	-11735
▁кара	-11736
▁vec	-11737
▁motor	-11738
▁United	-11739
▁jet	-11740
దా	-11741
ัย	-11742
▁ranei	-11743
▁kvalit	-11744
▁trí	-11745
аи	-11746
irm	-11747
▁కూడా	-11748
জে	-11749
▁ጠ	-11750
▁මහ	-11751
îna	-11752
▁исп	-11753
▁wake	-11754
บริ	-11755
▁Sv	-11756
utta	-11757
▁máis	-11758
ప్పు	-11759
▁mö	-11760
erta	-11761
App	-11762
▁yay	-11763
▁Char	-11764
cı	-11765
▁ვ	-11766
ىتى	-11767
اقت	-11768
▁সা	-11769
ánh	-11770
were	-11771
рэ	-11772
ړي	-11773
wari	-11774
▁roku	-11775
яти	-11776
▁וב	-11777
▁۱	-11778
लि	-11779
เช	-11780
imą	-11781
ander	-11782
▁projekt	-11783
རྟ	-11784
▁ਜ਼	-11785
माण	-11786
▁tabata	-11787
еч	-11788
ناء	-11789
▁වන	-11790
▁Kun	-11791
رياض	-11792
▁méi	-11793
▁pela	-11794
til	-11795
▁وا	-11796
fh	-11797
▁мод	-11798
อด	-11799
ніка	-11800
▁Austr	-11801
▁math	-11802
лим	-11803
ība	-11804
ombe	-11805
▁ਐ	-11806
вол	-11807
ກະ	-11808
imana	-11809
▁fha	-11810
њу	-11811
▁wit	-11812
արդ	-11813
▁хүр	-11814
kung	-11815
▁ທ	-11816
மாக	-11817
ವಾ	-11818
▁үч	-11819
хий	-11820
etik	-11821
ຖື	-11822
▁ಲ	-11823
▁yng	-11824
▁Set	-11825
indo	-11826
’,	-11827
▁lugar	-11828
ියා	-11829
▁عمر	-11830
లకు	-11831
▁rezult	-11832
jó	-11833
ອາ	-11834
isme	-11835
▁Bank	-11836
▁түр	-11837
▁Nav	-11838
▁با	-11839
▁تې	-11840
usahaan	-11841
▁bụrụ	-11842
▁mogu	-11843
တော့	-11844
nod	-11845
▁gc	-11846
でき	-11847
hte	-11848
azz	-11849
īv	-11850
ങ്ങള്	-11851
ىش	-11852
▁жұ	-11853
vern	-11854
্ভ	-11855
▁پہ	-11856
▁ร	-11857
▁gag	-11858
нос	-11859
יות	-11860
ekh	-11861
్రా	-11862
ถึง	-11863
▁شخص	-11864
ало	-11865
▁તમા	-11866
▁кот	-11867
▁зем	-11868
▁gikan	-11869
▁todos	-11870
▁ezin	-11871
▁By	-11872
್ಯಾ	-11873
▁zaman	-11874
ığı	-11875
▁bho	-11876
▁zum	-11877
▁teng	-11878
▁aye	-11879
▁Tal	-11880
อยู่	-11881
▁أخ	-11882
▁ran	-11883
▁tabi	-11884
▁tart	-11885
ols	-11886
▁thế	-11887
▁går	-11888
▁ሳ	-11889
ייַט	-11890
▁polo	-11891
▁어	-11892
тып	-11893
ເຮັດ	-11894
ွား	-11895
▁κά	-11896
▁học	-11897
▁Bay	-11898
շխ	-11899
ulta	-11900
▁Las	-11901
ਣੀ	-11902
alka	-11903
▁киш	-11904
សេ	-11905
▁darb	-11906
ստ	-11907
लय	-11908
▁વધ	-11909
▁रुप	-11910
بح	-11911
▁Cy	-11912
▁Sz	-11913
▁mme	-11914
ប្រទេស	-11915
rim	-11916
▁mong	-11917
▁weer	-11918
anno	-11919
ུམ་	-11920
бан	-11921
דה	-11922
rob	-11923
▁mih	-11924
ាជ	-11925
▁kada	-11926
▁hotel	-11927
ави	-11928
▁рӯ	-11929
▁gaan	-11930
▁anns	-11931
ireadh	-11932
▁گیا	-11933
▁ਗਿਆ	-11934
ვენ	-11935
øre	-11936
td	-11937
ଙ୍ଗ	-11938
▁ush	-11939
▁nej	-11940
▁Hu	-11941
▁eich	-11942
fur	-11943
▁Aus	-11944
▁lwe	-11945
മായ	-11946
▁vál	-11947
▁જા	-11948
lach	-11949
▁Tom	-11950
ҙың	-11951
ទ្ធ	-11952
▁Baş	-11953
▁tud	-11954
▁World	-11955
▁wam	-11956
▁Play	-11957
สามารถ	-11958
ਿਰ	-11959
ős	-11960
तील	-11961
лад	-11962
sal	-11963
éta	-11964
ച്ച്	-11965
әлә	-11966
▁mari	-11967
ụọ	-11968
asında	-11969
▁Bah	-11970
ону	-11971
ستى	-11972
दि	-11973
ствен	-11974
▁Γ	-11975
рым	-11976
هك	-11977
ojnë	-11978
isia	-11979
▁conv	-11980
்கள்	-11981
▁деген	-11982
▁bari	-11983
▁famili	-11984
▁ಕಾರ	-11985
▁Lond	-11986
यो	-11987
▁ly	-11988
▁тип	-11989
andy	-11990
rej	-11991
etseng	-11992
ळी	-11993
امي	-11994
ี่ย	-11995
ữa	-11996
▁која	-11997
▁өт	-11998
▁በማ	-11999
lands	-12000
▁אונדז	-12001
wag	-12002
ningen	-12003
ĝo	-12004
▁고	-12005
▁gyn	-12006
യ്	-12007
เงิน	-12008
▁գործ	-12009
▁nta	-12010
ốn	-12011
ring	-12012
tige	-12013
arat	-12014
äit	-12015
สํา	-12016
juk	-12017
eral	-12018
▁ഈ	-12019
▁والت	-12020
ורה	-12021
▁دغه	-12022
▁פּל	-12023
▁רע	-12024
▁iṣ	-12025
▁hen	-12026
कारी	-12027
▁Türkmenist	-12028
▁لكن	-12029
▁institu	-12030
▁Bil	-12031
उँ	-12032
▁गो	-12033
▁это	-12034
ກ່າວ	-12035
erapa	-12036
▁Со	-12037
▁mic	-12038
ेत्र	-12039
▁сум	-12040
▁material	-12041
নের	-12042
ייש	-12043
▁않	-12044
undan	-12045
▁hard	-12046
▁مختلف	-12047
▁ე	-12048
▁anche	-12049
▁bikin	-12050
▁Biz	-12051
طن	-12052
ogen	-12053
सर	-12054
▁المس	-12055
ег	-12056
▁พ	-12057
ے۔	-12058
erna	-12059
▁ක්ර	-12060
پور	-12061
▁кул	-12062
مەت	-12063
ҙе	-12064
▁دول	-12065
дв	-12066
ཁང་	-12067
สุด	-12068
akam	-12069
ουμε	-12070
▁બે	-12071
เข้า	-12072
▁մե	-12073
וף	-12074
▁göz	-12075
▁소	-12076
▁၁	-12077
▁verið	-12078
.|	-12079
antos	-12080
▁cách	-12081
onna	-12082
▁мам	-12083
▁بہ	-12084
▁ئهو	-12085
▁gab	-12086
ipada	-12087
▁бор	-12088
▁origin	-12089
बी	-12090
▁bağ	-12091
▁Հայ	-12092
▁þar	-12093
ampani	-12094
డం	-12095
▁constru	-12096
kö	-12097
eran	-12098
▁وان	-12099
▁üz	-12100
ত্ত	-12101
▁Nan	-12102
aling	-12103
ەوەی	-12104
ائر	-12105
▁қыз	-12106
▁마	-12107
▁произ	-12108
win	-12109
તું	-12110
แบบ	-12111
▁አይ	-12112
ekom	-12113
▁ئىش	-12114
wwer	-12115
чка	-12116
▁sản	-12117
▁منت	-12118
ної	-12119
▁Indonesia	-12120
▁хэл	-12121
▁الأم	-12122
ীয়া	-12123
▁ذلك	-12124
▁ಕೆ	-12125
▁बी	-12126
▁oko	-12127
▁Red	-12128
անում	-12129
ayaan	-12130
lap	-12131
▁lem	-12132
hul	-12133
▁Mit	-12134
▁लागि	-12135
▁Bat	-12136
ನಾ	-12137
▁وإ	-12138
▁ер	-12139
enten	-12140
yet	-12141
rib	-12142
▁ءب	-12143
▁उस	-12144
▁bash	-12145
ẩm	-12146
ជាតិ	-12147
▁אפ	-12148
▁хал	-12149
umas	-12150
▁před	-12151
eft	-12152
ίσ	-12153
▁لك	-12154
▁pêş	-12155
နှင့်	-12156
يز	-12157
ျခ	-12158
уз	-12159
ongan	-12160
▁commun	-12161
णार	-12162
നു	-12163
mana	-12164
าว	-12165
ผล	-12166
▁සං	-12167
صول	-12168
▁henteu	-12169
▁memil	-12170
ombo	-12171
cə	-12172
קל	-12173
▁sein	-12174
▁וא	-12175
рас	-12176
▁kultur	-12177
žd	-12178
εται	-12179
▁דורך	-12180
ంతో	-12181
asana	-12182
▁perlu	-12183
ুক	-12184
tip	-12185
▁lý	-12186
▁ngar	-12187
ຍັງ	-12188
▁مز	-12189
▁hos	-12190
ડા	-12191
wyn	-12192
ajn	-12193
▁optim	-12194
▁samb	-12195
▁၂	-12196
tahi	-12197
ovid	-12198
ream	-12199
urut	-12200
▁penting	-12201
াণ	-12202
▁ຊ	-12203
روض	-12204
ართვე	-12205
ีก	-12206
ric	-12207
אַלי	-12208
▁අතර	-12209
▁элек	-12210
шти	-12211
стро	-12212
▁algun	-12213
čiau	-12214
လည်း	-12215
▁fond	-12216
▁delle	-12217
ща	-12218
upun	-12219
▁tso	-12220
▁তিনি	-12221
▁اسلام	-12222
▁Cont	-12223
▁يمكن	-12224
ches	-12225
တွင်	-12226
િવ	-12227
▁Rev	-12228
▁تک	-12229
▁لیے	-12230
్వ	-12231
▁York	-12232
ට්	-12233
્યારે	-12234
▁ī	-12235
kul	-12236
work	-12237
▁điều	-12238
▁dè	-12239
▁telef	-12240
inos	-12241
▁مصر	-12242
ླ་	-12243
टे	-12244
▁Ó	-12245
jev	-12246
înin	-12247
▁دەر	-12248
୍ୱ	-12249
هد	-12250
မႈ	-12251
▁manera	-12252
েষ	-12253
▁seks	-12254
▁эле	-12255
▁боль	-12256
ଲେ	-12257
ାୟ	-12258
িচ	-12259
▁solo	-12260
▁publik	-12261
έρ	-12262
alary	-12263
umen	-12264
ສາມ	-12265
قات	-12266
زی	-12267
stvo	-12268
вен	-12269
▁العام	-12270
▁האָט	-12271
▁ਯ	-12272
ెం	-12273
▁qur	-12274
▁Ts	-12275
▁DE	-12276
▁पू	-12277
▁dò	-12278
▁Татар	-12279
ോഗ	-12280
hil	-12281
འཛིན་	-12282
▁Id	-12283
An	-12284
CH	-12285
esen	-12286
▁nous	-12287
िक्ष	-12288
rap	-12289
کې	-12290
▁Ven	-12291
oge	-12292
жу	-12293
▁både	-12294
▁ഫ	-12295
נית	-12296
rs	-12297
▁проблем	-12298
ọọ	-12299
▁מאַ	-12300
▁ଅନ	-12301
ագր	-12302
hani	-12303
ást	-12304
▁ፈ	-12305
▁durante	-12306
▁Pla	-12307
▁fif	-12308
üs	-12309
▁कहा	-12310
imen	-12311
には	-12312
▁تۇر	-12313
▁Aug	-12314
▁resta	-12315
▁Qırım	-12316
▁رهي	-12317
стру	-12318
කර	-12319
▁کوي	-12320
amil	-12321
▁കോ	-12322
▁Krist	-12323
▁pis	-12324
cep	-12325
▁pagp	-12326
▁సిని	-12327
irim	-12328
▁लग	-12329
ხო	-12330
дөр	-12331
skog	-12332
▁קל	-12333
▁business	-12334
▁Islam	-12335
ិប	-12336
▁ମୁ	-12337
▁tanpa	-12338
▁Pag	-12339
▁cyf	-12340
▁Paul	-12341
មន	-12342
ốt	-12343
ၢႆ	-12344
▁niin	-12345
▁Microsoft	-12346
▁run	-12347
▁prakt	-12348
▁sempre	-12349
སྤྱི་	-12350
▁фар	-12351
▁உள்ள	-12352
inal	-12353
ลง	-12354
သော	-12355
aris	-12356
ವಿ	-12357
rov	-12358
▁বিষ	-12359
шо	-12360
anyi	-12361
тур	-12362
set	-12363
্ল	-12364
ໃຊ	-12365
दार	-12366
▁makan	-12367
ారం	-12368
ано	-12369
šie	-12370
ונות	-12371
▁kirin	-12372
▁alb	-12373
▁Program	-12374
▁artic	-12375
▁kond	-12376
ប៉	-12377
▁taua	-12378
▁sg	-12379
▁հան	-12380
upakan	-12381
▁ინ	-12382
ият	-12383
tụtụ	-12384
ەق	-12385
▁тек	-12386
elana	-12387
▁home	-12388
ເຂົ້າ	-12389
ര്യ	-12390
ليم	-12391
ומען	-12392
▁gall	-12393
▁níos	-12394
▁Aqu	-12395
▁inne	-12396
πα	-12397
ซึ่ง	-12398
▁waxaa	-12399
час	-12400
ева	-12401
mark	-12402
வே	-12403
ọdụ	-12404
ється	-12405
فة	-12406
OP	-12407
фар	-12408
ograph	-12409
шты	-12410
▁гэж	-12411
angal	-12412
མཁ	-12413
▁Bh	-12414
ىسى	-12415
ၵ်ႈ	-12416
ێژ	-12417
▁ndetse	-12418
▁normal	-12419
lh	-12420
တီ	-12421
oven	-12422
istik	-12423
ref	-12424
▁त्य	-12425
▁여	-12426
▁preg	-12427
เกม	-12428
▁disk	-12429
▁الاس	-12430
▁jas	-12431
بات	-12432
วัน	-12433
▁Jer	-12434
▁فيه	-12435
▁представ	-12436
▁paz	-12437
▁හි	-12438
inė	-12439
▁ден	-12440
▁cơ	-12441
▁હોય	-12442
▁định	-12443
indawo	-12444
धार	-12445
מים	-12446
▁پا	-12447
াতে	-12448
▁Blu	-12449
কাৰ	-12450
▁ၼ	-12451
▁Jeg	-12452
▁بوو	-12453
యం	-12454
▁ọk	-12455
▁mā	-12456
ëve	-12457
tek	-12458
▁кеш	-12459
ING	-12460
arka	-12461
ikiz	-12462
▁Fre	-12463
araka	-12464
▁Bib	-12465
pel	-12466
▁לפ	-12467
▁menc	-12468
▁саб	-12469
କା	-12470
▁ਮੰ	-12471
▁muz	-12472
▁niile	-12473
وى	-12474
ਾਇ	-12475
ത്യ	-12476
▁negara	-12477
్రి	-12478
この	-12479
▁ժ	-12480
▁fiz	-12481
▁ପା	-12482
dien	-12483
ување	-12484
थि	-12485
ibon	-12486
හු	-12487
སྦ	-12488
وره	-12489
MA	-12490
ാം	-12491
unun	-12492
▁אר	-12493
▁strateg	-12494
šte	-12495
▁lub	-12496
▁Top	-12497
▁Ви	-12498
isht	-12499
▁kön	-12500
ικά	-12501
▁тол	-12502
zzjoni	-12503
▁தெ	-12504
▁ваш	-12505
onto	-12506
িক্ষ	-12507
▁hul	-12508
اريخ	-12509
▁Inform	-12510
▁זייער	-12511
ாள	-12512
▁yakho	-12513
▁dub	-12514
▁kwes	-12515
lič	-12516
ક્ષ	-12517
tib	-12518
▁fik	-12519
▁hiyo	-12520
ują	-12521
edig	-12522
▁masih	-12523
▁usab	-12524
▁Мак	-12525
▁خدم	-12526
សម	-12527
▁Аз	-12528
▁vos	-12529
▁кои	-12530
▁հար	-12531
పై	-12532
▁ઓ	-12533
▁tlh	-12534
ദേ	-12535
ares	-12536
рок	-12537
▁jira	-12538
నీ	-12539
▁Sum	-12540
τας	-12541
▁iom	-12542
▁соли	-12543
چی	-12544
ifukwa	-12545
▁Украї	-12546
ਤਰ	-12547
▁dike	-12548
etuv	-12549
icio	-12550
▁해	-12551
▁جدا	-12552
▁דר	-12553
▁يح	-12554
▁내	-12555
▁год	-12556
▁tasi	-12557
▁тала	-12558
▁sử	-12559
▁הג	-12560
▁radi	-12561
gol	-12562
▁ऐ	-12563
atsa	-12564
▁오	-12565
unci	-12566
ното	-12567
▁هنا	-12568
зидент	-12569
▁hub	-12570
!”	-12571
කා	-12572
клю	-12573
▁tiek	-12574
اده	-12575
ڙي	-12576
▁балалар	-12577
นั้น	-12578
▁lie	-12579
шон	-12580
▁ала	-12581
▁بالم	-12582
▁ట	-12583
▁వా	-12584
organ	-12585
აკ	-12586
▁Ach	-12587
འཇ	-12588
▁లో	-12589
▁Sl	-12590
idagi	-12591
पुर	-12592
धा	-12593
▁git	-12594
▁myös	-12595
უნ	-12596
دىغان	-12597
▁ég	-12598
▁Респ	-12599
लं	-12600
▁итә	-12601
▁last	-12602
راج	-12603
▁зат	-12604
rian	-12605
ћа	-12606
▁nin	-12607
▁घर	-12608
აცი	-12609
нас	-12610
▁hefur	-12611
▁הנ	-12612
▁now	-12613
▁semua	-12614
▁gip	-12615
▁Ҷ	-12616
▁vart	-12617
▁እቲ	-12618
▁apik	-12619
බා	-12620
ुन	-12621
▁Dur	-12622
▁sot	-12623
▁But	-12624
velop	-12625
▁సా	-12626
གཞུང་	-12627
▁problema	-12628
▁cao	-12629
TE	-12630
һында	-12631
སྔ	-12632
lio	-12633
▁dü	-12634
▁kata	-12635
្ប	-12636
▁पार	-12637
klad	-12638
▁আৰ	-12639
ႀက	-12640
ĝis	-12641
▁السي	-12642
တို့	-12643
etha	-12644
ாம	-12645
▁үшін	-12646
▁seus	-12647
▁service	-12648
▁Tor	-12649
ماع	-12650
ảng	-12651
athu	-12652
▁관	-12653
▁kateg	-12654
larga	-12655
▁לש	-12656
াখ	-12657
ံုး	-12658
▁ହେ	-12659
▁зас	-12660
ເຫ	-12661
▁whakar	-12662
îş	-12663
▁svoje	-12664
ajo	-12665
▁klar	-12666
▁lori	-12667
▁qua	-12668
ենք	-12669
▁stran	-12670
ሚያ	-12671
▁امریک	-12672
мал	-12673
▁pola	-12674
lerini	-12675
wend	-12676
mag	-12677
▁هل	-12678
प्त	-12679
ற்ப	-12680
aton	-12681
▁casa	-12682
ёр	-12683
bes	-12684
▁жо	-12685
▁mult	-12686
ുകള	-12687
▁Pen	-12688
ວນ	-12689
ært	-12690
▁elektron	-12691
▁बु	-12692
▁bem	-12693
▁сон	-12694
ણા	-12695
▁म्हण	-12696
▁бан	-12697
▁ego	-12698
▁же	-12699
▁prin	-12700
ပါ။	-12701
▁қа	-12702
▁као	-12703
کہ	-12704
▁zin	-12705
——	-12706
េង	-12707
øn	-12708
weke	-12709
▁continu	-12710
ъм	-12711
ives	-12712
ונים	-12713
باب	-12714
▁ES	-12715
▁dif	-12716
▁ساتھ	-12717
▁пат	-12718
obra	-12719
іч	-12720
ڻي	-12721
గి	-12722
▁faoi	-12723
▁gn	-12724
▁سل	-12725
▁osob	-12726
▁qed	-12727
мент	-12728
ತೆ	-12729
ยัง	-12730
▁proces	-12731
▁Монгол	-12732
▁וי	-12733
पर्	-12734
OD	-12735
ירות	-12736
▁caso	-12737
▁રહ	-12738
▁sev	-12739
▁живо	-12740
xy	-12741
▁ਵਾਲ	-12742
▁อ	-12743
ット	-12744
dek	-12745
▁تمام	-12746
▁through	-12747
▁অসম	-12748
ুম	-12749
ंत्री	-12750
▁لیک	-12751
▁କରିବା	-12752
უს	-12753
ashi	-12754
▁hanga	-12755
מש	-12756
▁sigur	-12757
เรา	-12758
ваць	-12759
emente	-12760
▁Christ	-12761
לק	-12762
ivat	-12763
▁integr	-12764
ສະຫ	-12765
▁аг	-12766
ပဲ	-12767
ья	-12768
รม	-12769
▁Ant	-12770
gra	-12771
ေဆ	-12772
τικό	-12773
аме	-12774
larini	-12775
▁David	-12776
hana	-12777
▁offer	-12778
▁ча	-12779
urce	-12780
▁pup	-12781
▁време	-12782
▁rast	-12783
ทย	-12784
ojen	-12785
ङ्	-12786
▁طرف	-12787
pun	-12788
उन	-12789
দি	-12790
▁lav	-12791
രെ	-12792
▁necess	-12793
ත්ර	-12794
დან	-12795
ەکە	-12796
▁kiuj	-12797
▁؟	-12798
وای	-12799
▁ყ	-12800
▁ကျ	-12801
ımız	-12802
araq	-12803
▁حا	-12804
▁inay	-12805
▁හා	-12806
қан	-12807
▁કરવા	-12808
▁ين	-12809
▁ਕੁ	-12810
▁theo	-12811
▁होते	-12812
▁महा	-12813
ikwa	-12814
လိ	-12815
▁qilish	-12816
laus	-12817
▁bhí	-12818
ıp	-12819
nega	-12820
പ്പോ	-12821
▁partic	-12822
aram	-12823
rž	-12824
جی	-12825
▁çı	-12826
ಾಣ	-12827
▁ຂອງ	-12828
ոց	-12829
neud	-12830
▁Bud	-12831
দ্য	-12832
אַפּ	-12833
);	-12834
▁nghiệ	-12835
hav	-12836
▁či	-12837
▁obi	-12838
▁Und	-12839
▁saw	-12840
ख्य	-12841
▁هەر	-12842
▁uban	-12843
еү	-12844
▁AP	-12845
▁bac	-12846
ким	-12847
okies	-12848
その	-12849
уға	-12850
▁fle	-12851
▁zer	-12852
ылған	-12853
ئة	-12854
тро	-12855
لىپ	-12856
ikl	-12857
hach	-12858
▁дел	-12859
▁dhi	-12860
▁font	-12861
итель	-12862
ଣା	-12863
སྲ	-12864
onav	-12865
▁hus	-12866
དག་	-12867
▁interna	-12868
▁شار	-12869
дон	-12870
kes	-12871
ļa	-12872
bli	-12873
oin	-12874
▁хол	-12875
▁फि	-12876
େଳ	-12877
რე	-12878
▁esti	-12879
▁lama	-12880
▁nuair	-12881
ພະ	-12882
▁Sek	-12883
енти	-12884
▁Fi	-12885
▁good	-12886
▁தே	-12887
▁gib	-12888
хов	-12889
▁kontrol	-12890
સે	-12891
▁poj	-12892
▁trường	-12893
▁Mb	-12894
▁desc	-12895
amed	-12896
▁фак	-12897
▁ئا	-12898
បង្	-12899
▁bħ	-12900
▁తీ	-12901
റ്റ്	-12902
▁Ram	-12903
▁hac	-12904
▁개	-12905
▁hunn	-12906
▁др	-12907
trol	-12908
ມັນ	-12909
▁tug	-12910
ယူ	-12911
ରା	-12912
tico	-12913
lé	-12914
▁ల	-12915
ура	-12916
▁masalah	-12917
ँग	-12918
▁chr	-12919
སྲིད་	-12920
الی	-12921
там	-12922
▁soll	-12923
▁አን	-12924
hel	-12925
әл	-12926
▁төл	-12927
angin	-12928
ਨਾਂ	-12929
▁hö	-12930
▁yez	-12931
estr	-12932
▁hans	-12933
olah	-12934
ਾਮ	-12935
ilig	-12936
▁նա	-12937
ểu	-12938
▁क्षेत्र	-12939
ത്തെ	-12940
עלן	-12941
лэг	-12942
taan	-12943
lia	-12944
▁وڃ	-12945
før	-12946
▁проф	-12947
▁गर्न	-12948
lege	-12949
צט	-12950
oram	-12951
▁jaar	-12952
▁fej	-12953
ੱਸ	-12954
ưở	-12955
▁buvo	-12956
യില്	-12957
▁tao	-12958
atori	-12959
सन	-12960
▁utiliz	-12961
▁já	-12962
ിവ	-12963
▁sci	-12964
ლე	-12965
▁human	-12966
้อม	-12967
Re	-12968
▁kult	-12969
▁colori	-12970
ồi	-12971
ங்கள	-12972
ætt	-12973
āv	-12974
▁bio	-12975
▁stad	-12976
▁huma	-12977
აში	-12978
▁കൊ	-12979
▁pow	-12980
▁digital	-12981
▁Hi	-12982
▁নির	-12983
▁tatau	-12984
भी	-12985
ழு	-12986
лады	-12987
▁bilo	-12988
ਿਕ	-12989
▁ਜੋ	-12990
▁قول	-12991
úp	-12992
кой	-12993
ियों	-12994
▁etsa	-12995
▁μας	-12996
▁lov	-12997
▁janë	-12998
▁pare	-12999
ོམ་	-13000
ipedia	-13001
▁Proj	-13002
obora	-13003
▁ค	-13004
▁asa	-13005
ัญ	-13006
фер	-13007
▁טר	-13008
▁اپنے	-13009
સ્ટ	-13010
▁lw	-13011
▁werk	-13012
сыз	-13013
▁соң	-13014
ಬ್	-13015
iber	-13016
ματα	-13017
▁خپل	-13018
▁ერთ	-13019
erana	-13020
λέ	-13021
----------------	-13022
ပို	-13023
ಕಾರ	-13024
▁One	-13025
umela	-13026
ंतर	-13027
odwa	-13028
▁ינ	-13029
CC	-13030
nga	-13031
▁እየ	-13032
િય	-13033
asc	-13034
iei	-13035
czy	-13036
▁sym	-13037
hoa	-13038
▁país	-13039
ạnh	-13040
▁kuw	-13041
▁sarta	-13042
▁region	-13043
irish	-13044
ilu	-13045
imhe	-13046
dyr	-13047
த்தை	-13048
▁Hel	-13049
▁đồng	-13050
fia	-13051
▁drž	-13052
▁dana	-13053
سەر	-13054
يغۇر	-13055
▁Рос	-13056
тты	-13057
ంగ్	-13058
hand	-13059
ເຈົ້າ	-13060
▁mate	-13061
amy	-13062
དམ	-13063
שות	-13064
āl	-13065
ንያ	-13066
▁पूर्	-13067
ovať	-13068
▁المع	-13069
ວຍ	-13070
ូរ	-13071
ാവ	-13072
යන්	-13073
▁tes	-13074
▁polí	-13075
▁insan	-13076
▁hyd	-13077
▁મુ	-13078
▁유	-13079
dik	-13080
пре	-13081
త్త	-13082
▁وَ	-13083
urat	-13084
▁platform	-13085
▁Pok	-13086
▁nhưng	-13087
ႃး	-13088
▁enga	-13089
tte	-13090
▁غرف	-13091
▁amat	-13092
▁असे	-13093
μη	-13094
▁stan	-13095
ане	-13096
▁custom	-13097
▁Dia	-13098
▁tür	-13099
▁Tar	-13100
▁لن	-13101
▁skulle	-13102
▁leo	-13103
ನು	-13104
ල්ල	-13105
▁lua	-13106
ipun	-13107
dem	-13108
▁කරන	-13109
ылды	-13110
▁Dom	-13111
irs	-13112
▁كو	-13113
ател	-13114
تے	-13115
▁अपने	-13116
andisa	-13117
ဝ်း	-13118
ayn	-13119
ایی	-13120
▁tend	-13121
hem	-13122
▁atanapi	-13123
בור	-13124
пов	-13125
yane	-13126
▁mia	-13127
▁sac	-13128
lif	-13129
like	-13130
เห	-13131
TV	-13132
▁mann	-13133
ahanga	-13134
▁कम	-13135
▁ניט	-13136
▁europ	-13137
elisoa	-13138
▁alebo	-13139
’.	-13140
పా	-13141
▁team	-13142
зо	-13143
ባት	-13144
▁ogé	-13145
▁gwe	-13146
дир	-13147
▁PS	-13148
▁түгел	-13149
ordin	-13150
vez	-13151
▁сто	-13152
▁naar	-13153
▁alum	-13154
▁Cal	-13155
دې	-13156
▁пеш	-13157
▁موجود	-13158
نې	-13159
orio	-13160
▁ಹಾಗ	-13161
▁Fer	-13162
ෙස	-13163
▁Һ	-13164
ຶ້ນ	-13165
▁mamp	-13166
īj	-13167
▁fih	-13168
▁Super	-13169
nici	-13170
▁digun	-13171
▁faa	-13172
▁pic	-13173
ገል	-13174
ệnh	-13175
လုပ်	-13176
▁sinh	-13177
▁element	-13178
न्छ	-13179
▁મે	-13180
estu	-13181
▁cùng	-13182
▁kind	-13183
▁such	-13184
ديدة	-13185
▁Bit	-13186
▁비	-13187
ելի	-13188
alq	-13189
▁ank	-13190
▁anyar	-13191
▁הצ	-13192
ерт	-13193
▁ubu	-13194
றை	-13195
рати	-13196
▁frem	-13197
rë	-13198
▁dien	-13199
▁tempat	-13200
োৰ	-13201
▁بھ	-13202
▁kite	-13203
▁респ	-13204
ຂຶ້ນ	-13205
▁dla	-13206
ưởng	-13207
▁very	-13208
ҙең	-13209
hir	-13210
чак	-13211
amai	-13212
▁Bus	-13213
▁ort	-13214
zek	-13215
▁المغ	-13216
▁eto	-13217
zwe	-13218
နဲ့	-13219
▁cul	-13220
สม	-13221
▁pia	-13222
িন্ত	-13223
ערי	-13224
▁International	-13225
▁መንግ	-13226
ព័	-13227
ខ្លួន	-13228
aniya	-13229
▁dute	-13230
ໃຊ້	-13231
قی	-13232
ыны	-13233
ilte	-13234
▁என்று	-13235
ادا	-13236
ཁ་	-13237
ಿರುವ	-13238
▁بات	-13239
ാല	-13240
▁mora	-13241
ਹੇ	-13242
▁මු	-13243
род	-13244
ரிய	-13245
▁biri	-13246
ເອ	-13247
вој	-13248
ரை	-13249
▁polic	-13250
▁olarak	-13251
▁ће	-13252
▁obs	-13253
κό	-13254
chit	-13255
▁Ú	-13256
▁আল	-13257
ether	-13258
كو	-13259
સા	-13260
▁eksp	-13261
ەسى	-13262
гуул	-13263
ىندە	-13264
alin	-13265
ۈرۈ	-13266
count	-13267
oten	-13268
▁мө	-13269
bul	-13270
ೋಗ	-13271
ifi	-13272
▁تەر	-13273
▁haar	-13274
▁shumë	-13275
▁Ма	-13276
ries	-13277
այի	-13278
▁yii	-13279
জি	-13280
ટી	-13281
ologi	-13282
μπ	-13283
▁които	-13284
▁бик	-13285
lon	-13286
▁popular	-13287
▁નથી	-13288
ခြင်း	-13289
ءَ	-13290
ضا	-13291
ளுக்கு	-13292
▁ਕਿਹਾ	-13293
ිරි	-13294
▁ምን	-13295
ေၾကာ	-13296
▁apo	-13297
▁болон	-13298
▁సినిమా	-13299
▁ਰਿ	-13300
ört	-13301
▁administ	-13302
ျပာ	-13303
evi	-13304
ที	-13305
gaan	-13306
▁hierdie	-13307
ไล	-13308
אַנט	-13309
▁நட	-13310
▁saman	-13311
ље	-13312
▁dou	-13313
هل	-13314
▁үчүн	-13315
▁dwar	-13316
▁povas	-13317
▁নাম	-13318
দেশ	-13319
ences	-13320
▁već	-13321
იდ	-13322
ทุก	-13323
▁merupakan	-13324
ύν	-13325
▁შეს	-13326
▁ثم	-13327
▁ky	-13328
▁sod	-13329
▁ем	-13330
ött	-13331
alik	-13332
ເຄ	-13333
▁Bol	-13334
हरू	-13335
atta	-13336
,+	-13337
▁שפּ	-13338
timo	-13339
ambah	-13340
бол	-13341
▁হৈছে	-13342
čka	-13343
▁كانت	-13344
▁tiu	-13345
▁geg	-13346
роб	-13347
▁ಸಮ	-13348
jiem	-13349
▁fog	-13350
▁pró	-13351
ာ္	-13352
▁enf	-13353
ثير	-13354
▁نف	-13355
▁المش	-13356
гэл	-13357
▁nde	-13358
▁पह	-13359
itut	-13360
▁mau	-13361
▁ν	-13362
▁há	-13363
▁faig	-13364
▁συν	-13365
▁sic	-13366
▁موا	-13367
▁tev	-13368
ድረ	-13369
ཡོད་པ་	-13370
izwa	-13371
▁ele	-13372
▁kabeh	-13373
▁store	-13374
▁voi	-13375
wadi	-13376
្ញ	-13377
لاش	-13378
கு	-13379
qin	-13380
ээд	-13381
▁кир	-13382
െന്ന്	-13383
▁anthu	-13384
ེའི་	-13385
anele	-13386
កម្ពុ	-13387
▁пера	-13388
▁πολ	-13389
▁εξ	-13390
▁పో	-13391
▁thực	-13392
صد	-13393
▁없	-13394
▁helt	-13395
ಟಿ	-13396
▁много	-13397
▁Pra	-13398
aksi	-13399
▁volt	-13400
▁gebruik	-13401
▁University	-13402
liv	-13403
mb	-13404
▁چيو	-13405
ison	-13406
▁tilb	-13407
ović	-13408
▁לק	-13409
.[	-13410
▁бут	-13411
▁públ	-13412
▁Bon	-13413
▁спе	-13414
ల్ల	-13415
▁mới	-13416
athi	-13417
ങ്ങൾ	-13418
▁maha	-13419
RE	-13420
tit	-13421
đu	-13422
ภาพ	-13423
▁परि	-13424
▁Ri	-13425
OK	-13426
▁rug	-13427
▁sort	-13428
▁ئهم	-13429
ләү	-13430
imer	-13431
ඩා	-13432
jọ	-13433
▁gore	-13434
▁umum	-13435
▁էր	-13436
lgan	-13437
▁ورو	-13438
oir	-13439
mente	-13440
▁sila	-13441
mọ	-13442
▁سک	-13443
ocia	-13444
त्या	-13445
▁פּר	-13446
ப்பட்ட	-13447
▁member	-13448
લો	-13449
▁වැඩ	-13450
▁chúng	-13451
ļu	-13452
irus	-13453
తే	-13454
osha	-13455
alau	-13456
ୋଲି	-13457
מצ	-13458
hna	-13459
rum	-13460
▁hadde	-13461
ຊີ	-13462
सं	-13463
ွဲ	-13464
▁olun	-13465
▁مبار	-13466
ၢၼ်	-13467
▁кој	-13468
▁West	-13469
নৰ	-13470
ило	-13471
ču	-13472
кая	-13473
▁ري	-13474
AV	-13475
▁þá	-13476
ningar	-13477
▁том	-13478
▁<	-13479
▁bai	-13480
▁sut	-13481
лік	-13482
ҙәр	-13483
▁ਤਾਂ	-13484
ಿಸಿದ	-13485
راف	-13486
အား	-13487
enj	-13488
▁صح	-13489
նել	-13490
▁ၵ	-13491
▁water	-13492
tiva	-13493
▁Black	-13494
▁गर्ने	-13495
%.	-13496
ໃຈ	-13497
▁العالم	-13498
unde	-13499
▁Far	-13500
سین	-13501
דן	-13502
ພາບ	-13503
▁ಬಿ	-13504
▁autom	-13505
zir	-13506
▁कह	-13507
ვნ	-13508
▁khác	-13509
▁līdz	-13510
מן	-13511
လည္း	-13512
▁فيها	-13513
▁sheega	-13514
▁شهر	-13515
adde	-13516
▁мақ	-13517
ಬೇಕ	-13518
بع	-13519
ისტ	-13520
▁বে	-13521
ਜਾਬ	-13522
മ്പ	-13523
ויס	-13524
otta	-13525
larning	-13526
▁yako	-13527
▁ներ	-13528
ក់	-13529
▁see	-13530
▁וועג	-13531
dim	-13532
ပေး	-13533
াট	-13534
כות	-13535
▁više	-13536
▁вла	-13537
▁Việt	-13538
▁world	-13539
stva	-13540
ଡ଼ି	-13541
▁skup	-13542
▁dhéanamh	-13543
▁це	-13544
▁sydd	-13545
nice	-13546
љу	-13547
▁দেশ	-13548
▁yana	-13549
▁diper	-13550
ୋକ	-13551
alb	-13552
▁dwe	-13553
اله	-13554
▁ورت	-13555
▁©	-13556
▁ið	-13557
▁Amaz	-13558
reach	-13559
เจ	-13560
▁стра	-13561
ax	-13562
σο	-13563
▁ခ	-13564
мя	-13565
лыҡ	-13566
žia	-13567
ansa	-13568
▁الاست	-13569
нет	-13570
▁பு	-13571
سىز	-13572
▁Vil	-13573
▁eitt	-13574
λά	-13575
▁aiz	-13576
ლების	-13577
ཐོག་	-13578
στε	-13579
▁ئۇيغۇر	-13580
▁dins	-13581
itis	-13582
prod	-13583
▁extra	-13584
▁Dh	-13585
རྗ	-13586
ረጃ	-13587
lai	-13588
ത്ത്	-13589
ערן	-13590
orte	-13591
абар	-13592
▁ប្រ	-13593
كوم	-13594
oly	-13595
▁miss	-13596
онал	-13597
▁व्यव	-13598
▁where	-13599
▁ଯେ	-13600
zk	-13601
▁ଏକ	-13602
▁нав	-13603
තාව	-13604
ազմ	-13605
▁كەل	-13606
ວິ	-13607
the	-13608
▁ቢ	-13609
даа	-13610
ciu	-13611
nyd	-13612
▁Minist	-13613
အတွ	-13614
▁esper	-13615
рет	-13616
lek	-13617
អាច	-13618
▁জন্য	-13619
▁kwez	-13620
▁vya	-13621
olj	-13622
ival	-13623
нолог	-13624
▁famil	-13625
ック	-13626
úla	-13627
ције	-13628
▁ong	-13629
akala	-13630
িকে	-13631
मार	-13632
▁Leg	-13633
koll	-13634
үүн	-13635
▁giá	-13636
▁från	-13637
ethi	-13638
iyy	-13639
▁koh	-13640
ទៀត	-13641
ႏိုင္	-13642
മാണ്	-13643
ಕರ	-13644
▁زي	-13645
▁Park	-13646
▁atas	-13647
ਉਣ	-13648
ལམ་	-13649
▁ihany	-13650
hold	-13651
ektiv	-13652
▁মে	-13653
oney	-13654
▁masani	-13655
▁bydd	-13656
▁зах	-13657
ពិ	-13658
▁sii	-13659
▁మరి	-13660
▁ਕੀਤੀ	-13661
ween	-13662
ឡើង	-13663
▁تحت	-13664
▁vra	-13665
iland	-13666
ергә	-13667
▁мон	-13668
ໍານ	-13669
▁समय	-13670
ieb	-13671
ష్ట	-13672
▁hori	-13673
өк	-13674
▁조	-13675
nað	-13676
▁lel	-13677
▁wird	-13678
▁thông	-13679
arta	-13680
ION	-13681
▁succ	-13682
▁membuat	-13683
▁jūs	-13684
▁econom	-13685
▁pei	-13686
මින්	-13687
ကြီး	-13688
▁dagiti	-13689
אות	-13690
▁biết	-13691
▁kaz	-13692
sem	-13693
avy	-13694
டுத்த	-13695
ءِ	-13696
▁raha	-13697
▁кори	-13698
თვის	-13699
szy	-13700
▁bug	-13701
▁хэм	-13702
▁سپ	-13703
τί	-13704
ంటే	-13705
▁whai	-13706
▁kred	-13707
maan	-13708
ather	-13709
▁ଏହା	-13710
▁medic	-13711
▁Cab	-13712
▁све	-13713
▁kaup	-13714
ঞ্চ	-13715
▁Pot	-13716
▁바	-13717
ops	-13718
▁тик	-13719
▁char	-13720
طر	-13721
ច្រ	-13722
▁nuo	-13723
▁bawk	-13724
▁প্রতি	-13725
elijk	-13726
២០	-13727
▁ڪم	-13728
▁sä	-13729
▁Naj	-13730
▁cit	-13731
▁godt	-13732
ग्	-13733
▁היא	-13734
▁support	-13735
ниот	-13736
okera	-13737
▁gera	-13738
▁bheith	-13739
▁eða	-13740
אה	-13741
odz	-13742
▁gyfer	-13743
▁만	-13744
เน	-13745
ári	-13746
▁аны	-13747
ଯ୍ୟ	-13748
pit	-13749
اعة	-13750
▁گا	-13751
үүх	-13752
▁premi	-13753
▁dì	-13754
▁konf	-13755
้ํา	-13756
රා	-13757
▁auto	-13758
▁பா	-13759
▁Mot	-13760
öt	-13761
▁Bre	-13762
▁ഡ	-13763
▁AL	-13764
▁kunne	-13765
▁çalış	-13766
▁feso	-13767
▁amal	-13768
▁contin	-13769
áid	-13770
▁importante	-13771
▁ઉપ	-13772
lıq	-13773
▁fly	-13774
イン	-13775
▁gou	-13776
▁bend	-13777
▁گؤ	-13778
▁રહે	-13779
▁Каз	-13780
فع	-13781
anach	-13782
გრ	-13783
▁đang	-13784
▁ዋ	-13785
▁key	-13786
गत	-13787
▁البي	-13788
▁тав	-13789
▁това	-13790
▁कारण	-13791
ဘာ	-13792
▁senti	-13793
▁cần	-13794
หน้า	-13795
ဲ႕	-13796
erde	-13797
երը	-13798
nau	-13799
▁бүр	-13800
elan	-13801
teg	-13802
▁таб	-13803
atsi	-13804
▁main	-13805
ادر	-13806
īgi	-13807
▁može	-13808
▁Zenci	-13809
مۇ	-13810
olat	-13811
▁kek	-13812
inten	-13813
fund	-13814
▁solu	-13815
roj	-13816
▁பிர	-13817
▁beberapa	-13818
▁ús	-13819
▁bahan	-13820
inzi	-13821
▁years	-13822
պես	-13823
ownload	-13824
▁potreb	-13825
rẹ	-13826
សម្រ	-13827
تك	-13828
ուց	-13829
τική	-13830
▁Hr	-13831
▁այն	-13832
▁njeg	-13833
▁кр	-13834
dor	-13835
tere	-13836
ябр	-13837
τέ	-13838
▁rumah	-13839
▁اؤ	-13840
other	-13841
▁ес	-13842
ంటి	-13843
▁୧	-13844
æg	-13845
▁National	-13846
hetra	-13847
ຽນ	-13848
▁çok	-13849
বাদ	-13850
▁باي	-13851
wie	-13852
alada	-13853
▁இத	-13854
▁હતા	-13855
పి	-13856
ាល់	-13857
ịch	-13858
▁aad	-13859
▁rona	-13860
ules	-13861
રૂ	-13862
▁mij	-13863
bhe	-13864
ුතු	-13865
▁ເພ	-13866
ктор	-13867
ebab	-13868
▁pran	-13869
▁اۋ	-13870
்த்த	-13871
▁чу	-13872
steach	-13873
འདི་	-13874
▁mala	-13875
▁Europa	-13876
چھ	-13877
▁දැ	-13878
াও	-13879
▁sop	-13880
AH	-13881
▁Ĉ	-13882
سر	-13883
्रो	-13884
uktur	-13885
rec	-13886
▁maak	-13887
ross	-13888
rz	-13889
▁ଏବଂ	-13890
هند	-13891
▁लगा	-13892
ulla	-13893
cos	-13894
Tube	-13895
▁Tai	-13896
lumat	-13897
ṣe	-13898
▁place	-13899
▁ಆದ	-13900
▁المد	-13901
ळा	-13902
▁çox	-13903
▁बात	-13904
ట్ట	-13905
ന്ത	-13906
presa	-13907
▁menyang	-13908
ိုက်	-13909
▁ion	-13910
ection	-13911
ንግ	-13912
▁már	-13913
▁kontra	-13914
▁shi	-13915
▁सर्व	-13916
▁مشاهدة	-13917
rei	-13918
▁جات	-13919
ró	-13920
▁ହେବ	-13921
นา	-13922
ában	-13923
▁အသ	-13924
uqala	-13925
oty	-13926
▁Jag	-13927
▁two	-13928
angwa	-13929
дей	-13930
jy	-13931
jam	-13932
▁۲	-13933
▁vår	-13934
ช่ว	-13935
ོངས་	-13936
▁kaha	-13937
ूल	-13938
▁ditu	-13939
unzi	-13940
šta	-13941
▁тул	-13942
▁Так	-13943
เต	-13944
ANG	-13945
▁тара	-13946
تن	-13947
λή	-13948
▁الموس	-13949
▁ինչ	-13950
▁ລ	-13951
onk	-13952
lige	-13953
▁ਕਿਸ	-13954
مە	-13955
тра	-13956
▁pub	-13957
▁week	-13958
ตาม	-13959
ivyo	-13960
▁manif	-13961
▁ഏ	-13962
▁Из	-13963
▁ձ	-13964
ėti	-13965
▁ఒక	-13966
▁रि	-13967
▁important	-13968
▁तक	-13969
▁երկ	-13970
▁control	-13971
ғын	-13972
▁Publ	-13973
▁tambe	-13974
▁Lietuv	-13975
▁automat	-13976
જા	-13977
▁ці	-13978
pañ	-13979
▁দিয়ে	-13980
หา	-13981
ណ៍	-13982
לט	-13983
ላት	-13984
ені	-13985
oden	-13986
▁USA	-13987
▁Hor	-13988
▁includ	-13989
▁rig	-13990
▁करा	-13991
hou	-13992
▁Pri	-13993
▁wab	-13994
▁uh	-13995
▁Ker	-13996
▁own	-13997
▁ਟ	-13998
alitas	-13999
GB	-14000
ดู	-14001
achdadh	-14002
▁berb	-14003
້ານ	-14004
▁ró	-14005
چي	-14006
ംഗ	-14007
▁මෙම	-14008
▁ming	-14009
▁কম	-14010
ାରୁ	-14011
תר	-14012
▁zg	-14013
edes	-14014
tos	-14015
еси	-14016
▁kuh	-14017
▁olona	-14018
čí	-14019
▁കൂ	-14020
▁againn	-14021
mus	-14022
▁यु	-14023
▁Mc	-14024
akho	-14025
▁اد	-14026
▁ло	-14027
▁การ	-14028
▁euro	-14029
▁slik	-14030
སྣ	-14031
აზ	-14032
etar	-14033
▁яв	-14034
ола	-14035
با	-14036
▁таны	-14037
▁exist	-14038
ilẹ	-14039
ਾਰੇ	-14040
▁dokument	-14041
▁Bro	-14042
ард	-14043
សារ	-14044
qiq	-14045
ريم	-14046
ರಿಗೆ	-14047
NA	-14048
ਮੀ	-14049
වත්	-14050
дәр	-14051
▁көп	-14052
▁langkung	-14053
▁politi	-14054
▁ति	-14055
▁reng	-14056
mt	-14057
cies	-14058
▁Esp	-14059
ਗੀ	-14060
▁ais	-14061
ofia	-14062
anse	-14063
▁Jesus	-14064
▁вр	-14065
jali	-14066
▁būt	-14067
▁дод	-14068
ிட	-14069
्स	-14070
▁hình	-14071
▁आफ	-14072
▁uno	-14073
fac	-14074
OV	-14075
्वा	-14076
edwe	-14077
▁zur	-14078
▁duwe	-14079
▁دۆ	-14080
▁zal	-14081
▁жас	-14082
ವರ	-14083
▁Plan	-14084
など	-14085
ନ୍ତୁ	-14086
▁dus	-14087
द्या	-14088
▁elu	-14089
▁ຈ	-14090
▁ਪਾ	-14091
▁จ	-14092
vid	-14093
▁gihe	-14094
▁የማ	-14095
ையும்	-14096
▁انهن	-14097
▁وړ	-14098
▁Tan	-14099
▁المست	-14100
ංග	-14101
აქ	-14102
▁булып	-14103
▁mie	-14104
▁xi	-14105
▁serta	-14106
▁অভি	-14107
▁ну	-14108
esse	-14109
ೊಳ್ಳ	-14110
ria	-14111
ારી	-14112
ырга	-14113
אַנד	-14114
▁କରାଯ	-14115
▁अब	-14116
▁ਪੰਜਾਬ	-14117
ەڕ	-14118
▁prime	-14119
kej	-14120
▁دەک	-14121
▁khan	-14122
▁Trump	-14123
כה	-14124
asun	-14125
▁бәй	-14126
▁gbog	-14127
▁ನೀಡ	-14128
inni	-14129
▁ուն	-14130
▁мол	-14131
▁קר	-14132
▁tyd	-14133
▁pää	-14134
▁rag	-14135
פן	-14136
ilah	-14137
▁ith	-14138
▁тог	-14139
nit	-14140
▁Kul	-14141
ផ្ស	-14142
▁Star	-14143
▁ମି	-14144
ለን	-14145
طل	-14146
azio	-14147
▁толь	-14148
▁વર્	-14149
གཉིས་	-14150
တ်း	-14151
▁Ам	-14152
атты	-14153
stru	-14154
▁after	-14155
▁గు	-14156
nings	-14157
ireann	-14158
▁ସହ	-14159
pis	-14160
യുടെ	-14161
agara	-14162
▁nói	-14163
гәр	-14164
cal	-14165
▁impl	-14166
▁אויך	-14167
▁لح	-14168
▁மற்ற	-14169
ຂໍ	-14170
▁worden	-14171
elsen	-14172
▁individ	-14173
▁engem	-14174
ské	-14175
▁bwino	-14176
▁nay	-14177
חת	-14178
run	-14179
▁хув	-14180
▁luc	-14181
lant	-14182
▁यांनी	-14183
▁gëtt	-14184
▁tiegħ	-14185
ikin	-14186
▁ეს	-14187
▁مؤ	-14188
▁ورځ	-14189
लेल्या	-14190
▁بند	-14191
азақстан	-14192
rek	-14193
alama	-14194
తా	-14195
▁மே	-14196
▁Cre	-14197
bed	-14198
மான	-14199
▁amar	-14200
▁اغ	-14201
▁lên	-14202
isoa	-14203
▁μια	-14204
▁should	-14205
▁दी	-14206
mach	-14207
▁Nas	-14208
▁נאָ	-14209
▁три	-14210
vy	-14211
▁ї	-14212
hout	-14213
արար	-14214
нер	-14215
ക്കി	-14216
ikana	-14217
▁ഹ	-14218
▁Kap	-14219
▁mont	-14220
▁totonu	-14221
гөн	-14222
▁yén	-14223
▁apie	-14224
stat	-14225
▁ark	-14226
▁yas	-14227
▁ਲੋਕ	-14228
▁organiza	-14229
реб	-14230
▁mê	-14231
magy	-14232
ပေါ	-14233
▁керек	-14234
ях	-14235
უმ	-14236
▁эх	-14237
ເຮົາ	-14238
▁koll	-14239
▁khách	-14240
fal	-14241
ערז	-14242
bra	-14243
བྱ་	-14244
▁lå	-14245
▁шаҳ	-14246
өд	-14247
▁കേ	-14248
udza	-14249
▁às	-14250
▁dó	-14251
▁då	-14252
▁Maj	-14253
▁kina	-14254
ത്തില്	-14255
▁IT	-14256
web	-14257
vas	-14258
ىلار	-14259
▁өр	-14260
▁เป	-14261
▁nebo	-14262
ლოს	-14263
▁కే	-14264
wać	-14265
▁Una	-14266
ward	-14267
▁ហើយ	-14268
inh	-14269
▁سام	-14270
▁ऑ	-14271
▁vere	-14272
▁след	-14273
▁татар	-14274
▁قوم	-14275
ża	-14276
▁Esper	-14277
جاب	-14278
▁dzi	-14279
▁Pop	-14280
▁ves	-14281
▁kez	-14282
ләрен	-14283
▁каз	-14284
пу	-14285
орто	-14286
ມືອງ	-14287
▁الض	-14288
▁генә	-14289
▁उन्ह	-14290
▁desde	-14291
▁develop	-14292
▁טי	-14293
aper	-14294
mai	-14295
izy	-14296
▁dự	-14297
ýt	-14298
ىلىق	-14299
utat	-14300
▁мно	-14301
▁pep	-14302
▁قۇ	-14303
▁life	-14304
оч	-14305
നെ	-14306
дән	-14307
▁smart	-14308
▁bụla	-14309
▁terus	-14310
خدم	-14311
▁marka	-14312
ரும்	-14313
▁ಮೂ	-14314
▁આવી	-14315
でも	-14316
▁شر	-14317
▁الام	-14318
لاث	-14319
ብር	-14320
ọng	-14321
▁open	-14322
▁अछि	-14323
▁Cam	-14324
▁daoine	-14325
▁Mur	-14326
កម្ពុជា	-14327
▁SP	-14328
▁khu	-14329
▁harus	-14330
▁elő	-14331
▁SEO	-14332
▁دون	-14333
ട്	-14334
ભા	-14335
hios	-14336
ibel	-14337
རེད།	-14338
цион	-14339
лет	-14340
▁پنهنجي	-14341
▁வா	-14342
▁서	-14343
ėjo	-14344
▁ск	-14345
yaa	-14346
ipu	-14347
ụkwọ	-14348
▁мәкт	-14349
նում	-14350
▁ھەر	-14351
▁Sep	-14352
kirin	-14353
▁ਕਾਰ	-14354
▁Vers	-14355
лекс	-14356
ಂತೆ	-14357
▁Й	-14358
▁кі	-14359
្ថ	-14360
ۆی	-14361
▁etahi	-14362
agement	-14363
▁തു	-14364
▁ას	-14365
▁тэр	-14366
▁labor	-14367
ədə	-14368
াড়	-14369
▁ଉପ	-14370
▁plant	-14371
▁મહ	-14372
▁Ав	-14373
ຸມ	-14374
▁benef	-14375
sit	-14376
ອດ	-14377
ambili	-14378
▁pier	-14379
ymo	-14380
▁Կ	-14381
▁спорт	-14382
▁iṣẹ	-14383
▁ជា	-14384
さん	-14385
▁వే	-14386
daş	-14387
ադր	-14388
▁Video	-14389
زه	-14390
▁أف	-14391
▁mee	-14392
phone	-14393
▁Cap	-14394
▁kort	-14395
ткән	-14396
às	-14397
iaeth	-14398
gin	-14399
ците	-14400
▁dial	-14401
asiyana	-14402
got	-14403
خوا	-14404
བསྟ	-14405
▁тәр	-14406
▁jis	-14407
▁ରାଜ	-14408
wedd	-14409
▁Türki	-14410
▁böl	-14411
▁حل	-14412
▁kend	-14413
▁구	-14414
cat	-14415
▁tē	-14416
▁생	-14417
▁jog	-14418
▁úl	-14419
▁առաջ	-14420
▁bö	-14421
skom	-14422
▁lòt	-14423
▁trabal	-14424
мар	-14425
▁таъ	-14426
წყ	-14427
▁mej	-14428
▁partner	-14429
ંચ	-14430
کان	-14431
ardo	-14432
еме	-14433
assen	-14434
▁ovat	-14435
istes	-14436
wod	-14437
ন্ত্র	-14438
▁우	-14439
▁বিশ্ব	-14440
▁خلاف	-14441
ската	-14442
કી	-14443
ুক্ত	-14444
▁Lab	-14445
▁hele	-14446
ଣି	-14447
имо	-14448
▁cred	-14449
▁pá	-14450
אַטי	-14451
▁কার	-14452
▁кеше	-14453
ဝ်ႈ	-14454
▁fara	-14455
bag	-14456
кти	-14457
▁ዓመ	-14458
▁tex	-14459
ীয়ে	-14460
ိတ်	-14461
فا	-14462
စာ	-14463
▁baru	-14464
იმ	-14465
▁সহ	-14466
oved	-14467
▁بک	-14468
Is	-14469
елгән	-14470
གསར་	-14471
или	-14472
▁ہوئے	-14473
▁اص	-14474
اندې	-14475
▁Wal	-14476
ட்ச	-14477
▁տեղ	-14478
եք	-14479
ыг	-14480
ិច្ច	-14481
▁карда	-14482
тат	-14483
▁હતો	-14484
▁CH	-14485
▁بك	-14486
▁оны	-14487
कां	-14488
ছি	-14489
chan	-14490
ैन	-14491
▁Ef	-14492
▁izm	-14493
▁kund	-14494
▁nges	-14495
▁rehetra	-14496
▁dhèanamh	-14497
нәр	-14498
ril	-14499
سو	-14500
▁gli	-14501
▁план	-14502
ोजना	-14503
▁பொ	-14504
okana	-14505
▁naud	-14506
صة	-14507
வும்	-14508
ຕີ	-14509
▁මා	-14510
ufa	-14511
ант	-14512
▁söz	-14513
▁termin	-14514
သြ	-14515
▁exemp	-14516
ಿಸುವ	-14517
▁بق	-14518
▁ძ	-14519
▁vì	-14520
uya	-14521
ឱ្យ	-14522
амі	-14523
▁Gol	-14524
ное	-14525
▁бө	-14526
unna	-14527
▁lic	-14528
▁mart	-14529
ੌਰ	-14530
▁സാ	-14531
mụ	-14532
▁قوي	-14533
▁यस	-14534
ীত	-14535
อล	-14536
▁tonu	-14537
дав	-14538
▁đây	-14539
▁의	-14540
מות	-14541
ិយ	-14542
▁doma	-14543
▁дире	-14544
ቶም	-14545
▁വാ	-14546
▁Jac	-14547
▁call	-14548
▁આવે	-14549
nyi	-14550
lac	-14551
▁пл	-14552
▁Das	-14553
▁klub	-14554
▁made	-14555
ערס	-14556
τυ	-14557
สน	-14558
jaan	-14559
.’	-14560
ିଲ୍	-14561
άλ	-14562
▁عل	-14563
▁casino	-14564
ଣ୍ଡ	-14565
▁proiz	-14566
fil	-14567
arik	-14568
တူ	-14569
▁nomb	-14570
ལ།	-14571
གཙ	-14572
йт	-14573
্স	-14574
ন্ধ	-14575
▁ता	-14576
τικά	-14577
திய	-14578
▁sept	-14579
òd	-14580
▁લોકો	-14581
kim	-14582
▁tema	-14583
නි	-14584
ço	-14585
.-	-14586
▁saja	-14587
▁bruk	-14588
▁وهو	-14589
នៃ	-14590
▁hija	-14591
▁där	-14592
▁adv	-14593
బ్	-14594
זי	-14595
กระ	-14596
פת	-14597
▁Sy	-14598
تار	-14599
▁ગુ	-14600
▁cyane	-14601
ಗ್	-14602
acc	-14603
ünde	-14604
▁súa	-14605
▁bukan	-14606
ద్ద	-14607
▁भारत	-14608
IB	-14609
εια	-14610
cijos	-14611
▁verb	-14612
ása	-14613
▁upor	-14614
గ్	-14615
▁dl	-14616
otte	-14617
▁ಕು	-14618
▁ಕೊ	-14619
▁Anjeun	-14620
▁автом	-14621
पूर्	-14622
▁Са	-14623
ធាន	-14624
▁دەپ	-14625
مەن	-14626
▁tav	-14627
▁የሚያ	-14628
χε	-14629
ýun	-14630
▁때	-14631
합니다	-14632
▁చేయ	-14633
▁fung	-14634
▁προσ	-14635
▁zambiri	-14636
adha	-14637
ogal	-14638
dai	-14639
وله	-14640
▁jika	-14641
ələ	-14642
бәр	-14643
ोट	-14644
▁yari	-14645
ките	-14646
ēja	-14647
▁diý	-14648
ziwa	-14649
.“	-14650
سات	-14651
▁favor	-14652
▁Кыргыз	-14653
žit	-14654
▁Tir	-14655
▁utu	-14656
▁kaya	-14657
▁لئے	-14658
ních	-14659
▁ਇਕ	-14660
▁jel	-14661
▁zik	-14662
ρή	-14663
ezu	-14664
▁ক্ষ	-14665
▁especial	-14666
דזש	-14667
▁momento	-14668
arak	-14669
▁연	-14670
ድር	-14671
ালয়	-14672
▁instr	-14673
قه	-14674
▁თავ	-14675
ুত	-14676
▁ସା	-14677
▁فار	-14678
▁Բ	-14679
▁অব	-14680
▁হবে	-14681
nja	-14682
▁قىز	-14683
▁mbere	-14684
teur	-14685
▁Kw	-14686
ырға	-14687
յանը	-14688
▁Kir	-14689
▁ມີ	-14690
রে	-14691
▁बन	-14692
▁aquest	-14693
ую	-14694
usha	-14695
არე	-14696
cina	-14697
▁mond	-14698
▁матери	-14699
នា	-14700
▁old	-14701
éc	-14702
▁akw	-14703
▁lehet	-14704
инг	-14705
▁व्यक्त	-14706
▁হয়েছে	-14707
▁יותר	-14708
коно	-14709
▁Brit	-14710
ంటు	-14711
ਗੇ	-14712
▁ĝi	-14713
▁Cel	-14714
гч	-14715
בת	-14716
stad	-14717
▁kën	-14718
rig	-14719
dau	-14720
үүлэх	-14721
ຕ່າງ	-14722
ýs	-14723
্যান	-14724
▁sür	-14725
▁déc	-14726
ņu	-14727
▁vara	-14728
ສາມາດ	-14729
ینه	-14730
entuk	-14731
ませ	-14732
▁interess	-14733
▁predstav	-14734
olt	-14735
▁ST	-14736
▁بج	-14737
▁داخل	-14738
ירן	-14739
cji	-14740
ην	-14741
SA	-14742
▁ýyl	-14743
▁tali	-14744
▁안	-14745
ands	-14746
▁software	-14747
רה	-14748
τος	-14749
obozi	-14750
כע	-14751
▁واق	-14752
akal	-14753
گا	-14754
▁Tek	-14755
▁გადა	-14756
ðum	-14757
ចូល	-14758
▁lena	-14759
▁شركة	-14760
uty	-14761
▁тари	-14762
▁kerana	-14763
▁সেই	-14764
▁вели	-14765
▁jih	-14766
▁ඔබ	-14767
▁스	-14768
▁daž	-14769
▁แต่	-14770
▁ate	-14771
fas	-14772
ورو	-14773
▁sena	-14774
eck	-14775
▁প্ৰতি	-14776
▁Кон	-14777
aqu	-14778
אָט	-14779
▁Евро	-14780
abab	-14781
སོགས་	-14782
▁tana	-14783
ظر	-14784
qubo	-14785
▁chifukwa	-14786
ଭି	-14787
▁चु	-14788
▁жұмы	-14789
ركز	-14790
▁обла	-14791
ठा	-14792
star	-14793
▁pode	-14794
▁აღ	-14795
इल	-14796
▁मी	-14797
▁PM	-14798
ไลน์	-14799
uş	-14800
მო	-14801
▁arb	-14802
▁рэ	-14803
▁ചെയ്	-14804
▁mwen	-14805
qip	-14806
ुरु	-14807
ະນະ	-14808
ште	-14809
▁Срби	-14810
zenia	-14811
مد	-14812
▁Vis	-14813
ዎችን	-14814
▁transport	-14815
▁жаз	-14816
ในการ	-14817
клад	-14818
ំប	-14819
ഴി	-14820
▁forsk	-14821
▁uw	-14822
▁энэ	-14823
pers	-14824
▁Ot	-14825
rie	-14826
▁amas	-14827
▁Nt	-14828
▁lapho	-14829
▁hiji	-14830
▁але	-14831
ង្គ	-14832
▁bla	-14833
འབྲེལ་	-14834
▁tym	-14835
omer	-14836
ंध	-14837
▁zonke	-14838
ishwa	-14839
▁page	-14840
ifa	-14841
▁ukuth	-14842
ată	-14843
વું	-14844
▁ମା	-14845
▁whakap	-14846
ەیە	-14847
▁tanto	-14848
▁Out	-14849
▁тус	-14850
▁Mun	-14851
▁anos	-14852
▁nig	-14853
ន្ទ	-14854
▁신	-14855
گي	-14856
လို့	-14857
▁karakter	-14858
анс	-14859
ীন	-14860
▁Wo	-14861
င်ႇ	-14862
▁ankaŭ	-14863
ાલ	-14864
▁hob	-14865
យ៉	-14866
emat	-14867
▁نس	-14868
ەکی	-14869
▁كس	-14870
▁pé	-14871
μβ	-14872
inux	-14873
▁Nang	-14874
▁dù	-14875
াচ	-14876
▁డ	-14877
▁وڌي	-14878
juan	-14879
sam	-14880
OC	-14881
▁leat	-14882
▁ئي	-14883
▁bih	-14884
▁॥	-14885
ынын	-14886
▁cru	-14887
▁vaega	-14888
chte	-14889
ིད་	-14890
▁Sams	-14891
how	-14892
▁nis	-14893
ću	-14894
đen	-14895
inės	-14896
ikka	-14897
न्द्र	-14898
iem	-14899
▁modif	-14900
▁Phil	-14901
کن	-14902
արգ	-14903
▁wî	-14904
אַנז	-14905
▁Ban	-14906
▁tó	-14907
▁खा	-14908
▁Sw	-14909
▁сред	-14910
▁செய்த	-14911
▁oraz	-14912
ਬਰ	-14913
افة	-14914
La	-14915
▁vand	-14916
ຕ້ອງ	-14917
ència	-14918
uen	-14919
▁ата	-14920
▁sna	-14921
erea	-14922
▁نش	-14923
ርትራ	-14924
ovao	-14925
▁Республика	-14926
▁ktoré	-14927
قم	-14928
taf	-14929
غو	-14930
च्छ	-14931
ذي	-14932
▁bith	-14933
АН	-14934
▁bwa	-14935
▁Бар	-14936
usaga	-14937
▁sendiri	-14938
үк	-14939
▁прет	-14940
▁gbogbo	-14941
იტ	-14942
ዲስ	-14943
▁ավ	-14944
▁nego	-14945
▁yoki	-14946
ྱུར་	-14947
ارد	-14948
üks	-14949
▁عبدال	-14950
anger	-14951
бат	-14952
cem	-14953
rer	-14954
▁ഓ	-14955
▁ông	-14956
▁raj	-14957
▁chuid	-14958
ို႔	-14959
▁anim	-14960
ять	-14961
▁ikh	-14962
▁қол	-14963
▁năng	-14964
▁natural	-14965
▁җит	-14966
ຖືກ	-14967
ِي	-14968
▁។	-14969
▁Sub	-14970
▁Kurdistan	-14971
abaraha	-14972
Le	-14973
mann	-14974
▁plej	-14975
zet	-14976
▁bill	-14977
▁پێش	-14978
enena	-14979
տր	-14980
خب	-14981
บา	-14982
▁통	-14983
الات	-14984
▁adh	-14985
▁סט	-14986
hio	-14987
▁געז	-14988
్రీ	-14989
▁áll	-14990
בוד	-14991
ຕະ	-14992
ሁን	-14993
▁ျပ	-14994
▁vys	-14995
▁ամ	-14996
▁electr	-14997
▁korero	-14998
eph	-14999
▁οπο	-15000
▁avea	-15001
▁ၸ	-15002
▁பே	-15003
otan	-15004
čas	-15005
▁पहि	-15006
▁minim	-15007
▁نت	-15008
iding	-15009
ře	-15010
సిన	-15011
▁Media	-15012
▁аш	-15013
▁ਪੁ	-15014
▁важ	-15015
оре	-15016
ikit	-15017
દી	-15018
▁él	-15019
▁għand	-15020
гд	-15021
▁ସୁ	-15022
▁hud	-15023
▁said	-15024
ေပး	-15025
ionn	-15026
▁tuma	-15027
▁stør	-15028
ལྡ	-15029
▁lớ	-15030
արտ	-15031
▁ساڵ	-15032
▁sida	-15033
ью	-15034
unto	-15035
▁pages	-15036
ંધ	-15037
▁선	-15038
▁mūs	-15039
ערט	-15040
dian	-15041
▁Din	-15042
িপ	-15043
ེང་	-15044
өмкин	-15045
▁Ia	-15046
્રે	-15047
यर	-15048
▁සඳහා	-15049
▁industr	-15050
▁hati	-15051
uzu	-15052
▁tej	-15053
embang	-15054
qal	-15055
рана	-15056
▁اين	-15057
▁Peng	-15058
▁୨	-15059
▁proses	-15060
ည့္	-15061
сат	-15062
ائن	-15063
▁bav	-15064
▁مثل	-15065
ंब	-15066
▁chuy	-15067
▁jsou	-15068
ச்	-15069
▁adres	-15070
iteit	-15071
▁ghe	-15072
▁kör	-15073
▁соб	-15074
▁Sloven	-15075
ಡು	-15076
іне	-15077
▁ସଂ	-15078
▁నిర్	-15079
▁Organ	-15080
ුවන්	-15081
▁joalo	-15082
▁bonus	-15083
▁ච	-15084
illä	-15085
وة	-15086
▁hó	-15087
▁Sept	-15088
ahe	-15089
tivo	-15090
▁කිරීම	-15091
بەر	-15092
▁байх	-15093
ugb	-15094
▁guz	-15095
▁duine	-15096
ಲಿ	-15097
yly	-15098
ані	-15099
вање	-15100
▁আছে	-15101
UP	-15102
put	-15103
▁Ҡ	-15104
nıñ	-15105
▁تا	-15106
▁ئاس	-15107
тура	-15108
▁жур	-15109
▁قازاق	-15110
▁chim	-15111
ję	-15112
куп	-15113
▁mili	-15114
སྤྱ	-15115
nut	-15116
ེ།	-15117
▁obair	-15118
▁hasi	-15119
vien	-15120
▁Vit	-15121
ënd	-15122
▁ques	-15123
▁אָבער	-15124
འཐ	-15125
ята	-15126
ڏي	-15127
▁Evr	-15128
▁Distr	-15129
▁franc	-15130
▁mester	-15131
▁пак	-15132
▁alat	-15133
ಿದ್ದು	-15134
▁fili	-15135
▁미	-15136
▁होता	-15137
સી	-15138
▁pik	-15139
▁йәш	-15140
ུག	-15141
▁ጉዳ	-15142
ሎች	-15143
▁ਧ	-15144
uhu	-15145
▁ци	-15146
▁Bor	-15147
ේශ	-15148
okr	-15149
ague	-15150
▁aller	-15151
▁ঘট	-15152
nosť	-15153
ार्थ	-15154
▁porque	-15155
راع	-15156
ιδ	-15157
▁taip	-15158
▁այս	-15159
▁무	-15160
▁nào	-15161
▁qol	-15162
▁Kore	-15163
ọta	-15164
జు	-15165
▁πο	-15166
▁regul	-15167
▁mint	-15168
▁must	-15169
ethe	-15170
واد	-15171
▁prest	-15172
▁oke	-15173
▁ولك	-15174
raft	-15175
reen	-15176
ştî	-15177
▁faire	-15178
▁život	-15179
▁histor	-15180
ugo	-15181
▁FC	-15182
▁ace	-15183
োম	-15184
▁cuideachd	-15185
▁stop	-15186
gunakan	-15187
▁usoro	-15188
ጀመ	-15189
▁uko	-15190
▁нов	-15191
▁אויב	-15192
ၼ်ႉ	-15193
▁ৰাজ	-15194
ುತ್ತದೆ	-15195
▁көрс	-15196
ण्ड	-15197
▁أح	-15198
tii	-15199
▁كوم	-15200
qat	-15201
ause	-15202
rå	-15203
▁general	-15204
ạng	-15205
▁nil	-15206
▁när	-15207
▁tax	-15208
cm	-15209
▁Any	-15210
▁Mis	-15211
▁chuir	-15212
ecto	-15213
▁hoy	-15214
▁noa	-15215
▁aktu	-15216
▁einen	-15217
▁alo	-15218
▁nær	-15219
زا	-15220
▁حد	-15221
ဘူး	-15222
ತ್ಯ	-15223
▁боюн	-15224
지만	-15225
zem	-15226
▁নিয়ে	-15227
▁поз	-15228
ishini	-15229
▁princip	-15230
որդ	-15231
wano	-15232
ಿರ	-15233
رين	-15234
▁agar	-15235
▁ақ	-15236
▁تأ	-15237
▁besar	-15238
ौर	-15239
haz	-15240
▁шар	-15241
▁oedd	-15242
หรับ	-15243
▁усп	-15244
້ມ	-15245
θεί	-15246
وووووووو	-15247
▁inten	-15248
▁Dig	-15249
▁kudz	-15250
િલ્	-15251
គ្ន	-15252
▁govern	-15253
▁мөмкин	-15254
ৰত	-15255
ారా	-15256
▁grande	-15257
കള	-15258
obr	-15259
uper	-15260
==	-15261
▁kerak	-15262
ැබ	-15263
▁year	-15264
ễn	-15265
لون	-15266
▁күн	-15267
ཡོད།	-15268
itha	-15269
▁jej	-15270
iṣẹ	-15271
▁elo	-15272
ýet	-15273
▁ଦେ	-15274
алт	-15275
வர்	-15276
▁Miz	-15277
▁кад	-15278
▁gem	-15279
ുവ	-15280
tha	-15281
యో	-15282
▁rè	-15283
▁With	-15284
noj	-15285
▁Ana	-15286
ihi	-15287
▁বুলি	-15288
▁সর	-15289
ज्ञ	-15290
vest	-15291
່ວນ	-15292
▁ndër	-15293
▁zel	-15294
▁ලෙස	-15295
ール	-15296
▁produ	-15297
gat	-15298
kus	-15299
▁איי	-15300
ન્ટ	-15301
▁Vic	-15302
ảm	-15303
▁최	-15304
మె	-15305
่อน	-15306
тым	-15307
مىز	-15308
ར།	-15309
▁ដោយ	-15310
▁బా	-15311
▁supaya	-15312
жил	-15313
ंप	-15314
που	-15315
▁Башҡ	-15316
වල	-15317
▁چی	-15318
яў	-15319
▁aq	-15320
▁الأس	-15321
▁sami	-15322
▁ປະ	-15323
भाव	-15324
▁என்ற	-15325
▁מצ	-15326
ۈز	-15327
UK	-15328
▁Jak	-15329
▁held	-15330
▁dela	-15331
▁phát	-15332
imm	-15333
ମା	-15334
fod	-15335
æði	-15336
ест	-15337
▁pek	-15338
reas	-15339
▁Barcel	-15340
▁cya	-15341
ଥି	-15342
eco	-15343
න්ද	-15344
▁pren	-15345
ارا	-15346
▁үй	-15347
▁mbe	-15348
wil	-15349
▁تۆ	-15350
▁kaore	-15351
རིགས་	-15352
▁рез	-15353
▁низ	-15354
▁օր	-15355
▁dann	-15356
oman	-15357
▁други	-15358
▁ander	-15359
दान	-15360
uras	-15361
ENT	-15362
▁መስ	-15363
яб	-15364
rai	-15365
ཆོས་	-15366
▁болгон	-15367
EA	-15368
▁방	-15369
▁ella	-15370
▁क्र	-15371
ାରି	-15372
▁ការ	-15373
rada	-15374
▁Այ	-15375
ibat	-15376
ště	-15377
ນະ	-15378
▁Mol	-15379
сен	-15380
ках	-15381
▁yom	-15382
დება	-15383
▁قائ	-15384
▁antara	-15385
▁אם	-15386
▁کھ	-15387
▁waxay	-15388
▁আন	-15389
▁боюнча	-15390
ayot	-15391
▁бүт	-15392
eilge	-15393
EP	-15394
ึก	-15395
▁gest	-15396
▁Ltd	-15397
▁буй	-15398
чл	-15399
▁kry	-15400
ທະ	-15401
fach	-15402
سپ	-15403
▁file	-15404
َا	-15405
▁stabil	-15406
rí	-15407
רת	-15408
אָג	-15409
ഡ്	-15410
เพื่อ	-15411
▁przez	-15412
ými	-15413
▁sigui	-15414
▁පො	-15415
ሪካ	-15416
▁note	-15417
ཁག་	-15418
dawo	-15419
àrr	-15420
▁є	-15421
ակց	-15422
▁isti	-15423
▁मुख्य	-15424
ዳን	-15425
▁සම්	-15426
▁Form	-15427
▁aza	-15428
Fi	-15429
ոտ	-15430
▁kuj	-15431
▁ọtụtụ	-15432
▁발	-15433
▁Ի	-15434
▁chik	-15435
▁бара	-15436
ეტ	-15437
imbi	-15438
▁நா	-15439
ფი	-15440
▁Camp	-15441
▁gid	-15442
њето	-15443
▁دوو	-15444
ཕྱི་	-15445
vek	-15446
etho	-15447
вали	-15448
▁prej	-15449
ೆಯಲ್ಲಿ	-15450
▁сак	-15451
וני	-15452
wayo	-15453
▁কথা	-15454
ος	-15455
עת	-15456
▁उत्	-15457
▁пи	-15458
▁sì	-15459
tida	-15460
▁Nord	-15461
ਸ਼ਨ	-15462
▁spre	-15463
▁କେ	-15464
▁Ast	-15465
▁muy	-15466
гот	-15467
ບໍລິ	-15468
ולם	-15469
לים	-15470
▁Nak	-15471
▁dës	-15472
▁अध्यक्ष	-15473
▁ඇත	-15474
བཙ	-15475
osten	-15476
ξε	-15477
▁Muh	-15478
▁Ки	-15479
▁लोक	-15480
▁tj	-15481
▁rog	-15482
amaan	-15483
▁जिल्	-15484
ەدى	-15485
արձ	-15486
▁baie	-15487
उने	-15488
gon	-15489
▁eth	-15490
▁ซึ่ง	-15491
སྨ	-15492
និង	-15493
▁nob	-15494
▁deze	-15495
▁ಸಾ	-15496
▁žel	-15497
▁بچ	-15498
▁suas	-15499
ੂਰ	-15500
▁നേ	-15501
ません	-15502
eleg	-15503
▁einer	-15504
▁булды	-15505
ต์	-15506
▁led	-15507
awa	-15508
▁কাৰ	-15509
▁تد	-15510
sak	-15511
▁ई	-15512
ਾਰੀ	-15513
zej	-15514
▁pase	-15515
อนไลน์	-15516
▁UK	-15517
▁rit	-15518
▁vod	-15519
ូប	-15520
▁Non	-15521
▁famp	-15522
▁kinahanglan	-15523
्यू	-15524
pui	-15525
ahla	-15526
▁Bul	-15527
རྒྱུ་	-15528
antoj	-15529
▁nhận	-15530
yndan	-15531
▁საქართვე	-15532
▁tio	-15533
▁Band	-15534
▁نن	-15535
▁الجز	-15536
▁mete	-15537
coin	-15538
▁Gra	-15539
▁Бер	-15540
дол	-15541
jór	-15542
▁izao	-15543
íd	-15544
itza	-15545
▁pip	-15546
ไร	-15547
▁South	-15548
▁mynd	-15549
▁reci	-15550
▁програм	-15551
sts	-15552
īm	-15553
tah	-15554
▁cuid	-15555
▁gba	-15556
▁mali	-15557
ậy	-15558
▁sip	-15559
▁شه	-15560
▁kenn	-15561
▁taas	-15562
ລົງ	-15563
నం	-15564
▁fast	-15565
eshe	-15566
▁स्वा	-15567
ৰাক	-15568
▁Ní	-15569
▁جه	-15570
▁hər	-15571
▁မြ	-15572
▁imm	-15573
▁dî	-15574
▁gian	-15575
▁التع	-15576
▁расп	-15577
โร	-15578
▁Мә	-15579
▁στα	-15580
▁Татарстан	-15581
rš	-15582
legg	-15583
өөд	-15584
▁ff	-15585
liy	-15586
nev	-15587
்ய	-15588
▁zuen	-15589
اعد	-15590
▁yav	-15591
்வ	-15592
ப்பட	-15593
▁வரு	-15594
ཉིན་	-15595
▁ਆਪਣੇ	-15596
ček	-15597
▁এর	-15598
ནག་	-15599
▁lượng	-15600
▁pih	-15601
entro	-15602
يان	-15603
▁انہ	-15604
abel	-15605
້ອຍ	-15606
▁зо	-15607
▁kib	-15608
▁dez	-15609
▁ок	-15610
antar	-15611
▁semb	-15612
▁seorang	-15613
▁compet	-15614
km	-15615
▁Cast	-15616
▁खु	-15617
რობ	-15618
alul	-15619
ิม	-15620
ofie	-15621
ington	-15622
▁você	-15623
▁രാ	-15624
▁ምክ	-15625
ຸນ	-15626
▁تحميل	-15627
▁โดย	-15628
▁کرتے	-15629
lit	-15630
▁حص	-15631
▁দিন	-15632
גיע	-15633
evo	-15634
ಾರಿ	-15635
ദ്ധ	-15636
ęd	-15637
ilə	-15638
اتى	-15639
▁आव	-15640
iloa	-15641
བཤ	-15642
сел	-15643
▁produkt	-15644
jte	-15645
▁حاصل	-15646
しい	-15647
оси	-15648
▁tanan	-15649
▁కు	-15650
▁azo	-15651
ordan	-15652
▁ая	-15653
▁dipl	-15654
πε	-15655
धि	-15656
ης	-15657
▁кет	-15658
▁ору	-15659
ắn	-15660
ออก	-15661
▁trat	-15662
▁पी	-15663
tea	-15664
▁esk	-15665
wé	-15666
▁kugira	-15667
hap	-15668
ຫຼື	-15669
ious	-15670
▁Gob	-15671
▁ଧ	-15672
▁ine	-15673
▁Depart	-15674
▁download	-15675
▁kubva	-15676
jud	-15677
ລັດຖະ	-15678
дик	-15679
ียง	-15680
jekt	-15681
▁আস	-15682
တော်	-15683
▁anh	-15684
▁ህዝ	-15685
وقع	-15686
čke	-15687
јата	-15688
▁fól	-15689
▁করতে	-15690
▁mada	-15691
ipal	-15692
▁احت	-15693
▁ਸੁ	-15694
▁sabab	-15695
▁국	-15696
تان	-15697
дун	-15698
▁fait	-15699
cut	-15700
▁viên	-15701
คล	-15702
▁then	-15703
ıld	-15704
▁исти	-15705
▁tany	-15706
itate	-15707
▁waktu	-15708
▁яҡ	-15709
زب	-15710
▁iOS	-15711
▁uth	-15712
▁שא	-15713
ýr	-15714
жы	-15715
elang	-15716
्ल	-15717
алым	-15718
▁spor	-15719
xesha	-15720
▁bisan	-15721
fana	-15722
үмк	-15723
▁ନା	-15724
ovin	-15725
▁memiliki	-15726
აშ	-15727
▁zm	-15728
▁luk	-15729
אַב	-15730
▁Sed	-15731
▁þeir	-15732
ሰብ	-15733
▁lä	-15734
elah	-15735
▁ratou	-15736
اں	-15737
шен	-15738
▁اڳ	-15739
▁сти	-15740
unar	-15741
▁لري	-15742
▁cinn	-15743
▁kimi	-15744
חות	-15745
hus	-15746
འཁ	-15747
▁yes	-15748
▁zač	-15749
زار	-15750
▁chh	-15751
imong	-15752
▁perusahaan	-15753
цт	-15754
▁gym	-15755
AY	-15756
▁LED	-15757
র্ত	-15758
lju	-15759
char	-15760
▁mundo	-15761
քում	-15762
ospital	-15763
▁Amazon	-15764
▁direkt	-15765
And	-15766
่วน	-15767
▁fale	-15768
gad	-15769
थे	-15770
idá	-15771
▁قور	-15772
nology	-15773
▁among	-15774
ື່ອງ	-15775
ways	-15776
ikira	-15777
တစ်	-15778
ылып	-15779
▁mif	-15780
▁및	-15781
▁hver	-15782
เลย	-15783
▁dà	-15784
▁도	-15785
্ণ	-15786
▁నే	-15787
iras	-15788
▁bard	-15789
▁있습니다	-15790
شف	-15791
ችላ	-15792
נע	-15793
നം	-15794
▁kontakt	-15795
ungo	-15796
arian	-15797
ories	-15798
▁Free	-15799
▁YouTube	-15800
ຕັ້ງ	-15801
ုိင္	-15802
▁rés	-15803
▁lom	-15804
▁sera	-15805
ናት	-15806
▁అయి	-15807
бас	-15808
സ്ഥ	-15809
PC	-15810
▁Nou	-15811
ലി	-15812
ວຽ	-15813
zim	-15814
irana	-15815
раў	-15816
່ອນ	-15817
ګه	-15818
▁περι	-15819
িন্তু	-15820
لے	-15821
yna	-15822
▁мы	-15823
▁merk	-15824
▁direct	-15825
isis	-15826
हार	-15827
▁thấy	-15828
▁Ye	-15829
▁ဦး	-15830
ຮ່ວ	-15831
ន្ធ	-15832
▁Hier	-15833
▁मात्र	-15834
uhake	-15835
ént	-15836
▁chất	-15837
pes	-15838
анг	-15839
րդ	-15840
▁২০	-15841
▁jur	-15842
▁रूप	-15843
ಧ್ಯ	-15844
skim	-15845
▁заб	-15846
nap	-15847
▁stru	-15848
▁garan	-15849
▁جنهن	-15850
▁sme	-15851
ກິດ	-15852
▁Real	-15853
ਸੀਂ	-15854
খ্য	-15855
▁chat	-15856
پر	-15857
▁තු	-15858
▁duke	-15859
ikali	-15860
ujú	-15861
ðið	-15862
▁watu	-15863
▁чер	-15864
▁थियो	-15865
▁ej	-15866
▁Best	-15867
ংলা	-15868
ུའི་	-15869
രം	-15870
ייז	-15871
▁extr	-15872
▁langsung	-15873
▁czy	-15874
ged	-15875
ugi	-15876
enera	-15877
nad	-15878
▁nast	-15879
▁yomwe	-15880
ρεί	-15881
ukene	-15882
মে	-15883
lev	-15884
▁قۇر	-15885
▁sov	-15886
▁ಆಗ	-15887
лийг	-15888
▁uhl	-15889
▁visi	-15890
▁vita	-15891
oses	-15892
гля	-15893
itim	-15894
less	-15895
▁konc	-15896
▁Group	-15897
▁ауыл	-15898
enze	-15899
လူ	-15900
▁́	-15901
▁sef	-15902
olg	-15903
▁ತಿ	-15904
▁ಸಿ	-15905
▁श्री	-15906
▁মা	-15907
▁Moh	-15908
▁παρα	-15909
▁কা	-15910
ຮ່ວມ	-15911
▁expl	-15912
သိ	-15913
▁phẩm	-15914
లీ	-15915
रण	-15916
▁muka	-15917
īs	-15918
▁سنڌ	-15919
▁చూ	-15920
▁aktar	-15921
▁vic	-15922
نج	-15923
ୀୟ	-15924
▁ise	-15925
▁ಹೇಳ	-15926
EF	-15927
▁yag	-15928
▁ਦਿ	-15929
▁barn	-15930
▁prá	-15931
▁nyuma	-15932
AF	-15933
▁Lok	-15934
▁hug	-15935
ңы	-15936
▁ова	-15937
ਫ਼	-15938
ទទ	-15939
▁Maria	-15940
▁vse	-15941
▁coll	-15942
ووە	-15943
▁desen	-15944
▁ፕ	-15945
▁ادار	-15946
▁२०	-15947
ním	-15948
▁bør	-15949
▁féin	-15950
▁سا	-15951
ლება	-15952
ried	-15953
кам	-15954
دیر	-15955
داق	-15956
▁lou	-15957
▁cual	-15958
ହୁ	-15959
אים	-15960
yti	-15961
▁سه	-15962
opano	-15963
▁Feder	-15964
తం	-15965
zel	-15966
▁Ut	-15967
avan	-15968
қы	-15969
ิ่ม	-15970
әре	-15971
lock	-15972
▁fyl	-15973
▁യ	-15974
▁الآن	-15975
▁ብዙ	-15976
endu	-15977
ضاء	-15978
▁oso	-15979
▁moni	-15980
▁عد	-15981
ποι	-15982
हाँ	-15983
▁ପରେ	-15984
▁Türkmenistanyň	-15985
ivu	-15986
▁kong	-15987
ংশ	-15988
▁fotograf	-15989
བཏ	-15990
ਡੇ	-15991
orge	-15992
▁Kont	-15993
сту	-15994
tera	-15995
▁طرح	-15996
▁iesp	-15997
▁част	-15998
ණ්	-15999
ิต	-16000
▁اه	-16001
ਜੀ	-16002
الح	-16003
فه	-16004
ອອກ	-16005
▁معلوم	-16006
▁daripada	-16007
ısı	-16008
▁өй	-16009
▁Бул	-16010
▁κατα	-16011
▁студ	-16012
▁ilg	-16013
▁trình	-16014
ុះ	-16015
▁لع	-16016
▁ստ	-16017
ینین	-16018
▁eku	-16019
ின்ற	-16020
▁말	-16021
пис	-16022
ikor	-16023
▁واحد	-16024
qe	-16025
டுக	-16026
ന്ദ	-16027
ará	-16028
box	-16029
ሉ።	-16030
▁used	-16031
में	-16032
żi	-16033
▁बहु	-16034
्टी	-16035
говор	-16036
نامج	-16037
▁Yesu	-16038
▁cym	-16039
▁fig	-16040
eras	-16041
▁million	-16042
elser	-16043
իվ	-16044
मुख	-16045
afna	-16046
▁або	-16047
անց	-16048
▁разли	-16049
▁saa	-16050
зиден	-16051
▁Kini	-16052
дим	-16053
рин	-16054
▁tsara	-16055
phe	-16056
▁Cho	-16057
▁شم	-16058
▁hûn	-16059
▁wakati	-16060
གན	-16061
▁صف	-16062
тән	-16063
ግባ	-16064
▁ọnụ	-16065
умҳ	-16066
yang	-16067
▁show	-16068
eru	-16069
▁sheegay	-16070
ینا	-16071
▁كلم	-16072
▁وفي	-16073
].	-16074
amvu	-16075
esn	-16076
▁text	-16077
मन	-16078
gest	-16079
annach	-16080
▁doen	-16081
унк	-16082
▁تار	-16083
▁ဖြစ်	-16084
इन	-16085
ເດ	-16086
▁access	-16087
▁noch	-16088
ິກ	-16089
atas	-16090
▁яго	-16091
▁мүмк	-16092
▁mutta	-16093
ىلەر	-16094
šanu	-16095
▁Во	-16096
્યુ	-16097
▁таш	-16098
▁plis	-16099
▁akeh	-16100
दन	-16101
τες	-16102
▁Nem	-16103
▁Bes	-16104
▁স্থ	-16105
▁sê	-16106
▁ო	-16107
▁fill	-16108
▁rang	-16109
▁शक	-16110
ahal	-16111
입니다	-16112
ិត្ត	-16113
▁nka	-16114
ེམས་	-16115
▁taut	-16116
▁واري	-16117
▁Uma	-16118
ľa	-16119
ີດ	-16120
▁வழ	-16121
▁байгуул	-16122
▁Në	-16123
ابة	-16124
osto	-16125
ьд	-16126
▁iwwer	-16127
▁fou	-16128
ência	-16129
▁toga	-16130
yş	-16131
જે	-16132
▁ζ	-16133
okol	-16134
▁سور	-16135
روس	-16136
aysia	-16137
arar	-16138
▁භ	-16139
hoz	-16140
▁kọ	-16141
ahon	-16142
▁કોઈ	-16143
▁bike	-16144
▁Uku	-16145
ấu	-16146
ண்டும்	-16147
▁ٽي	-16148
▁ዘይ	-16149
▁momba	-16150
asit	-16151
▁زۆر	-16152
श्च	-16153
▁qor	-16154
▁يكون	-16155
▁ngan	-16156
ရိ	-16157
ന്നെ	-16158
▁Alex	-16159
▁эл	-16160
▁ලබා	-16161
▁cultur	-16162
ေအ	-16163
omia	-16164
ေတာ္	-16165
▁kuring	-16166
▁ڪئي	-16167
أس	-16168
▁хез	-16169
ahar	-16170
▁bua	-16171
መን	-16172
izm	-16173
ែន	-16174
cter	-16175
▁fen	-16176
▁əs	-16177
▁facil	-16178
ministr	-16179
▁Day	-16180
▁године	-16181
anske	-16182
ūk	-16183
▁технолог	-16184
лө	-16185
▁ums	-16186
▁ئۆز	-16187
amua	-16188
▁utan	-16189
вати	-16190
▁מב	-16191
▁ପର	-16192
▁کال	-16193
▁стар	-16194
әләр	-16195
དུས་	-16196
ปร	-16197
niej	-16198
уть	-16199
yň	-16200
еда	-16201
ديم	-16202
▁rasa	-16203
▁நீ	-16204
▁હતું	-16205
amatalaga	-16206
▁Nik	-16207
wood	-16208
▁aang	-16209
▁پول	-16210
▁mahimo	-16211
හැ	-16212
nsk	-16213
བླ	-16214
тап	-16215
ulung	-16216
crip	-16217
ཟླ་	-16218
▁کول	-16219
▁لها	-16220
្នាក់	-16221
rot	-16222
ەھ	-16223
▁Ν	-16224
▁actu	-16225
פה	-16226
▁wara	-16227
▁онҳо	-16228
تون	-16229
lend	-16230
▁Kita	-16231
▁തി	-16232
▁estr	-16233
ilable	-16234
▁More	-16235
મી	-16236
iphi	-16237
umus	-16238
▁μπο	-16239
òise	-16240
ىلىك	-16241
▁ኩ	-16242
کا	-16243
▁Kad	-16244
▁மற்றும்	-16245
ལུ་	-16246
▁ଜଣ	-16247
แน	-16248
ۇم	-16249
▁loh	-16250
adigan	-16251
alet	-16252
མཆོག་	-16253
▁कार्यक्रम	-16254
▁menggunakan	-16255
रि	-16256
don	-16257
▁Soomaaliya	-16258
▁уни	-16259
ента	-16260
ំនួន	-16261
ଜି	-16262
▁نقل	-16263
ແຂ	-16264
▁ټول	-16265
▁tec	-16266
▁פאָר	-16267
▁δη	-16268
uning	-16269
ေ့	-16270
enger	-16271
▁කි	-16272
▁ጸ	-16273
▁osh	-16274
▁theih	-16275
▁কিন্তু	-16276
ستا	-16277
▁ಸು	-16278
óir	-16279
AI	-16280
োধ	-16281
▁მის	-16282
▁sø	-16283
ulum	-16284
▁kuth	-16285
чат	-16286
الار	-16287
्रेस	-16288
▁einem	-16289
▁rej	-16290
ماء	-16291
▁bax	-16292
ütün	-16293
ຊົນ	-16294
▁сы	-16295
▁Kwa	-16296
ምህ	-16297
▁uru	-16298
رج	-16299
рит	-16300
▁uč	-16301
muş	-16302
upp	-16303
fall	-16304
▁المنت	-16305
▁nanging	-16306
▁कै	-16307
όν	-16308
▁শিক্ষ	-16309
▁לת	-16310
▁الموسم	-16311
▁matua	-16312
თა	-16313
▁Tot	-16314
▁ئه	-16315
▁byen	-16316
▁khona	-16317
▁stav	-16318
டன்	-16319
ғына	-16320
▁מר	-16321
اڻي	-16322
▁anpil	-16323
រក	-16324
ಪ್ಪ	-16325
들이	-16326
tom	-16327
▁thar	-16328
ทําให้	-16329
ཏུ་	-16330
సుకు	-16331
наш	-16332
טינג	-16333
▁dul	-16334
យើង	-16335
asal	-16336
торо	-16337
ออนไลน์	-16338
▁dú	-16339
▁které	-16340
▁kwamba	-16341
▁horm	-16342
▁lill	-16343
lä	-16344
лади	-16345
ایا	-16346
▁lát	-16347
dür	-16348
ahkan	-16349
▁banget	-16350
ต่าง	-16351
རིག་	-16352
▁Cop	-16353
▁Whats	-16354
wiri	-16355
▁през	-16356
▁работ	-16357
▁خوا	-16358
વિ	-16359
wek	-16360
▁פיל	-16361
▁Шу	-16362
ىمىز	-16363
्यात	-16364
িড	-16365
ቱን	-16366
▁себе	-16367
▁وڌيڪ	-16368
▁bulan	-16369
េញ	-16370
ھو	-16371
gir	-16372
▁vụ	-16373
▁odp	-16374
▁Ras	-16375
ratti	-16376
▁util	-16377
bert	-16378
wezi	-16379
ಾಸ	-16380
▁wees	-16381
лекет	-16382
ច្រើន	-16383
▁haya	-16384
▁הכ	-16385
▁situs	-16386
▁Հայաստ	-16387
ափ	-16388
rið	-16389
▁Kum	-16390
atz	-16391
కొ	-16392
ั่น	-16393
▁proced	-16394
ຕາມ	-16395
▁EN	-16396
पछि	-16397
▁أنه	-16398
▁ან	-16399
ssä	-16400
▁goed	-16401
▁दिया	-16402
дни	-16403
▁Que	-16404
▁дом	-16405
TS	-16406
▁ڕۆژ	-16407
dzie	-16408
▁միջ	-16409
▁εί	-16410
עי	-16411
ທິ	-16412
hid	-16413
▁maual	-16414
▁tov	-16415
iał	-16416
ոխ	-16417
▁gjith	-16418
▁세	-16419
▁tangata	-16420
بط	-16421
▁අන	-16422
▁այդ	-16423
ðir	-16424
▁esa	-16425
▁Bidh	-16426
িন্ন	-16427
▁پور	-16428
▁nás	-16429
▁цел	-16430
▁siad	-16431
uff	-16432
▁той	-16433
ню	-16434
▁rub	-16435
▁ር	-16436
▁сов	-16437
▁Kong	-16438
▁Abd	-16439
acy	-16440
try	-16441
རིང་	-16442
▁байсан	-16443
▁Plus	-16444
ાસ	-16445
ẹrẹ	-16446
baar	-16447
▁aş	-16448
▁toh	-16449
▁uc	-16450
▁bệnh	-16451
ကြောင်း	-16452
ີກ	-16453
мас	-16454
▁Энэ	-16455
・・	-16456
ියේ	-16457
elet	-16458
ampang	-16459
▁még	-16460
ancia	-16461
uksen	-16462
ynt	-16463
▁:)	-16464
▁кишвар	-16465
▁End	-16466
тү	-16467
nei	-16468
▁På	-16469
▁سند	-16470
သည္။	-16471
ታዊ	-16472
▁could	-16473
Th	-16474
лом	-16475
สร	-16476
ەتتى	-16477
▁iar	-16478
angira	-16479
yî	-16480
בו	-16481
pha	-16482
луур	-16483
ียน	-16484
▁काही	-16485
▁menm	-16486
ລ້ວ	-16487
дор	-16488
▁Janu	-16489
ორი	-16490
▁ĉe	-16491
▁fua	-16492
▁tiegħek	-16493
श्य	-16494
▁Да	-16495
ဟု	-16496
elk	-16497
▁wọ	-16498
▁trước	-16499
▁rr	-16500
▁studi	-16501
ਇਆ	-16502
ibut	-16503
ၼႆ	-16504
itus	-16505
▁chang	-16506
ത്തിന്റെ	-16507
ņem	-16508
▁ozi	-16509
зов	-16510
ཆེ་	-16511
▁Seb	-16512
انے	-16513
▁posit	-16514
راو	-16515
▁Му	-16516
▁бөг	-16517
▁Dette	-16518
تۇ	-16519
▁ממ	-16520
rain	-16521
▁High	-16522
▁Русия	-16523
icz	-16524
▁بڑ	-16525
▁prima	-16526
▁ቤት	-16527
▁Muk	-16528
▁Word	-16529
ৎস	-16530
gas	-16531
hyw	-16532
ົ້ນ	-16533
▁אַלע	-16534
▁vle	-16535
ticas	-16536
נק	-16537
▁shu	-16538
▁thoirt	-16539
saa	-16540
▁աշխ	-16541
▁தொட	-16542
fum	-16543
▁moo	-16544
▁szám	-16545
▁هاو	-16546
pin	-16547
▁Mark	-16548
▁বৰ	-16549
▁иң	-16550
▁شامل	-16551
▁iż	-16552
▁cep	-16553
ڵام	-16554
ាប	-16555
мыш	-16556
▁enda	-16557
ندو	-16558
ਵਾਂ	-16559
ınız	-16560
▁individu	-16561
▁иг	-16562
▁Til	-16563
što	-16564
▁Respublik	-16565
▁Сп	-16566
▁نفس	-16567
ىتاي	-16568
lərin	-16569
isesti	-16570
▁mangrup	-16571
▁العمل	-16572
▁ਜਾਣ	-16573
▁уча	-16574
yak	-16575
▁kanë	-16576
▁пове	-16577
yla	-16578
▁نم	-16579
කට	-16580
▁పరి	-16581
▁ilay	-16582
▁desta	-16583
▁hành	-16584
▁grav	-16585
شه	-16586
भि	-16587
▁בין	-16588
кс	-16589
ፈል	-16590
ដែរ	-16591
खे	-16592
▁plast	-16593
िति	-16594
▁až	-16595
istu	-16596
▁الأخ	-16597
▁ବ୍ୟ	-16598
ők	-16599
▁educ	-16600
Afr	-16601
okom	-16602
ಬ್ಬ	-16603
▁jeho	-16604
tear	-16605
sv	-16606
ань	-16607
▁این	-16608
▁אונדזער	-16609
▁geus	-16610
▁үр	-16611
▁राज्य	-16612
▁giúp	-16613
▁ኤርትራ	-16614
лыг	-16615
▁dde	-16616
▁պետ	-16617
▁ໂດຍ	-16618
usoro	-16619
འཕྲ	-16620
ട്ടി	-16621
▁шин	-16622
യില	-16623
▁দল	-16624
▁ናብ	-16625
▁pangg	-16626
ionale	-16627
фі	-16628
dig	-16629
▁voz	-16630
▁mare	-16631
LE	-16632
ëtz	-16633
طفال	-16634
▁Ges	-16635
▁кой	-16636
▁ngez	-16637
OG	-16638
పీ	-16639
ဒီ	-16640
▁እንዳ	-16641
raj	-16642
യിൽ	-16643
▁निय	-16644
શ્	-16645
جا	-16646
▁باز	-16647
ności	-16648
▁hip	-16649
▁pea	-16650
▁Nic	-16651
▁һәр	-16652
سٽ	-16653
tigt	-16654
▁tuku	-16655
rindra	-16656
▁services	-16657
lü	-16658
▁prib	-16659
▁ಅವರ	-16660
▁문	-16661
▁олон	-16662
нова	-16663
▁سون	-16664
aken	-16665
ną	-16666
ihin	-16667
▁artikel	-16668
erra	-16669
▁कुछ	-16670
▁ወይም	-16671
itori	-16672
્રી	-16673
▁svet	-16674
ոչ	-16675
▁තම	-16676
ട്ടു	-16677
រួ	-16678
emy	-16679
▁ஜ	-16680
utar	-16681
▁Sir	-16682
▁rik	-16683
▁bahwa	-16684
▁sosial	-16685
▁event	-16686
nye	-16687
▁great	-16688
किन	-16689
▁הד	-16690
▁wez	-16691
▁جميع	-16692
▁দি	-16693
جاج	-16694
▁تط	-16695
▁ਕੰ	-16696
opol	-16697
▁csak	-16698
بە	-16699
▁fran	-16700
れる	-16701
จํา	-16702
▁AC	-16703
▁ngai	-16704
▁예	-16705
ཨ་	-16706
ート	-16707
্রে	-16708
▁Zv	-16709
ләп	-16710
utanga	-16711
ਿਤ	-16712
ሮች	-16713
anoa	-16714
▁විශ	-16715
mission	-16716
▁nova	-16717
▁kontak	-16718
དགོས་	-16719
▁зд	-16720
▁روز	-16721
▁հայտ	-16722
▁daw	-16723
▁исем	-16724
itsidwa	-16725
ental	-16726
ску	-16727
▁тран	-16728
▁ባለ	-16729
▁Sant	-16730
ersi	-16731
སྐབས་	-16732
chaidh	-16733
▁टी	-16734
dî	-16735
▁چا	-16736
чай	-16737
ண்ண	-16738
▁Pir	-16739
odaidh	-16740
▁AD	-16741
▁Tag	-16742
▁lite	-16743
ंह	-16744
▁علی	-16745
alı	-16746
љи	-16747
ديو	-16748
arti	-16749
▁бит	-16750
▁بری	-16751
ತಿಯ	-16752
▁సమ	-16753
▁होती	-16754
abili	-16755
▁diag	-16756
پا	-16757
тя	-16758
▁оро	-16759
ertos	-16760
unday	-16761
āka	-16762
ທັງ	-16763
ຖິງ	-16764
▁ස්	-16765
▁নিজ	-16766
ດັ່ງ	-16767
▁rin	-16768
rev	-16769
дік	-16770
▁беларус	-16771
باح	-16772
▁eadar	-16773
gbọ	-16774
imet	-16775
▁aber	-16776
iyi	-16777
ukur	-16778
កិច្ច	-16779
▁лә	-16780
▁læ	-16781
UE	-16782
ន្ល	-16783
▁அர	-16784
▁гад	-16785
▁পৰি	-16786
▁ترك	-16787
▁Kana	-16788
kem	-16789
ларын	-16790
▁rawa	-16791
itte	-16792
aaogaina	-16793
▁خب	-16794
fort	-16795
▁votre	-16796
▁eona	-16797
eron	-16798
▁რე	-16799
øroy	-16800
ieg	-16801
ట్టు	-16802
▁okt	-16803
▁వచ్చ	-16804
▁Pay	-16805
esten	-16806
▁heeft	-16807
▁آر	-16808
▁Madrid	-16809
▁Ham	-16810
▁जब	-16811
▁уку	-16812
▁নিৰ	-16813
▁ساي	-16814
▁dt	-16815
གྱིས་	-16816
▁AR	-16817
▁сре	-16818
▁kiri	-16819
▁inspir	-16820
▁vlast	-16821
▁هی	-16822
žete	-16823
▁služ	-16824
зам	-16825
змож	-16826
▁ibu	-16827
▁два	-16828
ើត	-16829
म्म	-16830
▁እስ	-16831
گەی	-16832
ists	-16833
▁دیک	-16834
tik	-16835
▁йөр	-16836
རྫ	-16837
འདྲ	-16838
▁onde	-16839
▁esaki	-16840
▁பட	-16841
okan	-16842
▁Jean	-16843
▁aña	-16844
▁uiga	-16845
fü	-16846
δα	-16847
akwa	-16848
buah	-16849
ustu	-16850
двэр	-16851
estra	-16852
rel	-16853
▁paci	-16854
adzi	-16855
▁Stor	-16856
▁sara	-16857
▁propos	-16858
унун	-16859
▁ರಾಜ	-16860
▁цент	-16861
▁הוי	-16862
▁tipo	-16863
جلس	-16864
େଳେ	-16865
ມ່	-16866
▁alc	-16867
▁Dani	-16868
▁dj	-16869
َل	-16870
▁бур	-16871
と思	-16872
▁სახ	-16873
▁face	-16874
གཅིག་	-16875
ezera	-16876
طع	-16877
▁έχει	-16878
itwa	-16879
▁obra	-16880
ارج	-16881
▁coc	-16882
▁síð	-16883
post	-16884
لىر	-16885
▁Ewr	-16886
▁menos	-16887
ানে	-16888
པ།	-16889
▁الفندق	-16890
སྐོར་	-16891
कु	-16892
ds	-16893
▁tran	-16894
▁sababaraha	-16895
▁dikin	-16896
▁Ար	-16897
▁gez	-16898
ليل	-16899
ველ	-16900
peci	-16901
စု	-16902
▁zag	-16903
▁یەک	-16904
▁posta	-16905
▁fid	-16906
▁gael	-16907
▁still	-16908
ennom	-16909
ాయి	-16910
▁বাংলা	-16911
sil	-16912
oliko	-16913
▁dire	-16914
୍ରା	-16915
ূৰ	-16916
▁nol	-16917
ສຸດ	-16918
▁dalka	-16919
▁abas	-16920
▁Så	-16921
ryp	-16922
▁алды	-16923
▁ngaphandle	-16924
න්ත	-16925
▁Hen	-16926
obile	-16927
▁rav	-16928
▁dai	-16929
▁njira	-16930
ıt	-16931
aland	-16932
▁profesional	-16933
▁absol	-16934
▁merc	-16935
र्ट	-16936
▁әле	-16937
▁cukup	-16938
ellä	-16939
▁ede	-16940
▁সি	-16941
▁imag	-16942
ړی	-16943
▁шум	-16944
▁temps	-16945
ទទួល	-16946
ཞིང་	-16947
▁একটি	-16948
ask	-16949
ате	-16950
ога	-16951
▁Το	-16952
amul	-16953
▁£	-16954
▁ун	-16955
dia	-16956
▁ምር	-16957
ശ്	-16958
େବେ	-16959
▁tự	-16960
ႂ်	-16961
াকে	-16962
ofan	-16963
▁जना	-16964
▁rund	-16965
فل	-16966
ché	-16967
વાર	-16968
forman	-16969
▁итеп	-16970
აბ	-16971
انە	-16972
▁mặt	-16973
▁नै	-16974
ħra	-16975
▁বলেন	-16976
чко	-16977
...]	-16978
zbekiston	-16979
cker	-16980
▁Як	-16981
▁particip	-16982
пы	-16983
▁soos	-16984
ត្ថ	-16985
▁લે	-16986
ingin	-16987
قار	-16988
▁כא	-16989
▁Кар	-16990
леген	-16991
▁gush	-16992
జ్	-16993
กว่า	-16994
▁ajo	-16995
▁રો	-16996
▁στι	-16997
▁arm	-16998
▁live	-16999
▁fed	-17000
▁dax	-17001
▁shk	-17002
▁neng	-17003
ڪن	-17004
▁ໂ	-17005
ილ	-17006
▁पि	-17007
ಗಳಲ್ಲಿ	-17008
гать	-17009
▁CD	-17010
itur	-17011
▁Ай	-17012
уй	-17013
անք	-17014
▁للت	-17015
▁koko	-17016
?,	-17017
ezeka	-17018
▁babagan	-17019
▁ie	-17020
داي	-17021
れて	-17022
མོ་	-17023
▁lug	-17024
ณ์	-17025
வில்	-17026
နာ	-17027
▁child	-17028
▁იმ	-17029
աղաք	-17030
▁turi	-17031
▁sehingga	-17032
▁Sav	-17033
▁нач	-17034
▁CN	-17035
▁vek	-17036
▁пав	-17037
▁Este	-17038
スト	-17039
▁nia	-17040
▁تخ	-17041
▁mmiri	-17042
aber	-17043
ņa	-17044
▁сат	-17045
▁aige	-17046
▁যায়	-17047
ত্য	-17048
▁cette	-17049
ོ།	-17050
ផល	-17051
▁ସମ୍	-17052
elling	-17053
▁жал	-17054
лик	-17055
▁Casino	-17056
)|	-17057
ises	-17058
▁зур	-17059
ლები	-17060
▁вис	-17061
ෙක්	-17062
▁edir	-17063
▁vrij	-17064
aban	-17065
▁نار	-17066
alde	-17067
▁ust	-17068
елер	-17069
ष्ठ	-17070
▁đối	-17071
▁रहा	-17072
୍ରେ	-17073
மிழ	-17074
▁કરવામાં	-17075
▁brand	-17076
▁ör	-17077
▁mim	-17078
▁motiv	-17079
▁પોતા	-17080
ството	-17081
▁වූ	-17082
▁tamp	-17083
ชา	-17084
▁булган	-17085
fn	-17086
だけ	-17087
தாக	-17088
▁અન	-17089
elly	-17090
▁प्रदेश	-17091
изи	-17092
သမ	-17093
▁këtë	-17094
▁געווען	-17095
▁бі	-17096
▁ଚା	-17097
▁Barcelona	-17098
▁سول	-17099
▁kukhala	-17100
ིན།	-17101
▁viol	-17102
▁Ни	-17103
▁regist	-17104
▁бат	-17105
ischen	-17106
▁tè	-17107
▁دیا	-17108
▁ukuf	-17109
MP	-17110
entral	-17111
▁أع	-17112
ിലെ	-17113
▁marang	-17114
हो	-17115
▁alm	-17116
▁Israel	-17117
▁Jen	-17118
һе	-17119
بێت	-17120
▁kha	-17121
▁hemm	-17122
▁tình	-17123
بن	-17124
▁viss	-17125
▁mendapat	-17126
▁동	-17127
▁өөр	-17128
▁tư	-17129
▁केले	-17130
enziswa	-17131
▁inici	-17132
նդ	-17133
шиг	-17134
ნა	-17135
etako	-17136
▁cô	-17137
▁বছ	-17138
្រី	-17139
▁undir	-17140
▁görə	-17141
▁रो	-17142
▁ýer	-17143
▁أكثر	-17144
kirina	-17145
əsi	-17146
▁Қазақстан	-17147
ġi	-17148
മു	-17149
ىيە	-17150
ithio	-17151
▁pisan	-17152
▁promo	-17153
▁oloa	-17154
part	-17155
عات	-17156
▁Paris	-17157
ain	-17158
▁လွ	-17159
ώς	-17160
că	-17161
▁Nat	-17162
▁eisini	-17163
▁ਵੱ	-17164
ດ້ວຍ	-17165
ectiv	-17166
рим	-17167
EB	-17168
▁बो	-17169
ດາ	-17170
▁हुने	-17171
stä	-17172
ନ୍ୟ	-17173
ਹੁ	-17174
▁ց	-17175
ள்ளது	-17176
េរ	-17177
ירה	-17178
வை	-17179
раи	-17180
▁sand	-17181
▁كام	-17182
▁אָפּ	-17183
فاع	-17184
▁ball	-17185
burg	-17186
etz	-17187
orts	-17188
▁Acc	-17189
▁Ком	-17190
▁Aku	-17191
طقة	-17192
▁ngab	-17193
ubu	-17194
▁بها	-17195
వే	-17196
▁dau	-17197
▁Rusi	-17198
▁thường	-17199
▁Wikipedia	-17200
елі	-17201
ಕೆ	-17202
เลือ	-17203
▁jwenn	-17204
▁Tab	-17205
оо	-17206
urwa	-17207
▁press	-17208
▁үл	-17209
▁però	-17210
áll	-17211
ских	-17212
▁día	-17213
▁ಫ	-17214
cur	-17215
ميز	-17216
ངོས་	-17217
hit	-17218
▁ms	-17219
otos	-17220
▁مجم	-17221
ɔn	-17222
▁برا	-17223
▁Dios	-17224
▁поп	-17225
▁دار	-17226
ۆن	-17227
▁næ	-17228
▁بنات	-17229
▁گهر	-17230
▁due	-17231
innen	-17232
▁capac	-17233
ében	-17234
▁מענט	-17235
antsi	-17236
unika	-17237
▁gema	-17238
▁Oromo	-17239
▁ເປັນ	-17240
▁റ	-17241
▁ჯ	-17242
▁אינ	-17243
ത്തില	-17244
▁қызмет	-17245
▁diẹ	-17246
▁gep	-17247
▁isu	-17248
ындағы	-17249
▁sebuah	-17250
▁mf	-17251
কৰ	-17252
▁acest	-17253
▁utama	-17254
لن	-17255
▁ቁ	-17256
▁ಅದ	-17257
▁бро	-17258
سين	-17259
▁vac	-17260
год	-17261
▁amach	-17262
αλ	-17263
тен	-17264
▁jsem	-17265
కే	-17266
▁aff	-17267
▁Film	-17268
યુ	-17269
שוב	-17270
lys	-17271
▁مم	-17272
▁Nap	-17273
▁فقط	-17274
aları	-17275
▁Eur	-17276
▁global	-17277
താ	-17278
टना	-17279
▁הז	-17280
ladi	-17281
▁되	-17282
фа	-17283
ற்று	-17284
▁эс	-17285
▁ใน	-17286
شم	-17287
živ	-17288
▁تۈ	-17289
▁ard	-17290
▁represent	-17291
▁نظر	-17292
कास	-17293
embu	-17294
▁тоа	-17295
སྙ	-17296
▁ເພື່ອ	-17297
▁აქ	-17298
▁bao	-17299
▁چون	-17300
▁така	-17301
▁буен	-17302
▁restaur	-17303
▁sine	-17304
neh	-17305
▁عروض	-17306
▁бутлуур	-17307
▁before	-17308
್ಣ	-17309
uksi	-17310
▁дээр	-17311
μέν	-17312
τρο	-17313
▁авыл	-17314
▁liyane	-17315
ىست	-17316
▁questo	-17317
vend	-17318
ിലും	-17319
▁groot	-17320
ebelisoa	-17321
▁ਸਰਕਾਰ	-17322
▁health	-17323
▁بخ	-17324
▁ਰਹੇ	-17325
▁....	-17326
▁ကြ	-17327
▁pomo	-17328
▁якія	-17329
▁haf	-17330
انات	-17331
xin	-17332
▁duk	-17333
caq	-17334
▁Wil	-17335
▁گو	-17336
ðs	-17337
aiga	-17338
▁જી	-17339
▁Indon	-17340
▁вас	-17341
gil	-17342
འདུག	-17343
▁ئار	-17344
▁boýun	-17345
▁nhiên	-17346
▁เป็น	-17347
▁Samsung	-17348
▁бъ	-17349
▁ڪار	-17350
▁hasta	-17351
iho	-17352
ట్లు	-17353
ေရာ	-17354
▁ਗਈ	-17355
ijā	-17356
▁Club	-17357
ися	-17358
▁cấp	-17359
ମି	-17360
▁neza	-17361
ортостан	-17362
ਲਾਂ	-17363
▁joka	-17364
▁kote	-17365
▁ئەن	-17366
▁דאָס	-17367
EST	-17368
▁አለ	-17369
ներին	-17370
▁চৰ	-17371
▁liter	-17372
▁رم	-17373
▁gla	-17374
ຜົນ	-17375
▁applic	-17376
▁sağ	-17377
▁haci	-17378
opu	-17379
▁MP	-17380
ahat	-17381
ಶ್	-17382
▁чар	-17383
epụta	-17384
▁Nie	-17385
قف	-17386
▁וואס	-17387
ගෙන	-17388
ະນາ	-17389
▁án	-17390
▁ახ	-17391
လို႔	-17392
ılan	-17393
▁fos	-17394
öm	-17395
ণ্ড	-17396
▁юл	-17397
▁چي	-17398
▁toàn	-17399
▁mener	-17400
tee	-17401
▁ог	-17402
▁गे	-17403
ikuwa	-17404
▁indrindra	-17405
andr	-17406
▁Bab	-17407
▁aos	-17408
эрг	-17409
insi	-17410
aluega	-17411
дад	-17412
ших	-17413
гез	-17414
стаў	-17415
ंच	-17416
▁kuphela	-17417
▁מד	-17418
ových	-17419
▁والأ	-17420
waith	-17421
ĝas	-17422
▁Mich	-17423
▁ਅੱ	-17424
▁Kami	-17425
▁vå	-17426
▁вод	-17427
▁tawo	-17428
מע	-17429
िम	-17430
wong	-17431
есі	-17432
▁дам	-17433
▁treba	-17434
▁Ju	-17435
▁fios	-17436
ninger	-17437
емо	-17438
moqda	-17439
▁право	-17440
पु	-17441
▁gwo	-17442
▁nett	-17443
▁Robert	-17444
гда	-17445
ecta	-17446
yey	-17447
chod	-17448
▁ville	-17449
▁najbol	-17450
సం	-17451
geb	-17452
kos	-17453
दर्	-17454
▁amba	-17455
▁än	-17456
▁mph	-17457
ଞ୍ଚ	-17458
▁meh	-17459
▁mér	-17460
▁amak	-17461
emer	-17462
▁ווען	-17463
veg	-17464
нән	-17465
okoa	-17466
▁Sex	-17467
▁Tre	-17468
▁There	-17469
▁جاس	-17470
ێی	-17471
ebb	-17472
etin	-17473
▁zos	-17474
▁ntle	-17475
ปี	-17476
ట్టి	-17477
េត្ត	-17478
▁بان	-17479
▁Գ	-17480
▁blev	-17481
▁Как	-17482
▁bala	-17483
lık	-17484
iven	-17485
erb	-17486
lala	-17487
ктар	-17488
▁comme	-17489
กํา	-17490
▁थी	-17491
elain	-17492
▁hopi	-17493
dii	-17494
▁right	-17495
ently	-17496
lán	-17497
▁nám	-17498
▁emas	-17499
▁صرف	-17500
▁конкур	-17501
▁Kim	-17502
етін	-17503
▁prefer	-17504
γκ	-17505
▁راي	-17506
यत	-17507
▁haere	-17508
▁નિ	-17509
▁sitt	-17510
▁گی	-17511
gende	-17512
▁bảo	-17513
▁ժամ	-17514
alari	-17515
ский	-17516
▁gé	-17517
▁աս	-17518
▁Social	-17519
▁ең	-17520
▁มี	-17521
lor	-17522
वं	-17523
▁pied	-17524
လေး	-17525
▁svar	-17526
▁التح	-17527
biy	-17528
рап	-17529
▁የእ	-17530
lut	-17531
ຮງ	-17532
ئين	-17533
▁تە	-17534
inë	-17535
ült	-17536
ရဲ့	-17537
lei	-17538
ינה	-17539
▁আই	-17540
ສ້າງ	-17541
▁دان	-17542
andro	-17543
▁versch	-17544
▁bidh	-17545
▁tentang	-17546
▁første	-17547
▁mno	-17548
pra	-17549
▁ەك	-17550
istian	-17551
ਵੀ	-17552
▁شروع	-17553
вя	-17554
▁Ғ	-17555
тел	-17556
ເນ	-17557
▁uM	-17558
ése	-17559
మైన	-17560
ــــــــ	-17561
▁sebelum	-17562
▁영	-17563
сед	-17564
داء	-17565
▁هون	-17566
ûna	-17567
▁feta	-17568
umat	-17569
▁Neg	-17570
▁How	-17571
utsh	-17572
▁PDF	-17573
▁pré	-17574
endre	-17575
ovali	-17576
লাই	-17577
قيق	-17578
sson	-17579
▁kadag	-17580
▁बढ	-17581
▁ଦେଇ	-17582
larynyň	-17583
اسب	-17584
իչ	-17585
ளி	-17586
шер	-17587
દા	-17588
دەر	-17589
▁ಹಾಗೂ	-17590
enzeka	-17591
▁dang	-17592
▁mening	-17593
ulwa	-17594
шк	-17595
ovu	-17596
▁אנדער	-17597
рын	-17598
ické	-17599
पास	-17600
▁महिला	-17601
hub	-17602
ខាង	-17603
▁kamu	-17604
ຖານ	-17605
▁Си	-17606
▁መል	-17607
ског	-17608
อต	-17609
نيك	-17610
▁cookies	-17611
▁heim	-17612
▁ក្នុង	-17613
▁emo	-17614
▁инде	-17615
כים	-17616
කාර	-17617
iken	-17618
өөр	-17619
▁át	-17620
▁irra	-17621
▁amely	-17622
▁roj	-17623
▁Malaysia	-17624
йынса	-17625
jalan	-17626
▁Ale	-17627
gap	-17628
rich	-17629
ສໍາ	-17630
▁Tsy	-17631
▁አንድ	-17632
ový	-17633
ହିଁ	-17634
▁ኢትዮጵያ	-17635
▁ketika	-17636
лаа	-17637
וויי	-17638
▁deta	-17639
▁అని	-17640
▁musi	-17641
▁Our	-17642
ാൻ	-17643
▁қаб	-17644
umm	-17645
बार	-17646
▁dunia	-17647
▁izinto	-17648
inner	-17649
قب	-17650
ୁବ	-17651
▁ruk	-17652
▁kula	-17653
▁קיין	-17654
רן	-17655
্ঞ	-17656
vit	-17657
េច	-17658
دەن	-17659
▁What	-17660
▁bare	-17661
▁wrth	-17662
îl	-17663
ຄື	-17664
▁Па	-17665
▁Pil	-17666
▁หรือ	-17667
▁мом	-17668
▁wä	-17669
sha	-17670
▁କହି	-17671
▁puta	-17672
уна	-17673
យ៉ាង	-17674
▁Gud	-17675
▁زیات	-17676
▁دل	-17677
▁зан	-17678
▁ପୁ	-17679
▁kwam	-17680
צן	-17681
தை	-17682
ynn	-17683
▁hrang	-17684
▁experience	-17685
బా	-17686
▁فع	-17687
▁zinthu	-17688
хт	-17689
onas	-17690
▁جون	-17691
▁ନେଇ	-17692
Na	-17693
▁bygg	-17694
وعة	-17695
atira	-17696
▁သိ	-17697
iros	-17698
ေသ	-17699
▁ભા	-17700
▁ಮೇ	-17701
vej	-17702
כער	-17703
▁šk	-17704
▁dugu	-17705
▁ради	-17706
▁grupo	-17707
▁ଲୋକ	-17708
ענע	-17709
▁буйынса	-17710
▁كت	-17711
fika	-17712
كار	-17713
დეგ	-17714
zaile	-17715
▁bằng	-17716
оны	-17717
▁loại	-17718
وام	-17719
alaman	-17720
станов	-17721
▁آھي	-17722
▁боз	-17723
▁දු	-17724
▁Mari	-17725
▁lö	-17726
wej	-17727
▁line	-17728
uste	-17729
дағы	-17730
▁love	-17731
chilar	-17732
▁ⵜ	-17733
▁ነገር	-17734
гыш	-17735
рай	-17736
ូម	-17737
ىنە	-17738
▁qe	-17739
▁كبير	-17740
דוק	-17741
▁شى	-17742
에게	-17743
▁በሚ	-17744
▁राष्ट्र	-17745
tais	-17746
▁ਪਹਿ	-17747
▁soti	-17748
▁সকল	-17749
məsi	-17750
▁हजार	-17751
▁ਵੱਲ	-17752
ෙර	-17753
ատար	-17754
ευ	-17755
▁пла	-17756
▁زیاد	-17757
རྣམས་	-17758
arth	-17759
фек	-17760
▁virus	-17761
▁complet	-17762
ர்கள	-17763
essen	-17764
ying	-17765
གོ་	-17766
স্থিত	-17767
▁نج	-17768
oce	-17769
▁area	-17770
▁αγ	-17771
▁tekst	-17772
كرا	-17773
▁актив	-17774
ើរ	-17775
leng	-17776
ကု	-17777
▁μα	-17778
uct	-17779
שראל	-17780
▁ზ	-17781
▁କୁ	-17782
ਉਂ	-17783
play	-17784
▁här	-17785
më	-17786
apu	-17787
uban	-17788
ମାନେ	-17789
għa	-17790
yenera	-17791
▁keluar	-17792
▁jā	-17793
▁وخ	-17794
▁yaiku	-17795
▁zaidi	-17796
aké	-17797
itso	-17798
▁طب	-17799
▁Ent	-17800
ោង	-17801
▁жак	-17802
▁ID	-17803
ვით	-17804
▁mō	-17805
time	-17806
izira	-17807
igr	-17808
▁भू	-17809
▁umuntu	-17810
▁dân	-17811
уваат	-17812
ụtara	-17813
äiv	-17814
▁(@	-17815
”،	-17816
ερ	-17817
icación	-17818
▁tạo	-17819
adzirwa	-17820
▁aca	-17821
▁punt	-17822
ួក	-17823
ിച്ചു	-17824
▁baha	-17825
▁جديد	-17826
▁yax	-17827
▁नाम	-17828
▁nggawe	-17829
%,	-17830
▁hé	-17831
▁Але	-17832
ekan	-17833
▁još	-17834
iniz	-17835
▁Center	-17836
▁hij	-17837
▁izango	-17838
もの	-17839
alach	-17840
▁taum	-17841
ibr	-17842
adzir	-17843
▁tế	-17844
▁tiếp	-17845
larının	-17846
▁mesmo	-17847
▁Leb	-17848
▁años	-17849
▁konkur	-17850
ओं	-17851
ບັດ	-17852
eniu	-17853
ობის	-17854
▁Mai	-17855
▁ono	-17856
▁Má	-17857
▁حم	-17858
▁Kurdistanê	-17859
तर	-17860
uhle	-17861
▁thiết	-17862
▁கோ	-17863
ории	-17864
unak	-17865
ización	-17866
kk	-17867
ड़ी	-17868
amer	-17869
intu	-17870
iswe	-17871
▁bija	-17872
িছু	-17873
້ອມ	-17874
ردن	-17875
нь	-17876
خاب	-17877
ദ്യ	-17878
▁each	-17879
▁điểm	-17880
bara	-17881
▁бойын	-17882
▁sao	-17883
▁Naz	-17884
алуу	-17885
▁vok	-17886
วน	-17887
▁вс	-17888
▁пу	-17889
ཤེས་	-17890
▁mór	-17891
▁akwụkwọ	-17892
য়ো	-17893
ills	-17894
سبب	-17895
ടുത്ത	-17896
vä	-17897
ແນ	-17898
▁blan	-17899
▁лу	-17900
▁haben	-17901
▁TH	-17902
дээ	-17903
مين	-17904
▁মানু	-17905
▁quando	-17906
▁¿	-17907
▁seach	-17908
ገባ	-17909
▁USB	-17910
▁few	-17911
גל	-17912
თავ	-17913
ເມືອງ	-17914
كات	-17915
quer	-17916
▁ചി	-17917
یران	-17918
▁sjál	-17919
▁khaw	-17920
ünü	-17921
හන්	-17922
▁එම	-17923
▁lih	-17924
▁буенча	-17925
ଦ୍ଧ	-17926
wele	-17927
eau	-17928
ราะ	-17929
dis	-17930
▁уй	-17931
▁being	-17932
iban	-17933
ێو	-17934
мад	-17935
ethu	-17936
że	-17937
რის	-17938
▁ਜਿਸ	-17939
▁class	-17940
ႆႈ	-17941
iniñ	-17942
▁ýok	-17943
▁Dy	-17944
▁hn	-17945
োৱাৰ	-17946
but	-17947
цен	-17948
ផ្ទ	-17949
▁डा	-17950
гуз	-17951
▁sín	-17952
▁које	-17953
▁авто	-17954
▁kedah	-17955
▁tâm	-17956
▁escr	-17957
ล็	-17958
ིར་	-17959
гін	-17960
ือน	-17961
▁batho	-17962
▁ಚಿ	-17963
реш	-17964
्यान	-17965
▁ash	-17966
▁पै	-17967
▁ክፍ	-17968
▁grunn	-17969
ofo	-17970
▁мл	-17971
kang	-17972
▁мес	-17973
▁بلا	-17974
▁pula	-17975
▁komunik	-17976
▁πρό	-17977
▁xuất	-17978
унда	-17979
ίζ	-17980
ွင်	-17981
▁etdi	-17982
▁tetapi	-17983
ាវ	-17984
▁እዚ	-17985
▁ami	-17986
ຊາດ	-17987
ảnh	-17988
▁основ	-17989
బు	-17990
ನಿ	-17991
ಳೆ	-17992
▁ବର୍	-17993
عية	-17994
▁ඔහු	-17995
ത്തിൽ	-17996
ূল	-17997
jah	-17998
▁සැ	-17999
ances	-18000
gio	-18001
kw	-18002
▁available	-18003
endele	-18004
▁Ann	-18005
▁gyf	-18006
▁format	-18007
▁ਦੀਆਂ	-18008
▁עד	-18009
adii	-18010
ជាមួយ	-18011
теү	-18012
▁bola	-18013
▁depart	-18014
▁Դ	-18015
ေလး	-18016
huah	-18017
▁Nag	-18018
ौं	-18019
▁വീ	-18020
▁турында	-18021
▁biy	-18022
రీ	-18023
▁pane	-18024
ແກ	-18025
ורים	-18026
▁더	-18027
tors	-18028
▁alles	-18029
이라	-18030
▁분	-18031
▁хезмәт	-18032
ierno	-18033
jø	-18034
ेष	-18035
дет	-18036
▁sọ	-18037
گو	-18038
ects	-18039
▁বলে	-18040
▁Lal	-18041
▁radio	-18042
▁성	-18043
▁ڏي	-18044
▁klik	-18045
▁دوی	-18046
▁À	-18047
▁خص	-18048
▁جانە	-18049
essä	-18050
▁Inc	-18051
▁رج	-18052
យក	-18053
ple	-18054
▁مون	-18055
▁తన	-18056
▁ទ	-18057
െന്നും	-18058
▁실	-18059
मंत्री	-18060
टक	-18061
▁බැ	-18062
ධා	-18063
วก	-18064
▁यो	-18065
▁Tex	-18066
ovanje	-18067
မိ	-18068
▁tale	-18069
▁Kaj	-18070
ហ៊	-18071
▁jud	-18072
▁mkpa	-18073
கள்	-18074
▁nema	-18075
▁бойынша	-18076
ட்	-18077
îya	-18078
మే	-18079
▁אמ	-18080
▁graf	-18081
ניק	-18082
▁porno	-18083
▁kwal	-18084
ከል	-18085
рави	-18086
▁Martin	-18087
▁Hot	-18088
▁αλλά	-18089
▁حب	-18090
▁sei	-18091
▁వ్య	-18092
akas	-18093
▁väl	-18094
▁xo	-18095
ished	-18096
elin	-18097
hairt	-18098
▁because	-18099
pot	-18100
▁bë	-18101
▁fall	-18102
так	-18103
ແຕ່	-18104
▁Covid	-18105
▁polis	-18106
▁ສະ	-18107
▁baf	-18108
▁ato	-18109
ຶກ	-18110
▁ты	-18111
▁jalan	-18112
yyət	-18113
▁թե	-18114
ilir	-18115
▁સર	-18116
გან	-18117
▁অধ	-18118
▁nau	-18119
▁केली	-18120
▁عدد	-18121
▁fáil	-18122
▁uair	-18123
적인	-18124
▁کسی	-18125
▁tác	-18126
▁lana	-18127
ied	-18128
্লে	-18129
لىقى	-18130
ening	-18131
▁ապ	-18132
abila	-18133
▁бала	-18134
▁Produk	-18135
ودة	-18136
▁ëm	-18137
▁айт	-18138
Ng	-18139
▁Apa	-18140
éal	-18141
▁کړې	-18142
ավար	-18143
▁සා	-18144
▁svo	-18145
ابع	-18146
▁bộ	-18147
▁ਅੰ	-18148
▁byg	-18149
ieren	-18150
▁ઇ	-18151
ிற்க	-18152
▁tib	-18153
▁tốt	-18154
▁nech	-18155
▁boýunça	-18156
ଶା	-18157
▁ຂ	-18158
वान	-18159
asie	-18160
زو	-18161
▁Yn	-18162
eff	-18163
▁hla	-18164
▁apan	-18165
embro	-18166
لىنى	-18167
itions	-18168
sob	-18169
uel	-18170
အတွက်	-18171
▁المط	-18172
adal	-18173
▁ευ	-18174
▁Arab	-18175
▁والے	-18176
▁puede	-18177
▁Catal	-18178
▁ሥ	-18179
adt	-18180
▁metu	-18181
▁standard	-18182
leriň	-18183
▁ቦ	-18184
вать	-18185
ось	-18186
owych	-18187
änn	-18188
▁abo	-18189
▁kết	-18190
▁terj	-18191
▁lla	-18192
ୂର୍	-18193
ريقة	-18194
▁शि	-18195
▁кызмат	-18196
▁dör	-18197
etes	-18198
▁Kus	-18199
▁ଅଧ	-18200
ུངས་	-18201
▁yal	-18202
ணி	-18203
ỗi	-18204
▁хүн	-18205
▁°	-18206
ුණු	-18207
iya	-18208
▁ngem	-18209
▁Об	-18210
umia	-18211
▁BBC	-18212
TC	-18213
▁Għ	-18214
▁kik	-18215
ម្ល	-18216
▁බල	-18217
▁Β	-18218
ování	-18219
▁hiahia	-18220
▁tausaga	-18221
▁Аб	-18222
▁हुए	-18223
سك	-18224
ཀྱང་	-18225
▁lint	-18226
ພັນ	-18227
▁atawa	-18228
▁தமிழ	-18229
▁energi	-18230
▁পে	-18231
▁poh	-18232
▁visit	-18233
skr	-18234
цій	-18235
ផ្ល	-18236
▁anta	-18237
ونے	-18238
▁തുട	-18239
▁පිළ	-18240
รี	-18241
▁কো	-18242
liot	-18243
คา	-18244
▁kòm	-18245
yny	-18246
engen	-18247
รู้	-18248
▁Mem	-18249
▁são	-18250
▁Ou	-18251
▁ара	-18252
▁शिक्ष	-18253
ཡུལ་	-18254
▁avo	-18255
ables	-18256
▁كيف	-18257
▁zona	-18258
▁እንደሚ	-18259
▁mehr	-18260
▁ಅವರು	-18261
▁අද	-18262
▁dispos	-18263
ahir	-18264
▁bou	-18265
▁haq	-18266
▁geen	-18267
ထဲ	-18268
ਥੇ	-18269
▁কৰিছে	-18270
ема	-18271
ਾਨੂੰ	-18272
രുന്ന	-18273
ວດ	-18274
isema	-18275
▁pelo	-18276
▁hiệu	-18277
ხვა	-18278
▁باست	-18279
▁nada	-18280
nio	-18281
▁දි	-18282
▁both	-18283
▁יכול	-18284
▁रही	-18285
зя	-18286
әб	-18287
ཕྱོགས་	-18288
ქმ	-18289
なく	-18290
اما	-18291
empo	-18292
དབང་	-18293
▁sɛ	-18294
▁ରହି	-18295
▁البح	-18296
aday	-18297
▁ọh	-18298
apho	-18299
यी	-18300
▁siv	-18301
واء	-18302
ន់	-18303
umā	-18304
אַד	-18305
▁nof	-18306
▁rim	-18307
▁[...]	-18308
▁nghiệp	-18309
စီ	-18310
înê	-18311
embe	-18312
▁wys	-18313
▁school	-18314
ត្រូវបាន	-18315
▁pasar	-18316
▁शु	-18317
ႀကီး	-18318
ђе	-18319
▁ട	-18320
▁الرياض	-18321
▁ବୋଲି	-18322
མཛ	-18323
▁iq	-18324
▁verða	-18325
ื้อ	-18326
▁yıl	-18327
omala	-18328
▁bahin	-18329
▁mungkin	-18330
▁מכ	-18331
▁صاح	-18332
▁অনুষ্ঠ	-18333
ạch	-18334
▁అవ	-18335
شق	-18336
▁lamp	-18337
רט	-18338
▁வை	-18339
▁gyd	-18340
ེགས་	-18341
▁Jed	-18342
▁aplikasi	-18343
▁fabr	-18344
▁papa	-18345
ຫານ	-18346
▁ماڻ	-18347
ungkin	-18348
▁३	-18349
▁Download	-18350
▁Ty	-18351
▁gih	-18352
မယ	-18353
▁registr	-18354
нали	-18355
▁matag	-18356
yzy	-18357
εις	-18358
▁قب	-18359
▁дер	-18360
▁zonse	-18361
jší	-18362
wera	-18363
сер	-18364
ड़ा	-18365
भाग	-18366
алыҡ	-18367
▁عليها	-18368
ừa	-18369
▁év	-18370
▁նաեւ	-18371
▁Ru	-18372
▁ድማ	-18373
▁obr	-18374
▁bili	-18375
лоб	-18376
emento	-18377
ину	-18378
haa	-18379
inyaka	-18380
▁kadar	-18381
ắng	-18382
▁order	-18383
වේ	-18384
▁Kub	-18385
ِن	-18386
▁গো	-18387
iksi	-18388
▁eins	-18389
▁celeb	-18390
فظ	-18391
▁దా	-18392
▁peyi	-18393
ాలి	-18394
▁foc	-18395
▁Jul	-18396
▁మొ	-18397
ვერ	-18398
▁दिव	-18399
▁ملا	-18400
▁वह	-18401
્યાં	-18402
▁tới	-18403
▁द्व	-18404
adaan	-18405
ized	-18406
▁install	-18407
indu	-18408
▁баг	-18409
▁විස	-18410
unti	-18411
жен	-18412
▁eleg	-18413
▁بشكل	-18414
▁Mada	-18415
▁wur	-18416
▁hefyd	-18417
▁Он	-18418
رات	-18419
apitoa	-18420
▁یوه	-18421
ęs	-18422
կայ	-18423
▁진	-18424
▁entèn	-18425
elij	-18426
▁אויס	-18427
ೆಗೆ	-18428
▁Nos	-18429
▁иск	-18430
ۆك	-18431
▁bagian	-18432
ชน	-18433
▁tx	-18434
ིགས་	-18435
********	-18436
▁تل	-18437
wetara	-18438
▁এটা	-18439
[...]
