{
  "version": "1.0",
  "truncation": null,
  "padding": null,
  "added_tokens": [
    {
      "id": 0,
      "content": "<unk>",
      "single_word": false,
      "lstrip": false,
      "rstrip": false,
      "normalized": false,
      "special": true
    },
    {
      "id": 2650,
      "content": "<s>",
      "single_word": false,
      "lstrip": false,
      "rstrip": false,
      "normalized": false,
      "special": true
    },
    {
      "id": 2651,
      "content": "</s>",
      "single_word": false,
      "lstrip": false,
      "rstrip": false,
      "normalized": false,
      "special": true
    },
    {
      "id": 2652,
      "content": "<pad>",
      "single_word": false,
      "lstrip": false,
      "rstrip": false,
      "normalized": false,
      "special": true
    }
  ],
  "normalizer": {
    "type": "NFKC"
  },
  "pre_tokenizer": {
    "type": "Metaspace",
    "replacement": "▁",
    "prepend_scheme": "always",
    "split": true
  },
  "post_processor": null,
  "decoder": {
    "type": "Metaspace",
    "replacement": "▁",
    "prepend_scheme": "always",
    "split": true
  },
  "model": {
    "type": "BPE",
    "dropout": 0.1,
    "unk_token": "<unk>",
    "continuing_subword_prefix": null,
    "end_of_word_suffix": null,
    "fuse_unk": false,
    "byte_fallback": false,
    "ignore_merges": false,
    "vocab": {
      "<unk>": 0,
      "\n": 1,
      "!": 2,
      "\"": 3,
      "#": 4,
      "$": 5,
      "'": 6,
      "(": 7,
      ")": 8,
      ",": 9,
      "-": 10,
      ".": 11,
      "/": 12,
      "0": 13,
      "1": 14,
      "2": 15,
      "3": 16,
      "4": 17,
      "5": 18,
      "6": 19,
      "7": 20,
      "8": 21,
      "9": 22,
      ":": 23,
      ";": 24,
      "=": 25,
      "?": 26,
      "@": 27,
      "A": 28,
      "B": 29,
      "C": 30,
      "D": 31,
      "E": 32,
      "F": 33,
      "G": 34,
      "H": 35,
      "I": 36,
      "J": 37,
      "K": 38,
      "L": 39,
      "M": 40,
      "N": 41,
      "O": 42,
      "P": 43,
      "Q": 44,
      "R": 45,
      "S": 46,
      "T": 47,
      "U": 48,
      "V": 49,
      "W": 50,
      "Y": 51,
      "Z": 52,
      "_": 53,
      "a": 54,
      "b": 55,
      "c": 56,
      "d": 57,
      "e": 58,
      "f": 59,
      "g": 60,
      "h": 61,
      "i": 62,
      "j": 63,
      "k": 64,
      "l": 65,
      "m": 66,
      "n": 67,
      "o": 68,
      "p": 69,
      "q": 70,
      "r": 71,
      "s": 72,
      "t": 73,
      "u": 74,
      "v": 75,
      "w": 76,
      "x": 77,
      "y": 78,
      "z": 79,
      "¡": 80,
      "©": 81,
      "¿": 82,
      "À": 83,
      "Ë": 84,
      "Ù": 85,
      "à": 86,
      "á": 87,
      "æ": 88,
      "è": 89,
      "é": 90,
      "ë": 91,
      "ì": 92,
      "í": 93,
      "ñ": 94,
      "ò": 95,
      "ó": 96,
      "ù": 97,
      "ú": 98,
      "ü": 99,
      "ĩ": 100,
      "ń": 101,
      "Ŋ": 102,
      "ŋ": 103,
      "Ŕ": 104,
      "ŕ": 105,
      "ũ": 106,
      "Ɓ": 107,
      "Ɛ": 108,
      "ǹ": 109,
      "ɓ": 110,
      "ɔ": 111,
      "ɗ": 112,
      "ɛ": 113,
      "ɲ": 114,
      "̀": 115,
      "́": 116,
      "̃": 117,
      "̱": 118,
      "̶": 119,
      "द": 120,
      "न": 121,
      "ब": 122,
      "म": 123,
      "र": 124,
      "ल": 125,
      "ा": 126,
      "्": 127,
      "ṹ": 128,
      "—": 129,
      "‘": 130,
      "’": 131,
      "“": 132,
      "”": 133,
      "▁": 134,
      "Ꞌ": 135,
      "u̶": 136,
      "▁a": 137,
      "▁n": 138,
      "▁k": 139,
      "▁m": 140,
      "▁t": 141,
      "e̱": 142,
      "an": 143,
      "▁d": 144,
      "▁j": 145,
      "▁o": 146,
      "▁y": 147,
      "in": 148,
      "ak": 149,
      "wa": 150,
      "u̶x": 151,
      "ri": 152,
      "e̱'": 153,
      "▁b": 154,
      "▁je̱'": 155,
      "ay": 156,
      "he": 157,
      "▁g": 158,
      "▁s": 159,
      "u̶xy": 160,
      "▁je̱'e̱": 161,
      "am": 162,
      "le": 163,
      "▁w": 164,
      "jk": 165,
      "ch": 166,
      "▁l": 167,
      "ug": 168,
      "ur": 169,
      "ag": 170,
      "aj": 171,
      "ar": 172,
      "er": 173,
      "ah": 174,
      "en": 175,
      "▁p": 176,
      "a̱": 177,
      "on": 178,
      "ew": 179,
      "yu̶": 180,
      "un": 181,
      "ig": 182,
      "or": 183,
      "es": 184,
      "▁an": 185,
      "as": 186,
      "▁q": 187,
      "at": 188,
      "u̶u̶": 189,
      "al": 190,
      "▁i": 191,
      "ko": 192,
      "▁à": 193,
      "hi": 194,
      "▁T": 195,
      "▁f": 196,
      "▁r": 197,
      "ad": 198,
      "▁qe": 199,
      "oo": 200,
      "▁the": 201,
      "▁ajk": 202,
      "▁ajku̶xy": 203,
      "im": 204,
      "it": 205,
      "us": 206,
      "ed": 207,
      "▁na": 208,
      "um": 209,
      "li": 210,
      "▁ma": 211,
      "a'": 212,
      "et": 213,
      "▁ko": 214,
      ".\n": 215,
      "▁J": 216,
      "iw": 217,
      "▁N": 218,
      "eg": 219,
      "▁nug": 220,
      "▁ole": 221,
      "u'": 222,
      "yi": 223,
      "▁ɓ": 224,
      "ajt": 225,
      "iwur": 226,
      "di": 227,
      "ëm": 228,
      "u̶ñ": 229,
      "▁to": 230,
      "ir": 231,
      "▁Y": 232,
      "▁in": 233,
      "ut": 234,
      "▁A": 235,
      "anah": 236,
      "ɛ̀": 237,
      "▁K": 238,
      "ai": 239,
      "▁2": 240,
      "▁c": 241,
      "el": 242,
      "▁wa": 243,
      "▁Tiwur": 244,
      "▁ɗ": 245,
      "▁ëm": 246,
      "▁D": 247,
      "▁ka": 248,
      "an.": 249,
      "om": 250,
      "▁1": 251,
      "u̶d": 252,
      "▁danah": 253,
      "kë": 254,
      "ul": 255,
      "én": 256,
      "▁S": 257,
      "ajty": 258,
      "os": 259,
      "si": 260,
      "▁tu̶": 261,
      "ab": 262,
      "eŕ": 263,
      "▁yay": 264,
      "ek": 265,
      "ku̶xy": 266,
      "lag": 267,
      "wn": 268,
      "▁am": 269,
      "▁najty": 270,
      "la": 271,
      "tu̶": 272,
      "uk": 273,
      "▁ñ": 274,
      "▁ch": 275,
      "▁lo": 276,
      "▁and": 277,
      "ing": 278,
      "ya": 279,
      "ús": 280,
      "u̶'": 281,
      "▁do": 282,
      "ari": 283,
      "▁M": 284,
      "▁ne": 285,
      "▁ge": 286,
      "▁u": 287,
      "▁ku": 288,
      "ang": 289,
      "esús": 290,
      "aŕ": 291,
      "to": 292,
      "▁B": 293,
      "em": 294,
      "id": 295,
      "▁y'": 296,
      "od": 297,
      "▁h": 298,
      "▁at": 299,
      "▁of": 300,
      "▁bë": 301,
      "▁Jesús": 302,
      "bu̶": 303,
      "ük": 304,
      "▁E": 305,
      "▁ag": 306,
      "u̶u̶y": 307,
      "u'un": 308,
      "yii": 309,
      "ll": 310,
      "ro": 311,
      "▁G": 312,
      "▁né": 313,
      "ii": 314,
      "▁C": 315,
      "u̶ch": 316,
      "▁nir": 317,
      "ij": 318,
      "ti": 319,
      "yu": 320,
      "▁L": 321,
      "▁“": 322,
      "▁nyi": 323,
      "▁mu̶d": 324,
      "▁du'un": 325,
      "aa": 326,
      "kx": 327,
      "up": 328,
      "▁I": 329,
      "akar": 330,
      "▁lɛ": 331,
      "a'ay": 332,
      "gy": 333,
      "ih": 334,
      "is": 335,
      "pa": 336,
      "▁R": 337,
      "u̶m": 338,
      "▁os": 339,
      "rig": 340,
      "by": 341,
      "ip": 342,
      "pu̶": 343,
      "ŕi": 344,
      "▁5": 345,
      "▁v": 346,
      "▁myu̶": 347,
      "▁du": 348,
      "▁ɓi": 349,
      "▁ge,": 350,
      "aay": 351,
      "kkë": 352,
      "▁4": 353,
      "▁yaj": 354,
      "aka": 355,
      "▁gë": 356,
      "▁danahas": 357,
      "abet": 358,
      "tu̶jk": 359,
      ":\n": 360,
      "ap": 361,
      "ht": 362,
      "sabet": 363,
      "▁3": 364,
      "inah": 365,
      "ris": 366,
      "lisabet": 367,
      "▁chi": 368,
      "'o": 369,
      "ku": 370,
      "▁H": 371,
      "an,": 372,
      "anch": 373,
      "▁for": 374,
      "▁rì": 375,
      "aŕinah": 376,
      "ep": 377,
      "eko": 378,
      "oh": 379,
      "▁x": 380,
      "u̶g": 381,
      "▁ad": 382,
      "▁men": 383,
      "▁th": 384,
      "▁on": 385,
      "ako": 386,
      "▁sew": 387,
      "▁wi": 388,
      "u̶u̶d": 389,
      "énih": 390,
      "wng": 391,
      "yiibu̶": 392,
      "▁mu̶dyiibu̶": 393,
      "ios": 394,
      "nu̶": 395,
      "tz": 396,
      "▁he": 397,
      "▁as": 398,
      "▁tz": 399,
      "▁jy": 400,
      "▁yo": 401,
      "▁bul": 402,
      "▁so": 403,
      "▁wénih": 404,
      "ajp": 405,
      "oot": 406,
      "eg.": 407,
      "ɛ̀n": 408,
      "▁20": 409,
      "▁Tiwurdi": 410,
      "▁ɗi": 411,
      "▁Dios": 412,
      "▁neby": 413,
      "▁Elisabet": 414,
      "akarai": 415,
      "gyu̶xy": 416,
      "a,": 417,
      "av": 418,
      "dig": 419,
      "ni": 420,
      "py": 421,
      "ú̶": 422,
      "▁6": 423,
      "▁u̶u̶": 424,
      "▁a̱": 425,
      "▁keŕ": 426,
      "▁ts": 427,
      "▁wit": 428,
      "ere": 429,
      "▁Naŕinah": 430,
      "u̶ñ,": 431,
      "▁kawa": 432,
      "▁doup": 433,
      "▁u̶u̶ch": 434,
      "awa": 435,
      "ba": 436,
      "go": 437,
      "re": 438,
      "▁ken": 439,
      "▁mu̶u̶d": 440,
      "ans": 441,
      "▁di": 442,
      "▁okkë": 443,
      "▁bü": 444,
      "yu̶ñ": 445,
      "▁ɓɛ": 446,
      "▁Is": 447,
      ":\n—": 448,
      "akaraia": 449,
      ".”": 450,
      "Chi": 451,
      "ec": 452,
      "ga": 453,
      "il": 454,
      "lo": 455,
      "me": 456,
      "st": 457,
      "ɔ̀": 458,
      "▁O": 459,
      "▁en": 460,
      "▁ni": 461,
      "▁ke": 462,
      "▁ka'": 463,
      "▁ta̱": 464,
      "akri": 465,
      "▁bu": 466,
      "ight": 467,
      "▁ɗa̱": 468,
      "▁Sakaraia": 469,
      "\n1": 470,
      "ei": 471,
      "eo": 472,
      "gë": 473,
      "ho": 474,
      "ka": 475,
      "ow": 476,
      "ra": 477,
      "▁7": 478,
      "▁nus": 479,
      "▁ka̱": 480,
      "ani": 481,
      "▁gam": 482,
      "▁st": 483,
      "u̶xyu̶": 484,
      "ama": 485,
      "ali": 486,
      "ook": 487,
      "▁ajku̶xy.": 488,
      ".\n1": 489,
      "▁lokë": 490,
      "▁Mari": 491,
      "u̶maay": 492,
      "▁kena": 493,
      "▁ka'p": 494,
      ".1": 495,
      "Nug": 496,
      "Tiwur": 497,
      "bë": 498,
      "ck": 499,
      "een": 500,
      "joot": 501,
      "ku̶x": 502,
      "ly": 503,
      "na": 504,
      "në": 505,
      "th": 506,
      "tu": 507,
      "ter": 508,
      "ɔn": 509,
      "ɛl": 510,
      "▁P": 511,
      "▁W": 512,
      "▁ë": 513,
      "▁hi": 514,
      "u̶j": 515,
      "▁mo": 516,
      "▁moo": 517,
      "▁dim": 518,
      "▁jim": 519,
      "▁ba": 520,
      "▁gad": 521,
      "agr": 522,
      "erod": 523,
      "esus": 524,
      "adz": 525,
      "adü": 526,
      "▁ajku̶xy,": 527,
      "▁naŕi": 528,
      "u'ug": 529,
      "▁ëmla": 530,
      "yaak": 531,
      "▁that": 532,
      "Da": 533,
      "ce": 534,
      "ci": 535,
      "dz": 536,
      "ha": 537,
      "haa": 538,
      "ion": 539,
      "ky": 540,
      "kpu̶": 541,
      "ol": 542,
      "oɓ": 543,
      "pp": 544,
      "tt": 545,
      "xyu̶": 546,
      "yo": 547,
      "yaj": 548,
      "àa": 549,
      "▁e": 550,
      "u̶w": 551,
      "u̶y": 552,
      "▁ku̶xyu̶": 553,
      "▁mor": 554,
      "ann": 555,
      "▁da": 556,
      "▁de": 557,
      "▁oy": 558,
      "▁owa": 559,
      "▁ome": 560,
      "▁go": 561,
      "▁si": 562,
      "ort": 563,
      "▁ajku̶xy:\n—": 564,
      "▁Nug": 565,
      "u̶ñ.": 566,
      "▁Yon": 567,
      "▁Ka̱": 568,
      "▁was": 569,
      "▁tsu": 570,
      ",”": 571,
      "Mari": 572,
      "aɓ": 573,
      "byu̶": 574,
      "eri": 575,
      "jy": 576,
      "oul": 577,
      "pi": 578,
      "shi": 579,
      "tti": 580,
      "ub": 581,
      "uuk": 582,
      "xku̶xy": 583,
      "yin": 584,
      "ɛɛ": 585,
      "▁ì": 586,
      "▁ew": 587,
      "▁ig": 588,
      "▁us": 589,
      "▁nam": 590,
      "▁nim": 591,
      "▁noh": 592,
      "▁ki": 593,
      "▁ky": 594,
      "▁kì": 595,
      "▁kun": 596,
      "▁man": 597,
      "▁mem": 598,
      "▁dah": 599,
      "▁des": 600,
      "▁ja'ay": 601,
      "ake": 602,
      "▁bin": 603,
      "hen": 604,
      "▁la": 605,
      "▁làa": 606,
      "▁pa": 607,
      "ong": 608,
      "ewew": 609,
      "▁anan,": 610,
      "▁ij": 611,
      "▁is": 612,
      "▁ili": 613,
      "▁qewa": 614,
      "▁mari": 615,
      "▁Jer": 616,
      "u'u": 617,
      "▁ñay": 618,
      "▁ñu̶maay": 619,
      "u̶'it": 620,
      "▁y'ay": 621,
      "▁Herod": 622,
      "▁201": 623,
      "▁buli": 624,
      "▁nusig": 625,
      "▁mooko": 626,
      "agrag": 627,
      "▁dahm": 628,
      "//": 629,
      "aw": 630,
      "e,": 631,
      "hà": 632,
      "jük": 633,
      "ka̱": 634,
      "ksi": 635,
      "mu̶d": 636,
      "nɛ": 637,
      "nam": 638,
      "rom": 639,
      "s.": 640,
      "se": 641,
      "sak": 642,
      "te": 643,
      "uu": 644,
      "uŕ": 645,
      "udi": 646,
      "ver": 647,
      "yas": 648,
      "érig": 649,
      "ñu̶": 650,
      "ür": 651,
      "▁ri": 652,
      "▁le": 653,
      "u̶p": 654,
      "▁al": 655,
      "▁ar": 656,
      "▁king": 657,
      "▁te": 658,
      "▁dar": 659,
      "▁das": 660,
      "▁jut": 661,
      "▁ol": 662,
      "▁oko": 663,
      "▁olag": 664,
      "▁ya": 665,
      "▁yi": 666,
      "▁gagrag": 667,
      "▁wan": 668,
      "jktu̶jk": 669,
      "arto": 670,
      "▁pro": 671,
      "▁ro": 672,
      "imb": 673,
      "▁16": 674,
      "eŕdi": 675,
      "tu̶g": 676,
      "yaꞋ": 677,
      "▁uŕi": 678,
      "ideo": 679,
      "u̶u̶ygyu̶xy": 680,
      "iich": 681,
      "▁nyijük": 682,
      "ishi": 683,
      "apx": 684,
      "'oxyu̶": 685,
      "wngth": 686,
      "▁sowa": 687,
      "▁Isra": 688,
      "▁ene": 689,
      "eenhi": 690,
      "jooty": 691,
      "▁gadd": 692,
      "▁Ka̱shi": 693,
      "▁kunum": 694,
      "▁Jerus": 695,
      "▁ñu̶maayu̶": 696,
      "▁y'ayuuk": 697,
      "artoon": 698,
      "'oxyu̶jktu̶jk": 699,
      "wngthang": 700,
      "▁Israel": 701,
      "▁Ka̱shile": 702,
      "'ij": 703,
      "a.": 704,
      "aɗ": 705,
      "aak": 706,
      "deenhi": 707,
      "eesus": 708,
      "ja'ay": 709,
      "mwn": 710,
      "nig": 711,
      "ple": 712,
      "sa": 713,
      "uc": 714,
      "vi": 715,
      "win": 716,
      "wol": 717,
      "zk": 718,
      "éksi": 719,
      "ëk": 720,
      "▁F": 721,
      "▁Z": 722,
      "▁ut": 723,
      "▁all": 724,
      "▁nwngthang": 725,
      "▁kat": 726,
      "▁may": 727,
      "▁ma̱": 728,
      "▁ta": 729,
      "wari": 730,
      "▁be": 731,
      "▁bük": 732,
      "hetti": 733,
      "▁sén": 734,
      "amu": 735,
      "▁we": 736,
      "▁wy": 737,
      "aghà": 738,
      "eru̶": 739,
      "one": 740,
      "yu̶'": 741,
      "und": 742,
      "orn": 743,
      "est": 744,
      "▁qere": 745,
      "u̶u̶yu̶": 746,
      "alam": 747,
      "▁ih": 748,
      "ado": 749,
      "a'a": 750,
      "▁kowol": 751,
      "▁toku": 752,
      "▁Yeesus": 753,
      "▁ingë": 754,
      "▁AP": 755,
      "▁waw": 756,
      "eku": 757,
      "uku": 758,
      "odo": 759,
      "llah": 760,
      "yud": 761,
      "▁xu̶u̶": 762,
      "▁adama": 763,
      "ajpt": 764,
      "ú̶kx": 765,
      "▁with": 766,
      "▁witt": 767,
      "▁sillah": 768,
      "▁daré": 769,
      "▁gagragsak": 770,
      "'ajt": 771,
      "'kpu̶": 772,
      "..": 773,
      "Mu̶'it": 774,
      "Sén": 775,
      "do": 776,
      "g.": 777,
      "gu": 778,
      "gar": 779,
      "io": 780,
      "jip": 781,
      "ki": 782,
      "ma": 783,
      "mat": 784,
      "nah": 785,
      "our": 786,
      "ram": 787,
      "sɛ": 788,
      "ta̱": 789,
      "uq": 790,
      "ve": 791,
      "wr": 792,
      "é̱": 793,
      "ëga": 794,
      "ɔ́": 795,
      "ɛ́": 796,
      "▁8": 797,
      "▁Q": 798,
      "▁u̶x": 799,
      "▁eko": 800,
      "▁éksi": 801,
      "u̶jk": 802,
      "▁ayin": 803,
      "▁no": 804,
      "▁nhe": 805,
      "▁kp": 806,
      "▁kpa": 807,
      "▁mu̶": 808,
      "▁mew": 809,
      "▁meŕ": 810,
      "▁miich": 811,
      "▁tyu": 812,
      "▁torn": 813,
      "e̱tz": 814,
      "anak": 815,
      "▁dug": 816,
      "▁dig": 817,
      "▁janch": 818,
      "▁ot": 819,
      "▁o'kpu̶": 820,
      "▁bérig": 821,
      "▁gb": 822,
      "▁gi": 823,
      "▁gun": 824,
      "▁gum": 825,
      "▁se": 826,
      "▁were": 827,
      "chin": 828,
      "▁lin": 829,
      "▁light": 830,
      "ugy": 831,
      "▁pris": 832,
      "ews": 833,
      "ore": 834,
      "aty": 835,
      "atku̶xy": 836,
      "ala": 837,
      "alén": 838,
      "▁faŕ": 839,
      "▁from": 840,
      "▁rü": 841,
      "▁rep": 842,
      "▁qeri": 843,
      "oosɛ": 844,
      "a't": 845,
      "ette": 846,
      "▁Na": 847,
      "▁to'oxyu̶jktu̶jk": 848,
      "▁Am": 849,
      "ɛ̀ɛ": 850,
      "▁Ki": 851,
      "▁cl": 852,
      "elle": 853,
      "▁Dav": 854,
      "▁So": 855,
      "▁ameg": 856,
      "▁ñak": 857,
      "angu̶xy": 858,
      "▁Bet": 859,
      "bu̶jk": 860,
      "▁agom": 861,
      "▁Ch": 862,
      "ije̱'": 863,
      "tion": 864,
      "▁Ray": 865,
      "▁ospi": 866,
      "▁vishi": 867,
      "▁xy": 868,
      "▁bulu": 869,
      "ave": 870,
      "ni'": 871,
      "▁keŕdi": 872,
      "▁gamag": 873,
      "▁stor": 874,
      "▁his": 875,
      "▁dimba": 876,
      "oɓus": 877,
      "Maria": 878,
      "byu̶d": 879,
      "▁nohwa": 880,
      "▁kìe": 881,
      "▁binag": 882,
      "▁buliko": 883,
      "udia": 884,
      "imbij": 885,
      "▁Jerusalén": 886,
      "▁nwngthangmwn": 887,
      "a'añ": 888,
      "▁nheette": 889,
      "▁tornado": 890,
      "▁dugi": 891,
      "oosɛɓ": 892,
      "▁Davit": 893,
      "▁vishili": 894,
      "-1": 895,
      "3Y": 896,
      "?\n": 897,
      "Je̱'": 898,
      "Ko": 899,
      "Ti": 900,
      "ain": 901,
      "aam": 902,
      "aag": 903,
      "be": 904,
      "br": 905,
      "ble": 906,
      "ct": 907,
      "dü": 908,
      "dle": 909,
      "der": 910,
      "e.": 911,
      "gà": 912,
      "hle": 913,
      "hone": 914,
      "ja": 915,
      "janch": 916,
      "ke": 917,
      "khetti": 918,
      "my": 919,
      "o,": 920,
      "oug": 921,
      "ps": 922,
      "pó": 923,
      "sur": 924,
      "stu̶jk": 925,
      "ts": 926,
      "tɛ̀": 927,
      "tom": 928,
      "uh": 929,
      "wi": 930,
      "weg": 931,
      "xt": 932,
      "¿Ti": 933,
      "àà": 934,
      "òo": 935,
      "ɛn": 936,
      "́s": 937,
      "’s": 938,
      "▁z": 939,
      "▁un": 940,
      "▁ɛ́": 941,
      "▁́s": 942,
      "▁aj": 943,
      "▁asi": 944,
      "▁nas": 945,
      "▁nhaa": 946,
      "▁kus": 947,
      "▁kalam": 948,
      "▁mu̶j": 949,
      "▁tyu̶": 950,
      "▁thi": 951,
      "anig": 952,
      "▁doo": 953,
      "▁jyu": 954,
      "▁out": 955,
      "ind": 956,
      "ini": 957,
      "akwa": 958,
      "u̶xu̶'": 959,
      "▁by": 960,
      "▁bòo": 961,
      "hed": 962,
      "hem": 963,
      "▁get": 964,
      "▁sum": 965,
      "lestu̶jk": 966,
      "▁whe": 967,
      "▁wei": 968,
      "▁whaa": 969,
      "▁lhi": 970,
      "▁lëga": 971,
      "ary": 972,
      "aham": 973,
      "end": 974,
      "▁pe": 975,
      "ond": 976,
      "igu̶xu̶'": 977,
      "▁anan.": 978,
      "ase": 979,
      "ation": 980,
      "alo": 981,
      "▁it": 982,
      "kok": 983,
      "▁foɓus": 984,
      "▁re": 985,
      "▁these": 986,
      "▁ajku̶xyu̶ñ": 987,
      "ime": 988,
      "▁koŕ": 989,
      ".\n2": 990,
      "▁ɓaghà": 991,
      "ajtzk": 992,
      "▁Yo": 993,
      "▁Yür": 994,
      "▁Yoosɛɓ": 995,
      "utum": 996,
      "ail": 997,
      "▁ci": 998,
      "▁chen": 999,
      "▁wal": 1000,
      "▁ɗy": 1001,
      "▁10": 1002,
      "▁11": 1003,
      "▁15": 1004,
      "▁Sal": 1005,
      "eksi": 1006,
      "lag.": 1007,
      "▁dowa": 1008,
      "angar": 1009,
      "to,": 1010,
      "▁have": 1011,
      "▁atu": 1012,
      "▁atan.": 1013,
      "▁Law": 1014,
      "▁“Da": 1015,
      "kxy": 1016,
      "gyu̶x": 1017,
      "rigri": 1018,
      "▁myu̶na": 1019,
      "▁duak": 1020,
      "akawa": 1021,
      "▁He": 1022,
      "▁tzajp": 1023,
      "dig.": 1024,
      "▁Naŕinahri": 1025,
      "▁ɓɛɛ̀": 1026,
      ".”\n": 1027,
      "ect": 1028,
      "▁Marii": 1029,
      "Tiwurdi": 1030,
      "ku̶xp": 1031,
      "yaakku̶xy": 1032,
      "yajni'": 1033,
      "ould": 1034,
      "▁ewlag": 1035,
      "▁ñayyajni'": 1036,
      "▁dasil": 1037,
      "uction": 1038,
      "▁wyimbij": 1039,
      "ú̶kxku̶xy": 1040,
      "▁report": 1041,
      "▁Kiris": 1042,
      "▁Bethle": 1043,
      "▁nasip": 1044,
      "▁this": 1045,
      "▁lhia": 1046,
      "▁foɓuso": 1047,
      "ajtzkapx": 1048,
      "▁Yürnë": 1049,
      "▁myu̶naangu̶xy": 1050,
      "▁tzajpjooty": 1051,
      "▁ñayyajni'igu̶xu̶'": 1052,
      "▁Bethlehem": 1053,
      "\n(": 1054,
      "\nC": 1055,
      "\nR": 1056,
      "#1": 1057,
      "://": 1058,
      "Danah": 1059,
      "Gam": 1060,
      "Keŕdi": 1061,
      "Na": 1062,
      "Video": 1063,
      "ax": 1064,
      "ajk": 1065,
      "bi": 1066,
      "bw": 1067,
      "cri": 1068,
      "com": 1069,
      "day": 1070,
      "ewa": 1071,
      "fwr": 1072,
      "gi": 1073,
      "gu̶xy": 1074,
      "gur": 1075,
      "gu̶ch": 1076,
      "ham": 1077,
      "i'": 1078,
      "ji": 1079,
      "ju̶w": 1080,
      "ld": 1081,
      "lay": 1082,
      "m,": 1083,
      "n.": 1084,
      "ny": 1085,
      "najtzkapx": 1086,
      "ous": 1087,
      "oll": 1088,
      "o'o": 1089,
      "rë": 1090,
      "rder": 1091,
      "sto": 1092,
      "u.": 1093,
      "vas": 1094,
      "wen": 1095,
      "xy": 1096,
      "ye": 1097,
      "yal": 1098,
      "zyas": 1099,
      "ém": 1100,
      "éri": 1101,
      "ìɓ": 1102,
      "íi": 1103,
      "ŋì": 1104,
      "ŕum": 1105,
      "ɔɓ": 1106,
      "ɗa̱": 1107,
      "ɛ̃": 1108,
      "▁(": 1109,
      "▁Ɛ": 1110,
      "▁ǹ": 1111,
      "Ꞌan": 1112,
      "u̶n": 1113,
      "▁aü": 1114,
      "▁aaj": 1115,
      "▁alo": 1116,
      "▁apó": 1117,
      "▁auction": 1118,
      "▁ng": 1119,
      "▁në": 1120,
      "▁nek": 1121,
      "▁ngo": 1122,
      "▁nije̱'": 1123,
      "▁kum": 1124,
      "▁keg": 1125,
      "▁keku": 1126,
      "▁kajpt": 1127,
      "▁me": 1128,
      "▁mid": 1129,
      "▁mjanch": 1130,
      "▁ti": 1131,
      "▁tr": 1132,
      "▁tu'": 1133,
      "▁takar": 1134,
      "e̱j": 1135,
      "▁dari": 1136,
      "▁dho": 1137,
      "▁jii": 1138,
      "▁jwng": 1139,
      "▁ogo": 1140,
      "▁yal": 1141,
      "▁yum": 1142,
      "▁yadü": 1143,
      "akɔɓ": 1144,
      "▁bo": 1145,
      "▁ban": 1146,
      "her": 1147,
      "▁sam": 1148,
      "am\n1": 1149,
      "▁wu": 1150,
      "▁who": 1151,
      "cho": 1152,
      "▁li": 1153,
      "▁lam": 1154,
      "ure": 1155,
      "urko": 1156,
      "ago": 1157,
      "ard": 1158,
      "ent": 1159,
      "▁pi": 1160,
      "▁po": 1161,
      "▁put": 1162,
      "▁peo": 1163,
      "a̱n": 1164,
      "a̱ka̱": 1165,
      "yu̶ch": 1166,
      "▁anë": 1167,
      "ated": 1168,
      "▁iako": 1169,
      "▁ideenhi": 1170,
      "▁The": 1171,
      "▁Ten": 1172,
      "▁fuŕ": 1173,
      "▁rutum": 1174,
      "▁ra̱ka̱": 1175,
      "adyii": 1176,
      "▁they": 1177,
      "lick": 1178,
      "▁kout": 1179,
      ".\nJ": 1180,
      "▁New": 1181,
      "dijy": 1182,
      "irst": 1183,
      "▁Ak": 1184,
      "▁Aɓ": 1185,
      "▁Keŕdi": 1186,
      "▁21": 1187,
      "▁24": 1188,
      "▁28": 1189,
      "▁can": 1190,
      "▁con": 1191,
      "ell": 1192,
      "▁wap": 1193,
      "▁ɗì": 1194,
      "▁ñú̶kxku̶xy": 1195,
      "u̶'u̶m": 1196,
      "u̶'u̶y": 1197,
      "▁ney": 1198,
      "▁kuak": 1199,
      "▁kuŕum": 1200,
      "▁Bodo": 1201,
      "▁Ge": 1202,
      "▁Gun": 1203,
      "▁God": 1204,
      "▁Cartoon": 1205,
      "▁nyikok": 1206,
      "rig.": 1207,
      "ipku̶xp": 1208,
      "▁video": 1209,
      "▁myu̶d": 1210,
      "▁myu̶n": 1211,
      "▁ɓiì": 1212,
      "risto": 1213,
      "▁tzipku̶xp": 1214,
      "▁jyadyii": 1215,
      "▁your": 1216,
      "▁bulb": 1217,
      "digri": 1218,
      "pyú̶": 1219,
      "▁dian": 1220,
      "yu̶ñ.": 1221,
      "▁Maria": 1222,
      "tervi": 1223,
      "adü,": 1224,
      "pped": 1225,
      "▁ex": 1226,
      "annel": 1227,
      "▁ajku̶xy:\n—¿Ti": 1228,
      "oulli": 1229,
      "▁eweg": 1230,
      "▁nime̱tz": 1231,
      "▁paatku̶xy": 1232,
      "▁2013": 1233,
      "▁dahmak": 1234,
      "mu̶dyaak": 1235,
      "▁16.1": 1236,
      "yaꞋi": 1237,
      "▁uŕiy": 1238,
      "u̶u̶ygyu̶xy,": 1239,
      "▁y'ayuuknajtzkapx": 1240,
      "▁utsur": 1241,
      "▁kataŕ": 1242,
      "▁wittak": 1243,
      "▁Qeri": 1244,
      "▁kpaŋ": 1245,
      "▁meŕe": 1246,
      "▁tyuñ": 1247,
      "anakai": 1248,
      "▁digum": 1249,
      "▁linako": 1250,
      "ugypyú̶": 1251,
      "▁clos": 1252,
      "▁ñakyu̶ñ": 1253,
      "byu̶du̶jk": 1254,
      "▁weiy": 1255,
      "\n(M": 1256,
      "#1:": 1257,
      "ollow": 1258,
      "stolestu̶jk": 1259,
      "▁apóstolestu̶jk": 1260,
      "▁darig.": 1261,
      "▁yumalo": 1262,
      "▁people": 1263,
      "▁ideenhikhetti": 1264,
      "▁fuŕuh": 1265,
      "▁y'ayuuknajtzkapxu̶u̶y": 1266,
      "▁utsura": 1267,
      "\n#": 1268,
      "\nF": 1269,
      "\nI": 1270,
      "\nJ": 1271,
      "'ad": 1272,
      ")\n": 1273,
      "-2": 1274,
      "-f": 1275,
      ".com": 1276,
      "24": 1277,
      "2Chi": 1278,
      "3Nug": 1279,
      "9Y": 1280,
      "?”": 1281,
      "Elisabet": 1282,
      "Ijip": 1283,
      "Naŕinah": 1284,
      "Peru̶": 1285,
      "Rì": 1286,
      "The": 1287,
      "af": 1288,
      "ber": 1289,
      "bir": 1290,
      "cr": 1291,
      "cí": 1292,
      "ces": 1293,
      "du": 1294,
      "dim": 1295,
      "ej": 1296,
      "eed": 1297,
      "ff": 1298,
      "fet": 1299,
      "g,": 1300,
      "gu̶x": 1301,
      "gen": 1302,
      "gu'ug": 1303,
      "hu": 1304,
      "hnig": 1305,
      "ible": 1306,
      "ict": 1307,
      "jed": 1308,
      "ju̶ñ": 1309,
      "juu": 1310,
      "kp": 1311,
      "kajp": 1312,
      "lam": 1313,
      "las": 1314,
      "lëm": 1315,
      "lai": 1316,
      "lük": 1317,
      "manah": 1318,
      "ng": 1319,
      "nw": 1320,
      "nal": 1321,
      "o.": 1322,
      "otu̶jk": 1323,
      "opy": 1324,
      "pyu̶": 1325,
      "pul": 1326,
      "port": 1327,
      "qan.": 1328,
      "rì": 1329,
      "s,": 1330,
      "so": 1331,
      "ta": 1332,
      "ty": 1333,
      "të": 1334,
      "ted": 1335,
      "tu'ug": 1336,
      "tps": 1337,
      "ud": 1338,
      "ved": 1339,
      "w,": 1340,
      "wj": 1341,
      "xu̶": 1342,
      "ygyu̶xy": 1343,
      "za": 1344,
      "zawa": 1345,
      "Ëm": 1346,
      "áp": 1347,
      "é.": 1348,
      "éhnig": 1349,
      "ño": 1350,
      "ón": 1351,
      "ŕko": 1352,
      "ũamu": 1353,
      "ɔɔ": 1354,
      "▁ed": 1355,
      "▁uk": 1356,
      "▁ao": 1357,
      "▁are": 1358,
      "▁ahu": 1359,
      "▁nm": 1360,
      "▁night": 1361,
      "▁news": 1362,
      "▁níi": 1363,
      "▁ndijy": 1364,
      "▁ker": 1365,
      "▁kas": 1366,
      "▁kel": 1367,
      "▁kuk": 1368,
      "▁kɔ̀": 1369,
      "▁kɔ́": 1370,
      "▁kanakai": 1371,
      "▁kéhnig": 1372,
      "▁më": 1373,
      "▁min": 1374,
      "▁mar": 1375,
      "▁mad": 1376,
      "▁mir": 1377,
      "▁man.": 1378,
      "▁mu̶'it": 1379,
      "▁muŕ": 1380,
      "▁m'ij": 1381,
      "▁ty": 1382,
      "▁tal": 1383,
      "▁tut": 1384,
      "▁tap": 1385,
      "▁take": 1386,
      "ana": 1387,
      "and": 1388,
      "anw": 1389,
      "anam": 1390,
      "▁dü": 1391,
      "▁dri": 1392,
      "▁day": 1393,
      "▁dro": 1394,
      "▁je": 1395,
      "▁ja'": 1396,
      "▁jab": 1397,
      "▁jour": 1398,
      "▁om": 1399,
      "▁yam": 1400,
      "▁yajt": 1401,
      "▁yaa": 1402,
      "▁yɛ̀ɛ": 1403,
      "▁yini": 1404,
      "in.": 1405,
      "ins": 1406,
      "indz": 1407,
      "inyo": 1408,
      "inmanah": 1409,
      "aku": 1410,
      "akë": 1411,
      "wa'": 1412,
      "u̶xpu̶": 1413,
      "▁beko": 1414,
      "ayɛl": 1415,
      "▁ser": 1416,
      "▁sim": 1417,
      "▁som": 1418,
      "▁sans": 1419,
      "▁sakri": 1420,
      "▁wɔ": 1421,
      "▁wind": 1422,
      "▁would": 1423,
      "▁well": 1424,
      "ugu̶u̶y": 1425,
      "ag.": 1426,
      "age": 1427,
      "ar,": 1428,
      "aret": 1429,
      "arann": 1430,
      "erf": 1431,
      "ering": 1432,
      "▁pl": 1433,
      "▁peko": 1434,
      "▁peru̶": 1435,
      "▁phone": 1436,
      "▁pu̶n": 1437,
      "ono": 1438,
      "ewit": 1439,
      "yu̶u̶y": 1440,
      "unë": 1441,
      "unny": 1442,
      "ig.": 1443,
      "orld": 1444,
      "essi": 1445,
      "▁any": 1446,
      "▁anig": 1447,
      "▁anuq": 1448,
      "▁anlag.": 1449,
      "as,": 1450,
      "ass": 1451,
      "atam": 1452,
      "ato,": 1453,
      "u̶u̶g": 1454,
      "▁àá": 1455,
      "▁ànɛ": 1456,
      "hio": 1457,
      "▁fag": 1458,
      "▁flick": 1459,
      "▁first": 1460,
      "▁follow": 1461,
      "▁ru": 1462,
      "▁rë": 1463,
      "adio": 1464,
      "ood": 1465,
      "oom": 1466,
      "▁ajku̶xyu̶ñ,": 1467,
      "▁ajku̶xyu̶ñ.": 1468,
      "iti": 1469,
      "ity": 1470,
      "itor": 1471,
      "ust": 1472,
      "ettu": 1473,
      ".\n3": 1474,
      "▁Jn": 1475,
      "▁Ng": 1476,
      "▁Né": 1477,
      "▁Nam\n1": 1478,
      "eg,": 1479,
      "▁olele": 1480,
      "▁ɓì": 1481,
      "▁ɓum": 1482,
      "dip": 1483,
      "irayɛl": 1484,
      "▁Yos": 1485,
      "▁Yesus": 1486,
      "▁Yudia": 1487,
      "▁Yakɔɓ": 1488,
      "▁intervi": 1489,
      "▁Ar": 1490,
      "▁Kan": 1491,
      "▁Karann": 1492,
      "elë": 1493,
      "▁wadeenhi": 1494,
      "▁ɗii": 1495,
      "▁Da": 1496,
      "▁Do": 1497,
      "▁Dewit": 1498,
      "▁kavas": 1499,
      "ome": 1500,
      "▁14": 1501,
      "▁18": 1502,
      "u̶dyaakku̶xy": 1503,
      "ost": 1504,
      "abu̶": 1505,
      "abra": 1506,
      "eka": 1507,
      "lagwa": 1508,
      "lagri": 1509,
      "tu̶m": 1510,
      "▁cham": 1511,
      "▁chaag": 1512,
      "yaay": 1513,
      "u̶'u̶": 1514,
      "u̶'u̶w": 1515,
      "▁doka": 1516,
      "▁up": 1517,
      "▁kuyaꞋ": 1518,
      "▁kuja'ay": 1519,
      "▁Bo": 1520,
      "▁Baɓ": 1521,
      "emakawa": 1522,
      "ide": 1523,
      "idzawa": 1524,
      "▁y'o'o": 1525,
      "odali": 1526,
      "▁hũ": 1527,
      "▁hay": 1528,
      "u̶u̶yñu̶": 1529,
      "▁Gali": 1530,
      "▁Cle": 1531,
      "▁Chi": 1532,
      "▁Cristo": 1533,
      "u̶chu̶ñ": 1534,
      "▁Loug": 1535,
      "▁“K": 1536,
      "▁In": 1537,
      "▁Ijip": 1538,
      "▁lɛ,": 1539,
      "▁lɛ:": 1540,
      "ist": 1541,
      "isu": 1542,
      "isah": 1543,
      "▁Ro": 1544,
      "u̶mu̶": 1545,
      "right": 1546,
      "▁myu̶gu'ug": 1547,
      "aaygyu̶xy": 1548,
      "https": 1549,
      "▁31": 1550,
      "▁xyaj": 1551,
      "u̶gyii": 1552,
      "u̶gu̶u̶g": 1553,
      "▁mento,": 1554,
      "nu̶kxy": 1555,
      "▁jyajty": 1556,
      "▁jya't": 1557,
      "▁you": 1558,
      "▁buluk": 1559,
      "▁bullëm": 1560,
      "ɛ̀ngà": 1561,
      "anshi": 1562,
      "▁Isirayɛl": 1563,
      "ilon": 1564,
      "▁Okkë": 1565,
      "▁Order": 1566,
      "▁keh": 1567,
      "▁keinmanah": 1568,
      "▁ɗa̱,": 1569,
      "▁nusgur": 1570,
      "▁ka̱ta̱": 1571,
      ".\n17": 1572,
      "ku̶xnu̶": 1573,
      "ɛl;": 1574,
      "▁Play": 1575,
      "▁World": 1576,
      "▁mour": 1577,
      "▁dimdim": 1578,
      "▁back": 1579,
      "▁baci": 1580,
      "▁baŋì": 1581,
      "adzo": 1582,
      "▁def": 1583,
      "▁sila": 1584,
      "jya'ay": 1585,
      "▁meman": 1586,
      "▁ja'aymy": 1587,
      "ewew,": 1588,
      "▁ijxy": 1589,
      "▁isanig": 1590,
      "u'ubu̶jk": 1591,
      "▁2012": 1592,
      "mu̶dmu̶dyaak": 1593,
      "▁arw": 1594,
      "▁jutu̶ñ,": 1595,
      "▁yaꞋan": 1596,
      "▁roja": 1597,
      "▁gaddë": 1598,
      "▁gaddëk": 1599,
      "aaku̶": 1600,
      "winm": 1601,
      "▁mayun": 1602,
      "▁toku.": 1603,
      "▁ingëla": 1604,
      "▁wawtu": 1605,
      "▁wittew": 1606,
      "mats": 1607,
      "▁u̶xkajp": 1608,
      "▁kpamu": 1609,
      "▁mu̶k": 1610,
      "▁gbàà": 1611,
      "▁amegwa": 1612,
      "▁Channel": 1613,
      "▁storm": 1614,
      "▁nwngthangmwnha": 1615,
      "▁tornadoes": 1616,
      "Je̱'e̱": 1617,
      "tɛ̀ɗ": 1618,
      "▁ajtu̶m": 1619,
      "▁asilag": 1620,
      "▁jyuugypyú̶": 1621,
      "▁where": 1622,
      "▁koŕewa": 1623,
      "▁ɗyem": 1624,
      "gyu̶xnu̶": 1625,
      "▁ewlagwari": 1626,
      "▁wyimbijt": 1627,
      "▁ñayyajni'igu̶xu̶'u̶gyii": 1628,
      "Danahas": 1629,
      "cribe": 1630,
      "rëp": 1631,
      "yalɛ̀n": 1632,
      "ìɓan": 1633,
      "▁ǹtɛ̀ɗ": 1634,
      "▁aajur": 1635,
      "▁ngok": 1636,
      "▁kegeŕ": 1637,
      "▁middle": 1638,
      "e̱jtz": 1639,
      "▁jiiby": 1640,
      "▁yalà": 1641,
      "a̱nka̱": 1642,
      "▁koutor": 1643,
      "▁wapidzawa": 1644,
      "▁bulbs": 1645,
      "▁exp": 1646,
      "▁nime̱tzkpu̶": 1647,
      "▁y'ayuuknajtzkapxu̶u̶ybyu̶du̶jk": 1648,
      "biraham": 1649,
      "cípul": 1650,
      "▁kelime": 1651,
      "▁made": 1652,
      "▁muŕdig": 1653,
      "▁m'ijxku̶xy": 1654,
      "▁dropped": 1655,
      "▁journal": 1656,
      "▁yiniǹ": 1657,
      "▁sansan": 1658,
      "▁Karannah": 1659,
      "▁kavasa": 1660,
      "▁chaagoh": 1661,
      "u̶'u̶wu̶ch": 1662,
      "▁kuyaꞋan": 1663,
      "▁Baɓilon": 1664,
      "▁Lougwa": 1665,
      "https://": 1666,
      "▁baŋì,": 1667,
      "▁ja'aymye̱jtz": 1668,
      "▁wapidzawaaka": 1669,
      "cípulotu̶jk": 1670,
      "\nA": 1671,
      "\nL": 1672,
      "\nW": 1673,
      "!!": 1674,
      "!\nI": 1675,
      "#24": 1676,
      "'on": 1677,
      ")\n1": 1678,
      "-g": 1679,
      "-ɓ": 1680,
      "-st": 1681,
      ".4": 1682,
      ".or": 1683,
      "0;": 1684,
      "0A": 1685,
      "0Gam": 1686,
      "2A": 1687,
      "39": 1688,
      "4-": 1689,
      "5Nug": 1690,
      "6Maria": 1691,
      "8;": 1692,
      "9-2": 1693,
      "@e": 1694,
      "AH": 1695,
      "Bü": 1696,
      "Bul": 1697,
      "Bodo": 1698,
      "Cartoon": 1699,
      "Funny": 1700,
      "Ge": 1701,
      "Gë": 1702,
      "Herod": 1703,
      "IN": 1704,
      "Janch": 1705,
      "Miich": 1706,
      "Nir": 1707,
      "Okë": 1708,
      "Ogo": 1709,
      "Pro": 1710,
      "Phone": 1711,
      "Qe": 1712,
      "Ray": 1713,
      "Sal": 1714,
      "Sakarai": 1715,
      "Th": 1716,
      "Yo": 1717,
      "Yɛ̀ɛ": 1718,
      "aŋ": 1719,
      "ale": 1720,
      "ait": 1721,
      "aanch": 1722,
      "ace": 1723,
      "au.": 1724,
      "bur": 1725,
      "byu̶ñ": 1726,
      "bani": 1727,
      "book": 1728,
      "blai": 1729,
      "cc": 1730,
      "da": 1731,
      "dy": 1732,
      "dew": 1733,
      "dyu̶": 1734,
      "dan.": 1735,
      "du̶p": 1736,
      "du̶gu̶u̶g": 1737,
      "ey": 1738,
      "eet": 1739,
      "e.\n": 1740,
      "fo": 1741,
      "fò": 1742,
      "fer": 1743,
      "fil": 1744,
      "fter": 1745,
      "fuu": 1746,
      "gam": 1747,
      "gle": 1748,
      "ga'": 1749,
      "gram": 1750,
      "hay": 1751,
      "hat": 1752,
      "hani": 1753,
      "i\n": 1754,
      "i,": 1755,
      "ic": 1756,
      "ix": 1757,
      "iy": 1758,
      "iè": 1759,
      "iri": 1760,
      "ju̶ch": 1761,
      "jaty": 1762,
      "ju̶u̶yñu̶": 1763,
      "ku̶": 1764,
      "kur": 1765,
      "kar": 1766,
      "ked": 1767,
      "kuk": 1768,
      "kpa": 1769,
      "kɛ̀n": 1770,
      "ka,": 1771,
      "k'ajt": 1772,
      "lin": 1773,
      "lar": 1774,
      "la̱": 1775,
      "ldi": 1776,
      "lén": 1777,
      "light": 1778,
      "lyud": 1779,
      "ms": 1780,
      "mnu̶": 1781,
      "mɛ̀n": 1782,
      "mɔn": 1783,
      "myu̶'": 1784,
      "mend": 1785,
      "né": 1786,
      "nak": 1787,
      "nar": 1788,
      "nes": 1789,
      "ned": 1790,
      "na'ay": 1791,
      "nakri": 1792,
      "nú̶kx": 1793,
      "of": 1794,
      "op": 1795,
      "oed": 1796,
      "ois": 1797,
      "ound": 1798,
      "ouku": 1799,
      "pun": 1800,
      "pu̶ñ": 1801,
      "pu̶d": 1802,
      "poh": 1803,
      "peri": 1804,
      "rm": 1805,
      "ra̱": 1806,
      "sir": 1807,
      "sa,": 1808,
      "scribe": 1809,
      "scípulotu̶jk": 1810,
      "tp": 1811,
      "tè": 1812,
      "tan": 1813,
      "tu̶ñ": 1814,
      "tku̶xy": 1815,
      "tro": 1816,
      "taaygyu̶xy": 1817,
      "u,": 1818,
      "ue": 1819,
      "uɗ": 1820,
      "uch": 1821,
      "ues": 1822,
      "uut": 1823,
      "uck": 1824,
      "uary": 1825,
      "von": 1826,
      "w.": 1827,
      "wu̶": 1828,
      "wu̶d": 1829,
      "wid": 1830,
      "xam": 1831,
      "y,": 1832,
      "ya̱": 1833,
      "yor": 1834,
      "yed": 1835,
      "ymyu̶'": 1836,
      "zp": 1837,
      "zal": 1838,
      "zek": 1839,
      "zɔɔ": 1840,
      "èm": 1841,
      "ég": 1842,
      "és": 1843,
      "éw": 1844,
      "ìtom": 1845,
      "ñu̶maay": 1846,
      "òò": 1847,
      "ŕelle": 1848,
      "ɓɛɛ": 1849,
      "ɔm": 1850,
      "ɔŋ": 1851,
      "ɗu": 1852,
      "ɛ:": 1853,
      "ɛs": 1854,
      "̀n": 1855,
      "▁\"": 1856,
      "▁9": 1857,
      "▁:": 1858,
      "▁U": 1859,
      "▁V": 1860,
      "▁ŋ": 1861,
      "▁um": 1862,
      "▁ɛ̀": 1863,
      "▁ul": 1864,
      "▁eŕ": 1865,
      "▁Ëm": 1866,
      "Ꞌun": 1867,
      "u̶kx": 1868,
      "▁aw": 1869,
      "▁aan": 1870,
      "▁ayu": 1871,
      "▁aŕi": 1872,
      "▁after": 1873,
      "▁n'": 1874,
      "▁nak": 1875,
      "▁new": 1876,
      "▁nig": 1877,
      "▁nat": 1878,
      "▁nni": 1879,
      "▁nago": 1880,
      "▁kh": 1881,
      "▁kug": 1882,
      "▁kon": 1883,
      "▁kew": 1884,
      "▁kɛ̀": 1885,
      "▁kwn": 1886,
      "▁kii": 1887,
      "▁kyu": 1888,
      "▁kep": 1889,
      "▁kú̶": 1890,
      "▁kil": 1891,
      "▁kook": 1892,
      "▁kyu̶'": 1893,
      "▁md": 1894,
      "▁mi": 1895,
      "▁my": 1896,
      "▁mak": 1897,
      "▁mag": 1898,
      "▁mon": 1899,
      "▁mun": 1900,
      "▁mat": 1901,
      "▁mal": 1902,
      "▁mut": 1903,
      "▁mén": 1904,
      "▁mang": 1905,
      "▁make": 1906,
      "▁me̱tz": 1907,
      "▁mwj": 1908,
      "▁must": 1909,
      "▁mga'": 1910,
      "▁të": 1911,
      "▁tak": 1912,
      "▁tu̶u̶": 1913,
      "▁tum": 1914,
      "▁took": 1915,
      "▁tu'ug": 1916,
      "▁tala": 1917,
      "▁time": 1918,
      "e̱jk": 1919,
      "anë": 1920,
      "an.\n": 1921,
      "anai": 1922,
      "▁din": 1923,
      "▁dag": 1924,
      "▁dor": 1925,
      "▁dal": 1926,
      "▁dyi": 1927,
      "▁dir": 1928,
      "▁dang": 1929,
      "▁dec": 1930,
      "▁dook": 1931,
      "▁dewew": 1932,
      "▁duku": 1933,
      "▁jay": 1934,
      "▁joot": 1935,
      "▁jopy": 1936,
      "▁oo": 1937,
      "▁oŕ": 1938,
      "▁our": 1939,
      "▁oun": 1940,
      "▁o'o": 1941,
      "▁over": 1942,
      "▁ogar": 1943,
      "▁ye": 1944,
      "▁yë": 1945,
      "▁yì": 1946,
      "▁yon": 1947,
      "▁yari": 1948,
      "▁yeg.": 1949,
      "▁yɔ́": 1950,
      "in,": 1951,
      "ina": 1952,
      "inam": 1953,
      "inad": 1954,
      "akim": 1955,
      "akha": 1956,
      "akhetti": 1957,
      "way": 1958,
      "waà": 1959,
      "ric": 1960,
      "▁bw": 1961,
      "▁bar": 1962,
      "▁ban.": 1963,
      "▁beg.": 1964,
      "▁bɔ̀": 1965,
      "▁bure": 1966,
      "▁bũamu": 1967,
      "aya": 1968,
      "ayii": 1969,
      "hel": 1970,
      "hewa": 1971,
      "▁gon": 1972,
      "▁géri": 1973,
      "▁sm": 1974,
      "▁sp": 1975,
      "▁sé": 1976,
      "▁sig": 1977,
      "▁shi": 1978,
      "▁set": 1979,
      "▁sup": 1980,
      "▁seg.": 1981,
      "▁sec": 1982,
      "▁sinyo": 1983,
      "▁sa̱nka̱": 1984,
      "amu̶": 1985,
      "len": 1986,
      "ler": 1987,
      "lew": 1988,
      "leya": 1989,
      "lease": 1990,
      "▁wig": 1991,
      "▁wake": 1992,
      "jky": 1993,
      "▁l'": 1994,
      "ugh": 1995,
      "ugwa": 1996,
      "urch": 1997,
      "agwn": 1998,
      "ajar": 1999,
      "arm": 2000,
      "aro": 2001,
      "arí": 2002,
      "arak": 2003,
      "arɛs": 2004,
      "ers": 2005,
      "erous": 2006,
      "erved": 2007,
      "enlag": 2008,
      "▁pr": 2009,
      "▁pri": 2010,
      "▁phi": 2011,
      "▁pos": 2012,
      "▁pla": 2013,
      "▁pa,": 2014,
      "▁pow": 2015,
      "▁peksi": 2016,
      "▁pakë": 2017,
      "▁perf": 2018,
      "▁please": 2019,
      "a̱ɗa̱": 2020,
      "onu": 2021,
      "onyas": 2022,
      "ew,": 2023,
      "yu̶d": 2024,
      "oroɓ": 2025,
      "orgi": 2026,
      "ormats": 2027,
      "es.": 2028,
      "eserved": 2029,
      "▁anar": 2030,
      "▁anor": 2031,
      "aster": 2032,
      "asɔn": 2033,
      "asong": 2034,
      "asaret": 2035,
      "asi\n": 2036,
      "▁qouku": 2037,
      "ate": 2038,
      "ath": 2039,
      "ato": 2040,
      "ataŋ": 2041,
      "u̶u̶wu̶": 2042,
      "algar": 2043,
      "▁im": 2044,
      "▁iè": 2045,
      "▁iPhone": 2046,
      "ko,": 2047,
      "kou": 2048,
      "▁Tio": 2049,
      "▁That": 2050,
      "▁Tues": 2051,
      "▁fe": 2052,
      "▁fè": 2053,
      "▁fɛl": 2054,
      "▁flight": 2055,
      "▁farm": 2056,
      "▁reg": 2057,
      "▁rec": 2058,
      "▁rain": 2059,
      "▁ròò": 2060,
      "aded": 2061,
      "adanshi": 2062,
      "▁qe,": 2063,
      "ool": 2064,
      "oopa": 2065,
      "oogu̶xy": 2066,
      "ooygyu̶xy": 2067,
      "oogle": 2068,
      "▁then": 2069,
      "▁ajku̶xy;": 2070,
      "ims": 2071,
      "imary": 2072,
      "imymyu̶'": 2073,
      "ityu̶": 2074,
      "itep": 2075,
      "itɛn": 2076,
      "us,": 2077,
      "▁na:": 2078,
      "▁naax": 2079,
      "liko": 2080,
      "▁maabu̶": 2081,
      "▁kou": 2082,
      "▁kokp": 2083,
      ".\n4": 2084,
      ".\nK": 2085,
      ".\nL": 2086,
      ".\nN": 2087,
      ".\n“": 2088,
      ".\nRay": 2089,
      "▁Je̱'": 2090,
      "▁Jos": 2091,
      "▁Jwng": 2092,
      "▁Judia": 2093,
      "▁Jud": 2094,
      "▁JAH": 2095,
      "▁Nije̱'": 2096,
      "▁Najar": 2097,
      "▁Nasaret": 2098,
      "ega": 2099,
      "u'um": 2100,
      "u'aam": 2101,
      "▁ɓɛ̀": 2102,
      "▁ɓii": 2103,
      "▁to.": 2104,
      "▁tola": 2105,
      "▁Yi": 2106,
      "▁Yek": 2107,
      "▁indo": 2108,
      "▁inkur": 2109,
      "ution": 2110,
      "▁Ag": 2111,
      "▁As": 2112,
      "▁All": 2113,
      "▁Ame": 2114,
      "▁Ayin": 2115,
      "▁Abr": 2116,
      "▁Abiraham": 2117,
      "▁Koulli": 2118,
      "▁Kasi\n": 2119,
      "▁Kadanshi": 2120,
      "▁Kitɛn": 2121,
      "▁22": 2122,
      "▁23": 2123,
      "▁25": 2124,
      "▁29": 2125,
      "▁2A": 2126,
      "▁che": 2127,
      "▁cam": 2128,
      "▁com": 2129,
      "▁càà": 2130,
      "▁could": 2131,
      "▁cool": 2132,
      "▁watt": 2133,
      "▁wagam": 2134,
      "▁warm": 2135,
      "▁ɗaɗ": 2136,
      "▁ëm,": 2137,
      "▁ëmbë": 2138,
      "▁ëmnam": 2139,
      "▁Dig": 2140,
      "▁Danah": 2141,
      "▁kaa": 2142,
      "▁kaw": 2143,
      "▁kaŕ": 2144,
      "▁kaako": 2145,
      "▁kapp": 2146,
      "ommend": 2147,
      "omɔŋ": 2148,
      "▁13": 2149,
      "▁17": 2150,
      "ula": 2151,
      "▁San": 2152,
      "▁Sup": 2153,
      "▁Sub": 2154,
      "▁Saɗ": 2155,
      "ose": 2156,
      "oso": 2157,
      "eke": 2158,
      "ku̶xy,": 2159,
      "wna": 2160,
      "▁amen": 2161,
      "▁ñaa": 2162,
      "▁ñi'": 2163,
      "▁chu'u": 2164,
      "▁church": 2165,
      "▁loc": 2166,
      "▁lokkë": 2167,
      "▁lobë": 2168,
      "▁lodü": 2169,
      "▁lougwa": 2170,
      "yajk": 2171,
      "u̶'u̶d": 2172,
      "u̶'ky": 2173,
      "▁dow": 2174,
      "▁down": 2175,
      "▁Mc": 2176,
      "▁Man": 2177,
      "▁Mal": 2178,
      "▁Mem": 2179,
      "▁Mois": 2180,
      "▁Marí": 2181,
      "▁Mataŋ": 2182,
      "▁never": 2183,
      "▁gei": 2184,
      "▁uŕ": 2185,
      "▁kub": 2186,
      "▁kuci": 2187,
      "▁kudu̶gu̶u̶g": 2188,
      "▁kuvon": 2189,
      "angam": 2190,
      "▁Bible": 2191,
      "▁Bega": 2192,
      "ido": 2193,
      "▁y'ag": 2194,
      "▁y'ij": 2195,
      "▁y'adz": 2196,
      "▁y'ooygyu̶xy": 2197,
      "▁hour": 2198,
      "▁hail": 2199,
      "▁hagwn": 2200,
      "▁off": 2201,
      "▁bë,": 2202,
      "▁Em": 2203,
      "▁Ely": 2204,
      "▁Ema": 2205,
      "▁Eleya": 2206,
      "▁agop": 2207,
      "u̶u̶yg": 2208,
      "roh": 2209,
      "rough": 2210,
      "▁Gad": 2211,
      "▁Google": 2212,
      "▁nirdi": 2213,
      "tic": 2214,
      "▁Lo": 2215,
      "▁LyaꞋi": 2216,
      "▁Labra": 2217,
      "▁“A": 2218,
      "▁“Mari": 2219,
      "▁“Naŕinah": 2220,
      "▁mu̶dnu̶kxy": 2221,
      "aañ": 2222,
      "kxu̶j": 2223,
      "upü": 2224,
      "akaro": 2225,
      "paatku̶xy": 2226,
      "▁Roɓ": 2227,
      "▁Radio": 2228,
      "pu̶,": 2229,
      "▁51": 2230,
      "▁vɛ̃": 2231,
      "▁vict": 2232,
      "▁myu̶do": 2233,
      "▁myu̶k'ajt": 2234,
      "▁duul": 2235,
      "▁duunë": 2236,
      "▁duessi": 2237,
      "aaygyu̶xnu̶": 2238,
      "▁41": 2239,
      "▁44": 2240,
      "▁47": 2241,
      "▁48": 2242,
      "▁yaj'o": 2243,
      "▁yajju̶w": 2244,
      "▁yajmu̶dmu̶dyaak": 2245,
      "▁yajnú̶kx": 2246,
      "akaitep": 2247,
      "▁gëto": 2248,
      "▁gëlo": 2249,
      ":\nhttps://": 2250,
      "apani": 2251,
      "▁32": 2252,
      "▁34": 2253,
      "▁38": 2254,
      "kujk": 2255,
      "▁How": 2256,
      "▁rìfò": 2257,
      "▁rìkɛ̀n": 2258,
      "eph": 2259,
      "u̶gu'ug": 2260,
      "u̶gu̶u̶ygyu̶xy": 2261,
      "▁adugu̶u̶y": 2262,
      "▁menr": 2263,
      "▁mentom": 2264,
      "▁through": 2265,
      "▁will": 2266,
      "▁hear": 2267,
      "▁headed": 2268,
      "▁ase,": 2269,
      "▁asdig.": 2270,
      "▁tzon": 2271,
      "▁tzajk": 2272,
      "▁jyanch": 2273,
      "▁20.1": 2274,
      "avel": 2275,
      "niɛ": 2276,
      "ú̶n": 2277,
      "▁a̱ɗa̱": 2278,
      "▁tsakha": 2279,
      "▁kawa,": 2280,
      "▁kawa.": 2281,
      "bafwr": 2282,
      "▁diar": 2283,
      "▁dian.": 2284,
      "▁diakri": 2285,
      "▁Isag": 2286,
      "stagr": 2287,
      "store": 2288,
      "ɔ̀ŋ": 2289,
      "▁Oɓɛɛ": 2290,
      "▁enoug": 2291,
      "▁nie": 2292,
      "▁nie.": 2293,
      "▁keep": 2294,
      "▁buiè": 2295,
      "▁buupü": 2296,
      "▁ɗa̱.": 2297,
      "eiŕ": 2298,
      "▁ka̱ci": 2299,
      "ani-g": 2300,
      "▁str": 2301,
      ".\n12": 2302,
      "▁Pe": 2303,
      "▁We": 2304,
      "▁Wi": 2305,
      "▁Windz": 2306,
      "▁ëgë": 2307,
      "▁hipun": 2308,
      "u̶jp": 2309,
      "▁mou": 2310,
      "▁moto": 2311,
      "▁mooy": 2312,
      "▁dimlam": 2313,
      "▁gadë": 2314,
      "adzaka": 2315,
      "dzam": 2316,
      "ions": 2317,
      "pply": 2318,
      "ttaak": 2319,
      "ttaaygyu̶xnu̶": 2320,
      "yoatam": 2321,
      "▁eff": 2322,
      "▁moran.": 2323,
      "▁morweg": 2324,
      "annai": 2325,
      "▁gog": 2326,
      "▁Ka̱ta̱": 2327,
      "byu̶,": 2328,
      "erious": 2329,
      "▁ìnɛ": 2330,
      "▁ìtè": 2331,
      "▁used": 2332,
      "▁usih": 2333,
      "▁namm": 2334,
      "▁nimajk": 2335,
      "▁nimu̶dyaakku̶xy": 2336,
      "▁kyun": 2337,
      "▁kyáp": 2338,
      "▁kyu̶xpu̶": 2339,
      "▁kìl": 2340,
      "▁memeg": 2341,
      "▁dessa": 2342,
      "▁destro": 2343,
      "akeet": 2344,
      "▁binlag": 2345,
      "▁paala": 2346,
      "▁ijxku̶xy": 2347,
      "▁ijty": 2348,
      "▁ism": 2349,
      "▁marieg.": 2350,
      "▁ñaybyu̶d": 2351,
      "▁buliew": 2352,
      "▁leg": 2353,
      "▁alangar": 2354,
      "▁also": 2355,
      "▁areg": 2356,
      "▁teɗ": 2357,
      "▁text": 2358,
      "▁dasi": 2359,
      "▁jutjooty": 2360,
      "▁old": 2361,
      "▁yajk": 2362,
      "▁profet": 2363,
      "▁program": 2364,
      "tu̶gu̶u̶y": 2365,
      "tu̶gu̶u̶yu̶": 2366,
      "▁uŕirig.": 2367,
      "▁gaddëm": 2368,
      "▁Jerusale": 2369,
      "ja'ayu̶chu̶ñ": 2370,
      "nig,”": 2371,
      "viki": 2372,
      "ëken": 2373,
      "▁Farɛs": 2374,
      "▁Zyor": 2375,
      "▁Zyoatam": 2376,
      "▁uteku": 2377,
      "▁all-f": 2378,
      "▁mayjya'ay": 2379,
      "▁taun": 2380,
      "▁week": 2381,
      "▁weemakawa": 2382,
      "▁wawakeet": 2383,
      "yuda": 2384,
      "▁xu̶u̶'ajt": 2385,
      "▁daré.": 2386,
      "▁daréw": 2387,
      "...": 2388,
      "gué̱": 2389,
      "uqor": 2390,
      "▁u̶xtu̶": 2391,
      "▁kpa̱ɗa̱": 2392,
      "▁kpaaghà": 2393,
      "▁mu̶bu̶jk": 2394,
      "▁meweg": 2395,
      "▁bérig.”": 2396,
      "▁bérig?”": 2397,
      "▁gbani-g": 2398,
      "▁giv": 2399,
      "▁giɓ": 2400,
      "▁gunnah": 2401,
      "▁gumar": 2402,
      "▁gumurko": 2403,
      "▁see": 2404,
      "▁light.": 2405,
      "ugypyu̶": 2406,
      "▁faŕwen": 2407,
      "▁Naasɔn": 2408,
      "▁Amɔn": 2409,
      "▁Aminad": 2410,
      "▁class": 2411,
      "▁Sowa": 2412,
      "▁ñaky": 2413,
      "▁xyjy": 2414,
      "▁story": 2415,
      "▁Jerusalén,": 2416,
      "▁nwngthangmwnkou": 2417,
      "a'añu̶ñ.": 2418,
      "▁dugiah": 2419,
      "▁dugiangar": 2420,
      "▁Davit,": 2421,
      "?\nChi": 2422,
      "aagy": 2423,
      "brel": 2424,
      "tɛ̀ɛ̀n": 2425,
      "▁zɔ": 2426,
      "▁unuqor": 2427,
      "▁ajji": 2428,
      "▁kalamnw": 2429,
      "▁tyu̶g": 2430,
      "▁doola": 2431,
      "▁doobë": 2432,
      "▁peelë": 2433,
      "▁item": 2434,
      "▁real": 2435,
      "▁refer": 2436,
      ".\n22": 2437,
      "▁You": 2438,
      "▁chennë": 2439,
      "▁walhio": 2440,
      "▁Salaty": 2441,
      ".”\nThe": 2442,
      "▁wyimbijttaaygyu̶xnu̶": 2443,
      "▁reports": 2444,
      "▁ñayyajni'igu̶xu̶'ku̶": 2445,
      "\nRated": 2446,
      "Video\n#": 2447,
      "day,": 2448,
      "ju̶wu̶u̶yu̶": 2449,
      "▁(A": 2450,
      "▁(N": 2451,
      "▁Ɛsir": 2452,
      "▁neke": 2453,
      "▁nekei": 2454,
      "▁trans": 2455,
      "▁travel": 2456,
      "▁tu'k": 2457,
      "▁tu'u'aam": 2458,
      "▁jwngni": 2459,
      "▁board": 2460,
      "▁like": 2461,
      "▁lampoh": 2462,
      "yu̶ch.": 2463,
      "▁iakotti": 2464,
      "▁Tenn.": 2465,
      "▁Tennes": 2466,
      ".\nJesús": 2467,
      "▁Akim": 2468,
      "▁Aɓya": 2469,
      "▁Aɓyud": 2470,
      "▁28.1": 2471,
      "▁candle": 2472,
      "u̶'u̶mgu̶x": 2473,
      "▁Georgi": 2474,
      "▁Gebrel": 2475,
      "▁myu̶dyaakku̶xy": 2476,
      "▁myu̶naañ": 2477,
      "▁jyadyii.": 2478,
      "▁ewegwa": 2479,
      "▁kataŕ.": 2480,
      "▁digumakwa": 2481,
      "▁closest": 2482,
      "\n(Mc": 2483,
      "\n(Mt": 2484,
      "#1:5": 2485,
      "▁fuŕuh.": 2486,
      "\nFor": 2487,
      ".com/": 2488,
      "Rìyalɛ̀n": 2489,
      "afat": 2490,
      "bert": 2491,
      "cruut": 2492,
      "ejw": 2493,
      "eedzal": 2494,
      "geni": 2495,
      "juuñ": 2496,
      "tu'ugpu̶": 2497,
      "ñoa": 2498,
      "▁editor": 2499,
      "▁uksi": 2500,
      "▁nmu̶gu'ug": 2501,
      "▁kanakaiperi": 2502,
      "▁kéhnigrigri": 2503,
      "▁mëëken": 2504,
      "▁minih": 2505,
      "▁miran,": 2506,
      "▁tyu'ubu̶jk": 2507,
      "▁day,": 2508,
      "▁jeblai": 2509,
      "▁jaboom": 2510,
      "▁omlar": 2511,
      "▁yajtu̶u̶wu̶": 2512,
      "▁wɔl": 2513,
      "▁plans": 2514,
      "yu̶u̶ygyu̶xy": 2515,
      "▁anuqko": 2516,
      "▁fagqan.": 2517,
      "▁flickering": 2518,
      "▁Nghay": 2519,
      "▁Né\n": 2520,
      "▁Yosafat": 2521,
      "▁interviews": 2522,
      "▁Doen": 2523,
      "▁y'o'og": 2524,
      "▁hũn": 2525,
      "▁hayw": 2526,
      "▁Galili": 2527,
      "▁Cleof": 2528,
      "▁Robert": 2529,
      "▁Order,": 2530,
      "▁kehnar": 2531,
      "▁Playstore": 2532,
      "winma'añ": 2533,
      "▁wawtuŕko": 2534,
      "▁jyuugypyú̶ky": 2535,
      "▁wyimbijtku̶xnu̶": 2536,
      "▁koutor.": 2537,
      "▁expla": 2538,
      "▁journalist": 2539,
      "▁yiniǹ;": 2540,
      "▁Karannahri": 2541,
      ".org": 2542,
      "@exam": 2543,
      "Geisah": 2544,
      "Gërëp": 2545,
      "aitakaro": 2546,
      "acebook": 2547,
      "filus,": 2548,
      "line": 2549,
      "néwa": 2550,
      "uɗa": 2551,
      "wu̶dajt": 2552,
      "zekyas": 2553,
      "zɔɔr": 2554,
      "▁uma": 2555,
      "▁uling": 2556,
      "▁aanu̶mu̶": 2557,
      "▁ayuuk": 2558,
      "▁aŕié": 2559,
      "▁kwnasong": 2560,
      "▁kyuja'ayu̶chu̶ñ": 2561,
      "▁kú̶xyu̶": 2562,
      "▁kookü": 2563,
      "▁kyu̶'u̶": 2564,
      "▁magun": 2565,
      "▁mutzk": 2566,
      "▁ménig.": 2567,
      "▁mwjang": 2568,
      "▁tumɛ̀n": 2569,
      "▁dyiscípulotu̶jk": 2570,
      "▁direct": 2571,
      "▁dookula": 2572,
      "▁jayu̶jp": 2573,
      "▁jopyñu̶": 2574,
      "▁o'owu̶dajt": 2575,
      "▁yongo": 2576,
      "▁bureau.": 2577,
      "▁gonnë": 2578,
      "▁support": 2579,
      "▁second": 2580,
      "▁phiome": 2581,
      "oroɓaɓ": 2582,
      "eserved.": 2583,
      "▁Tiofilus,": 2584,
      "▁fɛlɛ:": 2585,
      "▁recommend": 2586,
      "imymyu̶'ityu̶": 2587,
      "▁kokpo": 2588,
      "▁Joseph": 2589,
      "▁Judah": 2590,
      "▁Najarath": 2591,
      "▁ɓɛ̀geni": 2592,
      "▁Yekonyas": 2593,
      "▁Americ": 2594,
      "▁Ayinviki": 2595,
      "▁Abraham": 2596,
      "▁Kitɛntɛ̀ɛ̀n": 2597,
      "▁cààmɛ̀n": 2598,
      "▁wattaitakaro": 2599,
      "▁ɗaɗa": 2600,
      "▁Super": 2601,
      "▁Subscribe": 2602,
      "▁Saɗɔ": 2603,
      "▁ñaax": 2604,
      "▁ñi'kx": 2605,
      "▁Memnakri": 2606,
      "▁Moisés": 2607,
      "▁kuciya̱": 2608,
      "▁hours": 2609,
      "▁Elyakim": 2610,
      "▁Emaús": 2611,
      "▁Eleyaza": 2612,
      "▁“Maria,": 2613,
      "kxu̶jpy": 2614,
      "▁Roɓwa": 2615,
      "▁vɛ̃h": 2616,
      "▁victims": 2617,
      "▁myu̶do'oxyu̶jktu̶jk": 2618,
      "akaitepe": 2619,
      "▁rìfòm": 2620,
      "▁tzajkaagy": 2621,
      "stagram": 2622,
      "▁Oɓɛɛɗ": 2623,
      "▁enough": 2624,
      "▁buièlén": 2625,
      "▁Windzú̶n": 2626,
      "▁hipunin": 2627,
      "▁ìtèɗ": 2628,
      "▁nimajktu'ugpu̶": 2629,
      "▁kyápxku̶xy": 2630,
      "▁destroyed": 2631,
      "▁ñaybyu̶daaku̶": 2632,
      "▁Jerusalem": 2633,
      "▁Zyoram": 2634,
      "▁all-formats": 2635,
      "▁xu̶u̶'ajtpu̶ñ": 2636,
      "▁gbani-gbani": 2637,
      "▁faŕwen.": 2638,
      "▁Aminadaɓ": 2639,
      "Video\n#Bodo": 2640,
      "▁Tennesse": 2641,
      "▁Georgia": 2642,
      "cruutzp": 2643,
      "eedzalhewa": 2644,
      "▁nmu̶gu'ugtu̶jk": 2645,
      "▁tyu'ubu̶jky": 2646,
      "▁jeblaibw": 2647,
      "▁omlarew": 2648,
      "@example": 2649
    },
    "merges": [
      [
        "u",
        "̶"
      ],
      [
        "▁",
        "a"
      ],
      [
        "▁",
        "n"
      ],
      [
        "▁",
        "k"
      ],
      [
        "▁",
        "m"
      ],
      [
        "▁",
        "t"
      ],
      [
        "e",
        "̱"
      ],
      [
        "a",
        "n"
      ],
      [
        "▁",
        "d"
      ],
      [
        "▁",
        "j"
      ],
      [
        "▁",
        "o"
      ],
      [
        "▁",
        "y"
      ],
      [
        "i",
        "n"
      ],
      [
        "a",
        "k"
      ],
      [
        "w",
        "a"
      ],
      [
        "u̶",
        "x"
      ],
      [
        "r",
        "i"
      ],
      [
        "e̱",
        "'"
      ],
      [
        "▁",
        "b"
      ],
      [
        "▁j",
        "e̱'"
      ],
      [
        "a",
        "y"
      ],
      [
        "h",
        "e"
      ],
      [
        "▁",
        "g"
      ],
      [
        "▁",
        "s"
      ],
      [
        "u̶x",
        "y"
      ],
      [
        "▁je̱'",
        "e̱"
      ],
      [
        "a",
        "m"
      ],
      [
        "l",
        "e"
      ],
      [
        "▁",
        "w"
      ],
      [
        "j",
        "k"
      ],
      [
        "c",
        "h"
      ],
      [
        "▁",
        "l"
      ],
      [
        "u",
        "g"
      ],
      [
        "u",
        "r"
      ],
      [
        "a",
        "g"
      ],
      [
        "a",
        "j"
      ],
      [
        "a",
        "r"
      ],
      [
        "e",
        "r"
      ],
      [
        "a",
        "h"
      ],
      [
        "e",
        "n"
      ],
      [
        "▁",
        "p"
      ],
      [
        "a",
        "̱"
      ],
      [
        "o",
        "n"
      ],
      [
        "e",
        "w"
      ],
      [
        "y",
        "u̶"
      ],
      [
        "u",
        "n"
      ],
      [
        "i",
        "g"
      ],
      [
        "o",
        "r"
      ],
      [
        "e",
        "s"
      ],
      [
        "▁a",
        "n"
      ],
      [
        "a",
        "s"
      ],
      [
        "▁",
        "q"
      ],
      [
        "a",
        "t"
      ],
      [
        "u̶",
        "u̶"
      ],
      [
        "a",
        "l"
      ],
      [
        "▁",
        "i"
      ],
      [
        "k",
        "o"
      ],
      [
        "▁",
        "à"
      ],
      [
        "h",
        "i"
      ],
      [
        "▁",
        "T"
      ],
      [
        "▁",
        "f"
      ],
      [
        "▁",
        "r"
      ],
      [
        "a",
        "d"
      ],
      [
        "▁q",
        "e"
      ],
      [
        "o",
        "o"
      ],
      [
        "▁t",
        "he"
      ],
      [
        "▁a",
        "jk"
      ],
      [
        "▁ajk",
        "u̶xy"
      ],
      [
        "i",
        "m"
      ],
      [
        "i",
        "t"
      ],
      [
        "u",
        "s"
      ],
      [
        "e",
        "d"
      ],
      [
        "▁n",
        "a"
      ],
      [
        "u",
        "m"
      ],
      [
        "l",
        "i"
      ],
      [
        "▁m",
        "a"
      ],
      [
        "a",
        "'"
      ],
      [
        "e",
        "t"
      ],
      [
        "▁k",
        "o"
      ],
      [
        ".",
        "\n"
      ],
      [
        "▁",
        "J"
      ],
      [
        "i",
        "w"
      ],
      [
        "▁",
        "N"
      ],
      [
        "e",
        "g"
      ],
      [
        "▁n",
        "ug"
      ],
      [
        "▁o",
        "le"
      ],
      [
        "u",
        "'"
      ],
      [
        "y",
        "i"
      ],
      [
        "▁",
        "ɓ"
      ],
      [
        "aj",
        "t"
      ],
      [
        "iw",
        "ur"
      ],
      [
        "d",
        "i"
      ],
      [
        "ë",
        "m"
      ],
      [
        "u̶",
        "ñ"
      ],
      [
        "▁t",
        "o"
      ],
      [
        "i",
        "r"
      ],
      [
        "▁",
        "Y"
      ],
      [
        "▁",
        "in"
      ],
      [
        "u",
        "t"
      ],
      [
        "▁",
        "A"
      ],
      [
        "an",
        "ah"
      ],
      [
        "ɛ",
        "̀"
      ],
      [
        "▁",
        "K"
      ],
      [
        "a",
        "i"
      ],
      [
        "▁",
        "2"
      ],
      [
        "▁",
        "c"
      ],
      [
        "e",
        "l"
      ],
      [
        "▁",
        "wa"
      ],
      [
        "▁T",
        "iwur"
      ],
      [
        "▁",
        "ɗ"
      ],
      [
        "▁",
        "ëm"
      ],
      [
        "▁",
        "D"
      ],
      [
        "▁k",
        "a"
      ],
      [
        "an",
        "."
      ],
      [
        "o",
        "m"
      ],
      [
        "▁",
        "1"
      ],
      [
        "u̶",
        "d"
      ],
      [
        "▁d",
        "anah"
      ],
      [
        "k",
        "ë"
      ],
      [
        "u",
        "l"
      ],
      [
        "é",
        "n"
      ],
      [
        "▁",
        "S"
      ],
      [
        "ajt",
        "y"
      ],
      [
        "o",
        "s"
      ],
      [
        "s",
        "i"
      ],
      [
        "▁t",
        "u̶"
      ],
      [
        "a",
        "b"
      ],
      [
        "e",
        "ŕ"
      ],
      [
        "▁y",
        "ay"
      ],
      [
        "e",
        "k"
      ],
      [
        "k",
        "u̶xy"
      ],
      [
        "l",
        "ag"
      ],
      [
        "w",
        "n"
      ],
      [
        "▁a",
        "m"
      ],
      [
        "▁n",
        "ajty"
      ],
      [
        "l",
        "a"
      ],
      [
        "t",
        "u̶"
      ],
      [
        "u",
        "k"
      ],
      [
        "▁",
        "ñ"
      ],
      [
        "▁",
        "ch"
      ],
      [
        "▁l",
        "o"
      ],
      [
        "▁an",
        "d"
      ],
      [
        "in",
        "g"
      ],
      [
        "y",
        "a"
      ],
      [
        "ú",
        "s"
      ],
      [
        "u̶",
        "'"
      ],
      [
        "▁d",
        "o"
      ],
      [
        "a",
        "ri"
      ],
      [
        "▁",
        "M"
      ],
      [
        "▁n",
        "e"
      ],
      [
        "▁g",
        "e"
      ],
      [
        "▁",
        "u"
      ],
      [
        "▁k",
        "u"
      ],
      [
        "an",
        "g"
      ],
      [
        "es",
        "ús"
      ],
      [
        "a",
        "ŕ"
      ],
      [
        "t",
        "o"
      ],
      [
        "▁",
        "B"
      ],
      [
        "e",
        "m"
      ],
      [
        "i",
        "d"
      ],
      [
        "▁y",
        "'"
      ],
      [
        "o",
        "d"
      ],
      [
        "▁",
        "h"
      ],
      [
        "▁a",
        "t"
      ],
      [
        "▁o",
        "f"
      ],
      [
        "▁b",
        "ë"
      ],
      [
        "▁J",
        "esús"
      ],
      [
        "b",
        "u̶"
      ],
      [
        "ü",
        "k"
      ],
      [
        "▁",
        "E"
      ],
      [
        "▁a",
        "g"
      ],
      [
        "u̶u̶",
        "y"
      ],
      [
        "u'",
        "un"
      ],
      [
        "yi",
        "i"
      ],
      [
        "l",
        "l"
      ],
      [
        "r",
        "o"
      ],
      [
        "▁",
        "G"
      ],
      [
        "▁n",
        "é"
      ],
      [
        "i",
        "i"
      ],
      [
        "▁",
        "C"
      ],
      [
        "u̶",
        "ch"
      ],
      [
        "▁n",
        "ir"
      ],
      [
        "i",
        "j"
      ],
      [
        "t",
        "i"
      ],
      [
        "y",
        "u"
      ],
      [
        "▁",
        "L"
      ],
      [
        "▁",
        "“"
      ],
      [
        "▁n",
        "yi"
      ],
      [
        "▁m",
        "u̶d"
      ],
      [
        "▁d",
        "u'un"
      ],
      [
        "a",
        "a"
      ],
      [
        "k",
        "x"
      ],
      [
        "u",
        "p"
      ],
      [
        "▁",
        "I"
      ],
      [
        "ak",
        "ar"
      ],
      [
        "▁l",
        "ɛ"
      ],
      [
        "a'",
        "ay"
      ],
      [
        "g",
        "y"
      ],
      [
        "i",
        "h"
      ],
      [
        "i",
        "s"
      ],
      [
        "p",
        "a"
      ],
      [
        "▁",
        "R"
      ],
      [
        "u̶",
        "m"
      ],
      [
        "▁o",
        "s"
      ],
      [
        "ri",
        "g"
      ],
      [
        "b",
        "y"
      ],
      [
        "i",
        "p"
      ],
      [
        "p",
        "u̶"
      ],
      [
        "ŕ",
        "i"
      ],
      [
        "▁",
        "5"
      ],
      [
        "▁",
        "v"
      ],
      [
        "▁m",
        "yu̶"
      ],
      [
        "▁d",
        "u"
      ],
      [
        "▁ɓ",
        "i"
      ],
      [
        "▁ge",
        ","
      ],
      [
        "a",
        "ay"
      ],
      [
        "k",
        "kë"
      ],
      [
        "▁",
        "4"
      ],
      [
        "▁y",
        "aj"
      ],
      [
        "ak",
        "a"
      ],
      [
        "▁g",
        "ë"
      ],
      [
        "▁danah",
        "as"
      ],
      [
        "ab",
        "et"
      ],
      [
        "tu̶",
        "jk"
      ],
      [
        ":",
        "\n"
      ],
      [
        "a",
        "p"
      ],
      [
        "h",
        "t"
      ],
      [
        "s",
        "abet"
      ],
      [
        "▁",
        "3"
      ],
      [
        "in",
        "ah"
      ],
      [
        "ri",
        "s"
      ],
      [
        "li",
        "sabet"
      ],
      [
        "▁ch",
        "i"
      ],
      [
        "'",
        "o"
      ],
      [
        "k",
        "u"
      ],
      [
        "▁",
        "H"
      ],
      [
        "an",
        ","
      ],
      [
        "an",
        "ch"
      ],
      [
        "▁f",
        "or"
      ],
      [
        "▁r",
        "ì"
      ],
      [
        "aŕ",
        "inah"
      ],
      [
        "e",
        "p"
      ],
      [
        "e",
        "ko"
      ],
      [
        "o",
        "h"
      ],
      [
        "▁",
        "x"
      ],
      [
        "u̶",
        "g"
      ],
      [
        "▁a",
        "d"
      ],
      [
        "▁m",
        "en"
      ],
      [
        "▁t",
        "h"
      ],
      [
        "▁o",
        "n"
      ],
      [
        "ak",
        "o"
      ],
      [
        "▁s",
        "ew"
      ],
      [
        "▁w",
        "i"
      ],
      [
        "u̶u̶",
        "d"
      ],
      [
        "én",
        "ih"
      ],
      [
        "wn",
        "g"
      ],
      [
        "yii",
        "bu̶"
      ],
      [
        "▁mu̶d",
        "yiibu̶"
      ],
      [
        "i",
        "os"
      ],
      [
        "n",
        "u̶"
      ],
      [
        "t",
        "z"
      ],
      [
        "▁",
        "he"
      ],
      [
        "▁a",
        "s"
      ],
      [
        "▁t",
        "z"
      ],
      [
        "▁j",
        "y"
      ],
      [
        "▁y",
        "o"
      ],
      [
        "▁b",
        "ul"
      ],
      [
        "▁s",
        "o"
      ],
      [
        "▁w",
        "énih"
      ],
      [
        "aj",
        "p"
      ],
      [
        "oo",
        "t"
      ],
      [
        "eg",
        "."
      ],
      [
        "ɛ̀",
        "n"
      ],
      [
        "▁2",
        "0"
      ],
      [
        "▁Tiwur",
        "di"
      ],
      [
        "▁ɗ",
        "i"
      ],
      [
        "▁D",
        "ios"
      ],
      [
        "▁ne",
        "by"
      ],
      [
        "▁E",
        "lisabet"
      ],
      [
        "akar",
        "ai"
      ],
      [
        "gy",
        "u̶xy"
      ],
      [
        "a",
        ","
      ],
      [
        "a",
        "v"
      ],
      [
        "d",
        "ig"
      ],
      [
        "n",
        "i"
      ],
      [
        "p",
        "y"
      ],
      [
        "ú",
        "̶"
      ],
      [
        "▁",
        "6"
      ],
      [
        "▁",
        "u̶u̶"
      ],
      [
        "▁a",
        "̱"
      ],
      [
        "▁k",
        "eŕ"
      ],
      [
        "▁t",
        "s"
      ],
      [
        "▁w",
        "it"
      ],
      [
        "er",
        "e"
      ],
      [
        "▁N",
        "aŕinah"
      ],
      [
        "u̶ñ",
        ","
      ],
      [
        "▁ka",
        "wa"
      ],
      [
        "▁do",
        "up"
      ],
      [
        "▁u̶u̶",
        "ch"
      ],
      [
        "a",
        "wa"
      ],
      [
        "b",
        "a"
      ],
      [
        "g",
        "o"
      ],
      [
        "r",
        "e"
      ],
      [
        "▁k",
        "en"
      ],
      [
        "▁m",
        "u̶u̶d"
      ],
      [
        "an",
        "s"
      ],
      [
        "▁d",
        "i"
      ],
      [
        "▁o",
        "kkë"
      ],
      [
        "▁b",
        "ü"
      ],
      [
        "yu̶",
        "ñ"
      ],
      [
        "▁ɓ",
        "ɛ"
      ],
      [
        "▁I",
        "s"
      ],
      [
        ":\n",
        "—"
      ],
      [
        "akarai",
        "a"
      ],
      [
        ".",
        "”"
      ],
      [
        "C",
        "hi"
      ],
      [
        "e",
        "c"
      ],
      [
        "g",
        "a"
      ],
      [
        "i",
        "l"
      ],
      [
        "l",
        "o"
      ],
      [
        "m",
        "e"
      ],
      [
        "s",
        "t"
      ],
      [
        "ɔ",
        "̀"
      ],
      [
        "▁",
        "O"
      ],
      [
        "▁",
        "en"
      ],
      [
        "▁n",
        "i"
      ],
      [
        "▁k",
        "e"
      ],
      [
        "▁k",
        "a'"
      ],
      [
        "▁t",
        "a̱"
      ],
      [
        "ak",
        "ri"
      ],
      [
        "▁b",
        "u"
      ],
      [
        "ig",
        "ht"
      ],
      [
        "▁ɗ",
        "a̱"
      ],
      [
        "▁S",
        "akaraia"
      ],
      [
        "\n",
        "1"
      ],
      [
        "e",
        "i"
      ],
      [
        "e",
        "o"
      ],
      [
        "g",
        "ë"
      ],
      [
        "h",
        "o"
      ],
      [
        "k",
        "a"
      ],
      [
        "o",
        "w"
      ],
      [
        "r",
        "a"
      ],
      [
        "▁",
        "7"
      ],
      [
        "▁n",
        "us"
      ],
      [
        "▁k",
        "a̱"
      ],
      [
        "an",
        "i"
      ],
      [
        "▁g",
        "am"
      ],
      [
        "▁s",
        "t"
      ],
      [
        "u̶xy",
        "u̶"
      ],
      [
        "am",
        "a"
      ],
      [
        "al",
        "i"
      ],
      [
        "oo",
        "k"
      ],
      [
        "▁ajku̶xy",
        "."
      ],
      [
        ".\n",
        "1"
      ],
      [
        "▁lo",
        "kë"
      ],
      [
        "▁M",
        "ari"
      ],
      [
        "u̶m",
        "aay"
      ],
      [
        "▁ken",
        "a"
      ],
      [
        "▁ka'",
        "p"
      ],
      [
        ".",
        "1"
      ],
      [
        "N",
        "ug"
      ],
      [
        "T",
        "iwur"
      ],
      [
        "b",
        "ë"
      ],
      [
        "c",
        "k"
      ],
      [
        "e",
        "en"
      ],
      [
        "j",
        "oot"
      ],
      [
        "k",
        "u̶x"
      ],
      [
        "l",
        "y"
      ],
      [
        "n",
        "a"
      ],
      [
        "n",
        "ë"
      ],
      [
        "t",
        "h"
      ],
      [
        "t",
        "u"
      ],
      [
        "t",
        "er"
      ],
      [
        "ɔ",
        "n"
      ],
      [
        "ɛ",
        "l"
      ],
      [
        "▁",
        "P"
      ],
      [
        "▁",
        "W"
      ],
      [
        "▁",
        "ë"
      ],
      [
        "▁",
        "hi"
      ],
      [
        "u̶",
        "j"
      ],
      [
        "▁m",
        "o"
      ],
      [
        "▁m",
        "oo"
      ],
      [
        "▁d",
        "im"
      ],
      [
        "▁j",
        "im"
      ],
      [
        "▁b",
        "a"
      ],
      [
        "▁g",
        "ad"
      ],
      [
        "ag",
        "r"
      ],
      [
        "er",
        "od"
      ],
      [
        "es",
        "us"
      ],
      [
        "ad",
        "z"
      ],
      [
        "ad",
        "ü"
      ],
      [
        "▁ajku̶xy",
        ","
      ],
      [
        "▁na",
        "ŕi"
      ],
      [
        "u'",
        "ug"
      ],
      [
        "▁ëm",
        "la"
      ],
      [
        "ya",
        "ak"
      ],
      [
        "▁th",
        "at"
      ],
      [
        "D",
        "a"
      ],
      [
        "c",
        "e"
      ],
      [
        "c",
        "i"
      ],
      [
        "d",
        "z"
      ],
      [
        "h",
        "a"
      ],
      [
        "h",
        "aa"
      ],
      [
        "i",
        "on"
      ],
      [
        "k",
        "y"
      ],
      [
        "k",
        "pu̶"
      ],
      [
        "o",
        "l"
      ],
      [
        "o",
        "ɓ"
      ],
      [
        "p",
        "p"
      ],
      [
        "t",
        "t"
      ],
      [
        "x",
        "yu̶"
      ],
      [
        "y",
        "o"
      ],
      [
        "y",
        "aj"
      ],
      [
        "à",
        "a"
      ],
      [
        "▁",
        "e"
      ],
      [
        "u̶",
        "w"
      ],
      [
        "u̶",
        "y"
      ],
      [
        "▁k",
        "u̶xyu̶"
      ],
      [
        "▁m",
        "or"
      ],
      [
        "an",
        "n"
      ],
      [
        "▁d",
        "a"
      ],
      [
        "▁d",
        "e"
      ],
      [
        "▁o",
        "y"
      ],
      [
        "▁o",
        "wa"
      ],
      [
        "▁o",
        "me"
      ],
      [
        "▁g",
        "o"
      ],
      [
        "▁s",
        "i"
      ],
      [
        "or",
        "t"
      ],
      [
        "▁ajku̶xy",
        ":\n—"
      ],
      [
        "▁N",
        "ug"
      ],
      [
        "u̶ñ",
        "."
      ],
      [
        "▁Y",
        "on"
      ],
      [
        "▁K",
        "a̱"
      ],
      [
        "▁wa",
        "s"
      ],
      [
        "▁ts",
        "u"
      ],
      [
        ",",
        "”"
      ],
      [
        "M",
        "ari"
      ],
      [
        "a",
        "ɓ"
      ],
      [
        "b",
        "yu̶"
      ],
      [
        "e",
        "ri"
      ],
      [
        "j",
        "y"
      ],
      [
        "o",
        "ul"
      ],
      [
        "p",
        "i"
      ],
      [
        "s",
        "hi"
      ],
      [
        "t",
        "ti"
      ],
      [
        "u",
        "b"
      ],
      [
        "u",
        "uk"
      ],
      [
        "x",
        "ku̶xy"
      ],
      [
        "y",
        "in"
      ],
      [
        "ɛ",
        "ɛ"
      ],
      [
        "▁",
        "ì"
      ],
      [
        "▁",
        "ew"
      ],
      [
        "▁",
        "ig"
      ],
      [
        "▁",
        "us"
      ],
      [
        "▁n",
        "am"
      ],
      [
        "▁n",
        "im"
      ],
      [
        "▁n",
        "oh"
      ],
      [
        "▁k",
        "i"
      ],
      [
        "▁k",
        "y"
      ],
      [
        "▁k",
        "ì"
      ],
      [
        "▁k",
        "un"
      ],
      [
        "▁m",
        "an"
      ],
      [
        "▁m",
        "em"
      ],
      [
        "▁d",
        "ah"
      ],
      [
        "▁d",
        "es"
      ],
      [
        "▁j",
        "a'ay"
      ],
      [
        "ak",
        "e"
      ],
      [
        "▁b",
        "in"
      ],
      [
        "he",
        "n"
      ],
      [
        "▁l",
        "a"
      ],
      [
        "▁l",
        "àa"
      ],
      [
        "▁p",
        "a"
      ],
      [
        "on",
        "g"
      ],
      [
        "ew",
        "ew"
      ],
      [
        "▁an",
        "an,"
      ],
      [
        "▁i",
        "j"
      ],
      [
        "▁i",
        "s"
      ],
      [
        "▁i",
        "li"
      ],
      [
        "▁qe",
        "wa"
      ],
      [
        "▁ma",
        "ri"
      ],
      [
        "▁J",
        "er"
      ],
      [
        "u'",
        "u"
      ],
      [
        "▁ñ",
        "ay"
      ],
      [
        "▁ñ",
        "u̶maay"
      ],
      [
        "u̶'",
        "it"
      ],
      [
        "▁y'",
        "ay"
      ],
      [
        "▁H",
        "erod"
      ],
      [
        "▁20",
        "1"
      ],
      [
        "▁bu",
        "li"
      ],
      [
        "▁nus",
        "ig"
      ],
      [
        "▁moo",
        "ko"
      ],
      [
        "agr",
        "ag"
      ],
      [
        "▁dah",
        "m"
      ],
      [
        "/",
        "/"
      ],
      [
        "a",
        "w"
      ],
      [
        "e",
        ","
      ],
      [
        "h",
        "à"
      ],
      [
        "j",
        "ük"
      ],
      [
        "k",
        "a̱"
      ],
      [
        "k",
        "si"
      ],
      [
        "m",
        "u̶d"
      ],
      [
        "n",
        "ɛ"
      ],
      [
        "n",
        "am"
      ],
      [
        "r",
        "om"
      ],
      [
        "s",
        "."
      ],
      [
        "s",
        "e"
      ],
      [
        "s",
        "ak"
      ],
      [
        "t",
        "e"
      ],
      [
        "u",
        "u"
      ],
      [
        "u",
        "ŕ"
      ],
      [
        "u",
        "di"
      ],
      [
        "v",
        "er"
      ],
      [
        "y",
        "as"
      ],
      [
        "é",
        "rig"
      ],
      [
        "ñ",
        "u̶"
      ],
      [
        "ü",
        "r"
      ],
      [
        "▁",
        "ri"
      ],
      [
        "▁",
        "le"
      ],
      [
        "u̶",
        "p"
      ],
      [
        "▁a",
        "l"
      ],
      [
        "▁a",
        "r"
      ],
      [
        "▁k",
        "ing"
      ],
      [
        "▁t",
        "e"
      ],
      [
        "▁d",
        "ar"
      ],
      [
        "▁d",
        "as"
      ],
      [
        "▁j",
        "ut"
      ],
      [
        "▁o",
        "l"
      ],
      [
        "▁o",
        "ko"
      ],
      [
        "▁o",
        "lag"
      ],
      [
        "▁y",
        "a"
      ],
      [
        "▁y",
        "i"
      ],
      [
        "▁g",
        "agrag"
      ],
      [
        "▁w",
        "an"
      ],
      [
        "jk",
        "tu̶jk"
      ],
      [
        "ar",
        "to"
      ],
      [
        "▁p",
        "ro"
      ],
      [
        "▁r",
        "o"
      ],
      [
        "im",
        "b"
      ],
      [
        "▁1",
        "6"
      ],
      [
        "eŕ",
        "di"
      ],
      [
        "tu̶",
        "g"
      ],
      [
        "ya",
        "Ꞌ"
      ],
      [
        "▁u",
        "ŕi"
      ],
      [
        "id",
        "eo"
      ],
      [
        "u̶u̶y",
        "gyu̶xy"
      ],
      [
        "ii",
        "ch"
      ],
      [
        "▁nyi",
        "jük"
      ],
      [
        "is",
        "hi"
      ],
      [
        "ap",
        "x"
      ],
      [
        "'o",
        "xyu̶"
      ],
      [
        "wng",
        "th"
      ],
      [
        "▁so",
        "wa"
      ],
      [
        "▁Is",
        "ra"
      ],
      [
        "▁en",
        "e"
      ],
      [
        "een",
        "hi"
      ],
      [
        "joot",
        "y"
      ],
      [
        "▁gad",
        "d"
      ],
      [
        "▁Ka̱",
        "shi"
      ],
      [
        "▁kun",
        "um"
      ],
      [
        "▁Jer",
        "us"
      ],
      [
        "▁ñu̶maay",
        "u̶"
      ],
      [
        "▁y'ay",
        "uuk"
      ],
      [
        "arto",
        "on"
      ],
      [
        "'oxyu̶",
        "jktu̶jk"
      ],
      [
        "wngth",
        "ang"
      ],
      [
        "▁Isra",
        "el"
      ],
      [
        "▁Ka̱shi",
        "le"
      ],
      [
        "'",
        "ij"
      ],
      [
        "a",
        "."
      ],
      [
        "a",
        "ɗ"
      ],
      [
        "a",
        "ak"
      ],
      [
        "d",
        "eenhi"
      ],
      [
        "e",
        "esus"
      ],
      [
        "j",
        "a'ay"
      ],
      [
        "m",
        "wn"
      ],
      [
        "n",
        "ig"
      ],
      [
        "p",
        "le"
      ],
      [
        "s",
        "a"
      ],
      [
        "u",
        "c"
      ],
      [
        "v",
        "i"
      ],
      [
        "w",
        "in"
      ],
      [
        "w",
        "ol"
      ],
      [
        "z",
        "k"
      ],
      [
        "é",
        "ksi"
      ],
      [
        "ë",
        "k"
      ],
      [
        "▁",
        "F"
      ],
      [
        "▁",
        "Z"
      ],
      [
        "▁",
        "ut"
      ],
      [
        "▁a",
        "ll"
      ],
      [
        "▁n",
        "wngthang"
      ],
      [
        "▁k",
        "at"
      ],
      [
        "▁m",
        "ay"
      ],
      [
        "▁m",
        "a̱"
      ],
      [
        "▁t",
        "a"
      ],
      [
        "wa",
        "ri"
      ],
      [
        "▁b",
        "e"
      ],
      [
        "▁b",
        "ük"
      ],
      [
        "he",
        "tti"
      ],
      [
        "▁s",
        "én"
      ],
      [
        "am",
        "u"
      ],
      [
        "▁w",
        "e"
      ],
      [
        "▁w",
        "y"
      ],
      [
        "ag",
        "hà"
      ],
      [
        "er",
        "u̶"
      ],
      [
        "on",
        "e"
      ],
      [
        "yu̶",
        "'"
      ],
      [
        "un",
        "d"
      ],
      [
        "or",
        "n"
      ],
      [
        "es",
        "t"
      ],
      [
        "▁q",
        "ere"
      ],
      [
        "u̶u̶",
        "yu̶"
      ],
      [
        "al",
        "am"
      ],
      [
        "▁i",
        "h"
      ],
      [
        "ad",
        "o"
      ],
      [
        "a'",
        "a"
      ],
      [
        "▁ko",
        "wol"
      ],
      [
        "▁to",
        "ku"
      ],
      [
        "▁Y",
        "eesus"
      ],
      [
        "▁in",
        "gë"
      ],
      [
        "▁A",
        "P"
      ],
      [
        "▁wa",
        "w"
      ],
      [
        "ek",
        "u"
      ],
      [
        "uk",
        "u"
      ],
      [
        "od",
        "o"
      ],
      [
        "ll",
        "ah"
      ],
      [
        "yu",
        "d"
      ],
      [
        "▁x",
        "u̶u̶"
      ],
      [
        "▁ad",
        "ama"
      ],
      [
        "ajp",
        "t"
      ],
      [
        "ú̶",
        "kx"
      ],
      [
        "▁wit",
        "h"
      ],
      [
        "▁wit",
        "t"
      ],
      [
        "▁si",
        "llah"
      ],
      [
        "▁dar",
        "é"
      ],
      [
        "▁gagrag",
        "sak"
      ],
      [
        "'",
        "ajt"
      ],
      [
        "'",
        "kpu̶"
      ],
      [
        ".",
        "."
      ],
      [
        "M",
        "u̶'it"
      ],
      [
        "S",
        "én"
      ],
      [
        "d",
        "o"
      ],
      [
        "g",
        "."
      ],
      [
        "g",
        "u"
      ],
      [
        "g",
        "ar"
      ],
      [
        "i",
        "o"
      ],
      [
        "j",
        "ip"
      ],
      [
        "k",
        "i"
      ],
      [
        "m",
        "a"
      ],
      [
        "m",
        "at"
      ],
      [
        "n",
        "ah"
      ],
      [
        "o",
        "ur"
      ],
      [
        "r",
        "am"
      ],
      [
        "s",
        "ɛ"
      ],
      [
        "t",
        "a̱"
      ],
      [
        "u",
        "q"
      ],
      [
        "v",
        "e"
      ],
      [
        "w",
        "r"
      ],
      [
        "é",
        "̱"
      ],
      [
        "ë",
        "ga"
      ],
      [
        "ɔ",
        "́"
      ],
      [
        "ɛ",
        "́"
      ],
      [
        "▁",
        "8"
      ],
      [
        "▁",
        "Q"
      ],
      [
        "▁",
        "u̶x"
      ],
      [
        "▁",
        "eko"
      ],
      [
        "▁",
        "éksi"
      ],
      [
        "u̶",
        "jk"
      ],
      [
        "▁a",
        "yin"
      ],
      [
        "▁n",
        "o"
      ],
      [
        "▁n",
        "he"
      ],
      [
        "▁k",
        "p"
      ],
      [
        "▁k",
        "pa"
      ],
      [
        "▁m",
        "u̶"
      ],
      [
        "▁m",
        "ew"
      ],
      [
        "▁m",
        "eŕ"
      ],
      [
        "▁m",
        "iich"
      ],
      [
        "▁t",
        "yu"
      ],
      [
        "▁t",
        "orn"
      ],
      [
        "e̱",
        "tz"
      ],
      [
        "an",
        "ak"
      ],
      [
        "▁d",
        "ug"
      ],
      [
        "▁d",
        "ig"
      ],
      [
        "▁j",
        "anch"
      ],
      [
        "▁o",
        "t"
      ],
      [
        "▁o",
        "'kpu̶"
      ],
      [
        "▁b",
        "érig"
      ],
      [
        "▁g",
        "b"
      ],
      [
        "▁g",
        "i"
      ],
      [
        "▁g",
        "un"
      ],
      [
        "▁g",
        "um"
      ],
      [
        "▁s",
        "e"
      ],
      [
        "▁w",
        "ere"
      ],
      [
        "ch",
        "in"
      ],
      [
        "▁l",
        "in"
      ],
      [
        "▁l",
        "ight"
      ],
      [
        "ug",
        "y"
      ],
      [
        "▁p",
        "ris"
      ],
      [
        "ew",
        "s"
      ],
      [
        "or",
        "e"
      ],
      [
        "at",
        "y"
      ],
      [
        "at",
        "ku̶xy"
      ],
      [
        "al",
        "a"
      ],
      [
        "al",
        "én"
      ],
      [
        "▁f",
        "aŕ"
      ],
      [
        "▁f",
        "rom"
      ],
      [
        "▁r",
        "ü"
      ],
      [
        "▁r",
        "ep"
      ],
      [
        "▁qe",
        "ri"
      ],
      [
        "oo",
        "sɛ"
      ],
      [
        "a'",
        "t"
      ],
      [
        "et",
        "te"
      ],
      [
        "▁N",
        "a"
      ],
      [
        "▁to",
        "'oxyu̶jktu̶jk"
      ],
      [
        "▁A",
        "m"
      ],
      [
        "ɛ̀",
        "ɛ"
      ],
      [
        "▁K",
        "i"
      ],
      [
        "▁c",
        "l"
      ],
      [
        "el",
        "le"
      ],
      [
        "▁D",
        "av"
      ],
      [
        "▁S",
        "o"
      ],
      [
        "▁am",
        "eg"
      ],
      [
        "▁ñ",
        "ak"
      ],
      [
        "ang",
        "u̶xy"
      ],
      [
        "▁B",
        "et"
      ],
      [
        "bu̶",
        "jk"
      ],
      [
        "▁ag",
        "om"
      ],
      [
        "▁C",
        "h"
      ],
      [
        "ij",
        "e̱'"
      ],
      [
        "ti",
        "on"
      ],
      [
        "▁R",
        "ay"
      ],
      [
        "▁os",
        "pi"
      ],
      [
        "▁v",
        "ishi"
      ],
      [
        "▁x",
        "y"
      ],
      [
        "▁bul",
        "u"
      ],
      [
        "av",
        "e"
      ],
      [
        "ni",
        "'"
      ],
      [
        "▁keŕ",
        "di"
      ],
      [
        "▁gam",
        "ag"
      ],
      [
        "▁st",
        "or"
      ],
      [
        "▁hi",
        "s"
      ],
      [
        "▁dim",
        "ba"
      ],
      [
        "oɓ",
        "us"
      ],
      [
        "Mari",
        "a"
      ],
      [
        "byu̶",
        "d"
      ],
      [
        "▁noh",
        "wa"
      ],
      [
        "▁kì",
        "e"
      ],
      [
        "▁bin",
        "ag"
      ],
      [
        "▁buli",
        "ko"
      ],
      [
        "udi",
        "a"
      ],
      [
        "imb",
        "ij"
      ],
      [
        "▁Jerus",
        "alén"
      ],
      [
        "▁nwngthang",
        "mwn"
      ],
      [
        "a'a",
        "ñ"
      ],
      [
        "▁nhe",
        "ette"
      ],
      [
        "▁torn",
        "ado"
      ],
      [
        "▁dug",
        "i"
      ],
      [
        "oosɛ",
        "ɓ"
      ],
      [
        "▁Dav",
        "it"
      ],
      [
        "▁vishi",
        "li"
      ],
      [
        "-",
        "1"
      ],
      [
        "3",
        "Y"
      ],
      [
        "?",
        "\n"
      ],
      [
        "J",
        "e̱'"
      ],
      [
        "K",
        "o"
      ],
      [
        "T",
        "i"
      ],
      [
        "a",
        "in"
      ],
      [
        "a",
        "am"
      ],
      [
        "a",
        "ag"
      ],
      [
        "b",
        "e"
      ],
      [
        "b",
        "r"
      ],
      [
        "b",
        "le"
      ],
      [
        "c",
        "t"
      ],
      [
        "d",
        "ü"
      ],
      [
        "d",
        "le"
      ],
      [
        "d",
        "er"
      ],
      [
        "e",
        "."
      ],
      [
        "g",
        "à"
      ],
      [
        "h",
        "le"
      ],
      [
        "h",
        "one"
      ],
      [
        "j",
        "a"
      ],
      [
        "j",
        "anch"
      ],
      [
        "k",
        "e"
      ],
      [
        "k",
        "hetti"
      ],
      [
        "m",
        "y"
      ],
      [
        "o",
        ","
      ],
      [
        "o",
        "ug"
      ],
      [
        "p",
        "s"
      ],
      [
        "p",
        "ó"
      ],
      [
        "s",
        "ur"
      ],
      [
        "s",
        "tu̶jk"
      ],
      [
        "t",
        "s"
      ],
      [
        "t",
        "ɛ̀"
      ],
      [
        "t",
        "om"
      ],
      [
        "u",
        "h"
      ],
      [
        "w",
        "i"
      ],
      [
        "w",
        "eg"
      ],
      [
        "x",
        "t"
      ],
      [
        "¿",
        "Ti"
      ],
      [
        "à",
        "à"
      ],
      [
        "ò",
        "o"
      ],
      [
        "ɛ",
        "n"
      ],
      [
        "́",
        "s"
      ],
      [
        "’",
        "s"
      ],
      [
        "▁",
        "z"
      ],
      [
        "▁",
        "un"
      ],
      [
        "▁",
        "ɛ́"
      ],
      [
        "▁",
        "́s"
      ],
      [
        "▁a",
        "j"
      ],
      [
        "▁a",
        "si"
      ],
      [
        "▁n",
        "as"
      ],
      [
        "▁n",
        "haa"
      ],
      [
        "▁k",
        "us"
      ],
      [
        "▁k",
        "alam"
      ],
      [
        "▁m",
        "u̶j"
      ],
      [
        "▁t",
        "yu̶"
      ],
      [
        "▁t",
        "hi"
      ],
      [
        "an",
        "ig"
      ],
      [
        "▁d",
        "oo"
      ],
      [
        "▁j",
        "yu"
      ],
      [
        "▁o",
        "ut"
      ],
      [
        "in",
        "d"
      ],
      [
        "in",
        "i"
      ],
      [
        "ak",
        "wa"
      ],
      [
        "u̶x",
        "u̶'"
      ],
      [
        "▁b",
        "y"
      ],
      [
        "▁b",
        "òo"
      ],
      [
        "he",
        "d"
      ],
      [
        "he",
        "m"
      ],
      [
        "▁g",
        "et"
      ],
      [
        "▁s",
        "um"
      ],
      [
        "le",
        "stu̶jk"
      ],
      [
        "▁w",
        "he"
      ],
      [
        "▁w",
        "ei"
      ],
      [
        "▁w",
        "haa"
      ],
      [
        "▁l",
        "hi"
      ],
      [
        "▁l",
        "ëga"
      ],
      [
        "ar",
        "y"
      ],
      [
        "ah",
        "am"
      ],
      [
        "en",
        "d"
      ],
      [
        "▁p",
        "e"
      ],
      [
        "on",
        "d"
      ],
      [
        "ig",
        "u̶xu̶'"
      ],
      [
        "▁an",
        "an."
      ],
      [
        "as",
        "e"
      ],
      [
        "at",
        "ion"
      ],
      [
        "al",
        "o"
      ],
      [
        "▁i",
        "t"
      ],
      [
        "ko",
        "k"
      ],
      [
        "▁f",
        "oɓus"
      ],
      [
        "▁r",
        "e"
      ],
      [
        "▁the",
        "se"
      ],
      [
        "▁ajku̶xy",
        "u̶ñ"
      ],
      [
        "im",
        "e"
      ],
      [
        "▁ko",
        "ŕ"
      ],
      [
        ".\n",
        "2"
      ],
      [
        "▁ɓ",
        "aghà"
      ],
      [
        "ajt",
        "zk"
      ],
      [
        "▁Y",
        "o"
      ],
      [
        "▁Y",
        "ür"
      ],
      [
        "▁Y",
        "oosɛɓ"
      ],
      [
        "ut",
        "um"
      ],
      [
        "ai",
        "l"
      ],
      [
        "▁c",
        "i"
      ],
      [
        "▁c",
        "hen"
      ],
      [
        "▁wa",
        "l"
      ],
      [
        "▁ɗ",
        "y"
      ],
      [
        "▁1",
        "0"
      ],
      [
        "▁1",
        "1"
      ],
      [
        "▁1",
        "5"
      ],
      [
        "▁S",
        "al"
      ],
      [
        "ek",
        "si"
      ],
      [
        "lag",
        "."
      ],
      [
        "▁do",
        "wa"
      ],
      [
        "ang",
        "ar"
      ],
      [
        "to",
        ","
      ],
      [
        "▁h",
        "ave"
      ],
      [
        "▁at",
        "u"
      ],
      [
        "▁at",
        "an."
      ],
      [
        "▁L",
        "aw"
      ],
      [
        "▁“",
        "Da"
      ],
      [
        "kx",
        "y"
      ],
      [
        "gy",
        "u̶x"
      ],
      [
        "rig",
        "ri"
      ],
      [
        "▁myu̶",
        "na"
      ],
      [
        "▁du",
        "ak"
      ],
      [
        "aka",
        "wa"
      ],
      [
        "▁H",
        "e"
      ],
      [
        "▁tz",
        "ajp"
      ],
      [
        "dig",
        "."
      ],
      [
        "▁Naŕinah",
        "ri"
      ],
      [
        "▁ɓɛ",
        "ɛ̀"
      ],
      [
        ".”",
        "\n"
      ],
      [
        "ec",
        "t"
      ],
      [
        "▁Mari",
        "i"
      ],
      [
        "Tiwur",
        "di"
      ],
      [
        "ku̶x",
        "p"
      ],
      [
        "yaak",
        "ku̶xy"
      ],
      [
        "yaj",
        "ni'"
      ],
      [
        "oul",
        "d"
      ],
      [
        "▁ew",
        "lag"
      ],
      [
        "▁ñay",
        "yajni'"
      ],
      [
        "▁das",
        "il"
      ],
      [
        "uc",
        "tion"
      ],
      [
        "▁wy",
        "imbij"
      ],
      [
        "ú̶kx",
        "ku̶xy"
      ],
      [
        "▁rep",
        "ort"
      ],
      [
        "▁Ki",
        "ris"
      ],
      [
        "▁Bet",
        "hle"
      ],
      [
        "▁nas",
        "ip"
      ],
      [
        "▁thi",
        "s"
      ],
      [
        "▁lhi",
        "a"
      ],
      [
        "▁foɓus",
        "o"
      ],
      [
        "ajtzk",
        "apx"
      ],
      [
        "▁Yür",
        "në"
      ],
      [
        "▁myu̶na",
        "angu̶xy"
      ],
      [
        "▁tzajp",
        "jooty"
      ],
      [
        "▁ñayyajni'",
        "igu̶xu̶'"
      ],
      [
        "▁Bethle",
        "hem"
      ],
      [
        "\n",
        "("
      ],
      [
        "\n",
        "C"
      ],
      [
        "\n",
        "R"
      ],
      [
        "#",
        "1"
      ],
      [
        ":",
        "//"
      ],
      [
        "D",
        "anah"
      ],
      [
        "G",
        "am"
      ],
      [
        "K",
        "eŕdi"
      ],
      [
        "N",
        "a"
      ],
      [
        "V",
        "ideo"
      ],
      [
        "a",
        "x"
      ],
      [
        "a",
        "jk"
      ],
      [
        "b",
        "i"
      ],
      [
        "b",
        "w"
      ],
      [
        "c",
        "ri"
      ],
      [
        "c",
        "om"
      ],
      [
        "d",
        "ay"
      ],
      [
        "e",
        "wa"
      ],
      [
        "f",
        "wr"
      ],
      [
        "g",
        "i"
      ],
      [
        "g",
        "u̶xy"
      ],
      [
        "g",
        "ur"
      ],
      [
        "g",
        "u̶ch"
      ],
      [
        "h",
        "am"
      ],
      [
        "i",
        "'"
      ],
      [
        "j",
        "i"
      ],
      [
        "j",
        "u̶w"
      ],
      [
        "l",
        "d"
      ],
      [
        "l",
        "ay"
      ],
      [
        "m",
        ","
      ],
      [
        "n",
        "."
      ],
      [
        "n",
        "y"
      ],
      [
        "n",
        "ajtzkapx"
      ],
      [
        "o",
        "us"
      ],
      [
        "o",
        "ll"
      ],
      [
        "o",
        "'o"
      ],
      [
        "r",
        "ë"
      ],
      [
        "r",
        "der"
      ],
      [
        "s",
        "to"
      ],
      [
        "u",
        "."
      ],
      [
        "v",
        "as"
      ],
      [
        "w",
        "en"
      ],
      [
        "x",
        "y"
      ],
      [
        "y",
        "e"
      ],
      [
        "y",
        "al"
      ],
      [
        "z",
        "yas"
      ],
      [
        "é",
        "m"
      ],
      [
        "é",
        "ri"
      ],
      [
        "ì",
        "ɓ"
      ],
      [
        "í",
        "i"
      ],
      [
        "ŋ",
        "ì"
      ],
      [
        "ŕ",
        "um"
      ],
      [
        "ɔ",
        "ɓ"
      ],
      [
        "ɗ",
        "a̱"
      ],
      [
        "ɛ",
        "̃"
      ],
      [
        "▁",
        "("
      ],
      [
        "▁",
        "Ɛ"
      ],
      [
        "▁",
        "ǹ"
      ],
      [
        "Ꞌ",
        "an"
      ],
      [
        "u̶",
        "n"
      ],
      [
        "▁a",
        "ü"
      ],
      [
        "▁a",
        "aj"
      ],
      [
        "▁a",
        "lo"
      ],
      [
        "▁a",
        "pó"
      ],
      [
        "▁a",
        "uction"
      ],
      [
        "▁n",
        "g"
      ],
      [
        "▁n",
        "ë"
      ],
      [
        "▁n",
        "ek"
      ],
      [
        "▁n",
        "go"
      ],
      [
        "▁n",
        "ije̱'"
      ],
      [
        "▁k",
        "um"
      ],
      [
        "▁k",
        "eg"
      ],
      [
        "▁k",
        "eku"
      ],
      [
        "▁k",
        "ajpt"
      ],
      [
        "▁m",
        "e"
      ],
      [
        "▁m",
        "id"
      ],
      [
        "▁m",
        "janch"
      ],
      [
        "▁t",
        "i"
      ],
      [
        "▁t",
        "r"
      ],
      [
        "▁t",
        "u'"
      ],
      [
        "▁t",
        "akar"
      ],
      [
        "e̱",
        "j"
      ],
      [
        "▁d",
        "ari"
      ],
      [
        "▁d",
        "ho"
      ],
      [
        "▁j",
        "ii"
      ],
      [
        "▁j",
        "wng"
      ],
      [
        "▁o",
        "go"
      ],
      [
        "▁y",
        "al"
      ],
      [
        "▁y",
        "um"
      ],
      [
        "▁y",
        "adü"
      ],
      [
        "ak",
        "ɔɓ"
      ],
      [
        "▁b",
        "o"
      ],
      [
        "▁b",
        "an"
      ],
      [
        "he",
        "r"
      ],
      [
        "▁s",
        "am"
      ],
      [
        "am",
        "\n1"
      ],
      [
        "▁w",
        "u"
      ],
      [
        "▁w",
        "ho"
      ],
      [
        "ch",
        "o"
      ],
      [
        "▁l",
        "i"
      ],
      [
        "▁l",
        "am"
      ],
      [
        "ur",
        "e"
      ],
      [
        "ur",
        "ko"
      ],
      [
        "ag",
        "o"
      ],
      [
        "ar",
        "d"
      ],
      [
        "en",
        "t"
      ],
      [
        "▁p",
        "i"
      ],
      [
        "▁p",
        "o"
      ],
      [
        "▁p",
        "ut"
      ],
      [
        "▁p",
        "eo"
      ],
      [
        "a̱",
        "n"
      ],
      [
        "a̱",
        "ka̱"
      ],
      [
        "yu̶",
        "ch"
      ],
      [
        "▁an",
        "ë"
      ],
      [
        "at",
        "ed"
      ],
      [
        "▁i",
        "ako"
      ],
      [
        "▁i",
        "deenhi"
      ],
      [
        "▁T",
        "he"
      ],
      [
        "▁T",
        "en"
      ],
      [
        "▁f",
        "uŕ"
      ],
      [
        "▁r",
        "utum"
      ],
      [
        "▁r",
        "a̱ka̱"
      ],
      [
        "ad",
        "yii"
      ],
      [
        "▁the",
        "y"
      ],
      [
        "li",
        "ck"
      ],
      [
        "▁ko",
        "ut"
      ],
      [
        ".\n",
        "J"
      ],
      [
        "▁N",
        "ew"
      ],
      [
        "di",
        "jy"
      ],
      [
        "ir",
        "st"
      ],
      [
        "▁A",
        "k"
      ],
      [
        "▁A",
        "ɓ"
      ],
      [
        "▁K",
        "eŕdi"
      ],
      [
        "▁2",
        "1"
      ],
      [
        "▁2",
        "4"
      ],
      [
        "▁2",
        "8"
      ],
      [
        "▁c",
        "an"
      ],
      [
        "▁c",
        "on"
      ],
      [
        "el",
        "l"
      ],
      [
        "▁wa",
        "p"
      ],
      [
        "▁ɗ",
        "ì"
      ],
      [
        "▁ñ",
        "ú̶kxku̶xy"
      ],
      [
        "u̶'",
        "u̶m"
      ],
      [
        "u̶'",
        "u̶y"
      ],
      [
        "▁ne",
        "y"
      ],
      [
        "▁ku",
        "ak"
      ],
      [
        "▁ku",
        "ŕum"
      ],
      [
        "▁B",
        "odo"
      ],
      [
        "▁G",
        "e"
      ],
      [
        "▁G",
        "un"
      ],
      [
        "▁G",
        "od"
      ],
      [
        "▁C",
        "artoon"
      ],
      [
        "▁nyi",
        "kok"
      ],
      [
        "rig",
        "."
      ],
      [
        "ip",
        "ku̶xp"
      ],
      [
        "▁v",
        "ideo"
      ],
      [
        "▁myu̶",
        "d"
      ],
      [
        "▁myu̶",
        "n"
      ],
      [
        "▁ɓi",
        "ì"
      ],
      [
        "ris",
        "to"
      ],
      [
        "▁tz",
        "ipku̶xp"
      ],
      [
        "▁jy",
        "adyii"
      ],
      [
        "▁yo",
        "ur"
      ],
      [
        "▁bul",
        "b"
      ],
      [
        "dig",
        "ri"
      ],
      [
        "py",
        "ú̶"
      ],
      [
        "▁di",
        "an"
      ],
      [
        "yu̶ñ",
        "."
      ],
      [
        "▁Mari",
        "a"
      ],
      [
        "ter",
        "vi"
      ],
      [
        "adü",
        ","
      ],
      [
        "pp",
        "ed"
      ],
      [
        "▁e",
        "x"
      ],
      [
        "ann",
        "el"
      ],
      [
        "▁ajku̶xy:\n—",
        "¿Ti"
      ],
      [
        "oul",
        "li"
      ],
      [
        "▁ew",
        "eg"
      ],
      [
        "▁nim",
        "e̱tz"
      ],
      [
        "▁pa",
        "atku̶xy"
      ],
      [
        "▁201",
        "3"
      ],
      [
        "▁dahm",
        "ak"
      ],
      [
        "mu̶d",
        "yaak"
      ],
      [
        "▁16",
        ".1"
      ],
      [
        "yaꞋ",
        "i"
      ],
      [
        "▁uŕi",
        "y"
      ],
      [
        "u̶u̶ygyu̶xy",
        ","
      ],
      [
        "▁y'ayuuk",
        "najtzkapx"
      ],
      [
        "▁ut",
        "sur"
      ],
      [
        "▁kat",
        "aŕ"
      ],
      [
        "▁witt",
        "ak"
      ],
      [
        "▁Q",
        "eri"
      ],
      [
        "▁kpa",
        "ŋ"
      ],
      [
        "▁meŕ",
        "e"
      ],
      [
        "▁tyu",
        "ñ"
      ],
      [
        "anak",
        "ai"
      ],
      [
        "▁dig",
        "um"
      ],
      [
        "▁lin",
        "ako"
      ],
      [
        "ugy",
        "pyú̶"
      ],
      [
        "▁cl",
        "os"
      ],
      [
        "▁ñak",
        "yu̶ñ"
      ],
      [
        "byu̶d",
        "u̶jk"
      ],
      [
        "▁wei",
        "y"
      ],
      [
        "\n(",
        "M"
      ],
      [
        "#1",
        ":"
      ],
      [
        "oll",
        "ow"
      ],
      [
        "sto",
        "lestu̶jk"
      ],
      [
        "▁apó",
        "stolestu̶jk"
      ],
      [
        "▁dari",
        "g."
      ],
      [
        "▁yum",
        "alo"
      ],
      [
        "▁peo",
        "ple"
      ],
      [
        "▁ideenhi",
        "khetti"
      ],
      [
        "▁fuŕ",
        "uh"
      ],
      [
        "▁y'ayuuknajtzkapx",
        "u̶u̶y"
      ],
      [
        "▁utsur",
        "a"
      ],
      [
        "\n",
        "#"
      ],
      [
        "\n",
        "F"
      ],
      [
        "\n",
        "I"
      ],
      [
        "\n",
        "J"
      ],
      [
        "'",
        "ad"
      ],
      [
        ")",
        "\n"
      ],
      [
        "-",
        "2"
      ],
      [
        "-",
        "f"
      ],
      [
        ".",
        "com"
      ],
      [
        "2",
        "4"
      ],
      [
        "2",
        "Chi"
      ],
      [
        "3",
        "Nug"
      ],
      [
        "9",
        "Y"
      ],
      [
        "?",
        "”"
      ],
      [
        "E",
        "lisabet"
      ],
      [
        "I",
        "jip"
      ],
      [
        "N",
        "aŕinah"
      ],
      [
        "P",
        "eru̶"
      ],
      [
        "R",
        "ì"
      ],
      [
        "T",
        "he"
      ],
      [
        "a",
        "f"
      ],
      [
        "b",
        "er"
      ],
      [
        "b",
        "ir"
      ],
      [
        "c",
        "r"
      ],
      [
        "c",
        "í"
      ],
      [
        "c",
        "es"
      ],
      [
        "d",
        "u"
      ],
      [
        "d",
        "im"
      ],
      [
        "e",
        "j"
      ],
      [
        "e",
        "ed"
      ],
      [
        "f",
        "f"
      ],
      [
        "f",
        "et"
      ],
      [
        "g",
        ","
      ],
      [
        "g",
        "u̶x"
      ],
      [
        "g",
        "en"
      ],
      [
        "g",
        "u'ug"
      ],
      [
        "h",
        "u"
      ],
      [
        "h",
        "nig"
      ],
      [
        "i",
        "ble"
      ],
      [
        "i",
        "ct"
      ],
      [
        "j",
        "ed"
      ],
      [
        "j",
        "u̶ñ"
      ],
      [
        "j",
        "uu"
      ],
      [
        "k",
        "p"
      ],
      [
        "k",
        "ajp"
      ],
      [
        "l",
        "am"
      ],
      [
        "l",
        "as"
      ],
      [
        "l",
        "ëm"
      ],
      [
        "l",
        "ai"
      ],
      [
        "l",
        "ük"
      ],
      [
        "m",
        "anah"
      ],
      [
        "n",
        "g"
      ],
      [
        "n",
        "w"
      ],
      [
        "n",
        "al"
      ],
      [
        "o",
        "."
      ],
      [
        "o",
        "tu̶jk"
      ],
      [
        "o",
        "py"
      ],
      [
        "p",
        "yu̶"
      ],
      [
        "p",
        "ul"
      ],
      [
        "p",
        "ort"
      ],
      [
        "q",
        "an."
      ],
      [
        "r",
        "ì"
      ],
      [
        "s",
        ","
      ],
      [
        "s",
        "o"
      ],
      [
        "t",
        "a"
      ],
      [
        "t",
        "y"
      ],
      [
        "t",
        "ë"
      ],
      [
        "t",
        "ed"
      ],
      [
        "t",
        "u'ug"
      ],
      [
        "t",
        "ps"
      ],
      [
        "u",
        "d"
      ],
      [
        "v",
        "ed"
      ],
      [
        "w",
        ","
      ],
      [
        "w",
        "j"
      ],
      [
        "x",
        "u̶"
      ],
      [
        "y",
        "gyu̶xy"
      ],
      [
        "z",
        "a"
      ],
      [
        "z",
        "awa"
      ],
      [
        "Ë",
        "m"
      ],
      [
        "á",
        "p"
      ],
      [
        "é",
        "."
      ],
      [
        "é",
        "hnig"
      ],
      [
        "ñ",
        "o"
      ],
      [
        "ó",
        "n"
      ],
      [
        "ŕ",
        "ko"
      ],
      [
        "ũ",
        "amu"
      ],
      [
        "ɔ",
        "ɔ"
      ],
      [
        "▁",
        "ed"
      ],
      [
        "▁",
        "uk"
      ],
      [
        "▁a",
        "o"
      ],
      [
        "▁a",
        "re"
      ],
      [
        "▁a",
        "hu"
      ],
      [
        "▁n",
        "m"
      ],
      [
        "▁n",
        "ight"
      ],
      [
        "▁n",
        "ews"
      ],
      [
        "▁n",
        "íi"
      ],
      [
        "▁n",
        "dijy"
      ],
      [
        "▁k",
        "er"
      ],
      [
        "▁k",
        "as"
      ],
      [
        "▁k",
        "el"
      ],
      [
        "▁k",
        "uk"
      ],
      [
        "▁k",
        "ɔ̀"
      ],
      [
        "▁k",
        "ɔ́"
      ],
      [
        "▁k",
        "anakai"
      ],
      [
        "▁k",
        "éhnig"
      ],
      [
        "▁m",
        "ë"
      ],
      [
        "▁m",
        "in"
      ],
      [
        "▁m",
        "ar"
      ],
      [
        "▁m",
        "ad"
      ],
      [
        "▁m",
        "ir"
      ],
      [
        "▁m",
        "an."
      ],
      [
        "▁m",
        "u̶'it"
      ],
      [
        "▁m",
        "uŕ"
      ],
      [
        "▁m",
        "'ij"
      ],
      [
        "▁t",
        "y"
      ],
      [
        "▁t",
        "al"
      ],
      [
        "▁t",
        "ut"
      ],
      [
        "▁t",
        "ap"
      ],
      [
        "▁t",
        "ake"
      ],
      [
        "an",
        "a"
      ],
      [
        "an",
        "d"
      ],
      [
        "an",
        "w"
      ],
      [
        "an",
        "am"
      ],
      [
        "▁d",
        "ü"
      ],
      [
        "▁d",
        "ri"
      ],
      [
        "▁d",
        "ay"
      ],
      [
        "▁d",
        "ro"
      ],
      [
        "▁j",
        "e"
      ],
      [
        "▁j",
        "a'"
      ],
      [
        "▁j",
        "ab"
      ],
      [
        "▁j",
        "our"
      ],
      [
        "▁o",
        "m"
      ],
      [
        "▁y",
        "am"
      ],
      [
        "▁y",
        "ajt"
      ],
      [
        "▁y",
        "aa"
      ],
      [
        "▁y",
        "ɛ̀ɛ"
      ],
      [
        "▁y",
        "ini"
      ],
      [
        "in",
        "."
      ],
      [
        "in",
        "s"
      ],
      [
        "in",
        "dz"
      ],
      [
        "in",
        "yo"
      ],
      [
        "in",
        "manah"
      ],
      [
        "ak",
        "u"
      ],
      [
        "ak",
        "ë"
      ],
      [
        "wa",
        "'"
      ],
      [
        "u̶x",
        "pu̶"
      ],
      [
        "▁b",
        "eko"
      ],
      [
        "ay",
        "ɛl"
      ],
      [
        "▁s",
        "er"
      ],
      [
        "▁s",
        "im"
      ],
      [
        "▁s",
        "om"
      ],
      [
        "▁s",
        "ans"
      ],
      [
        "▁s",
        "akri"
      ],
      [
        "▁w",
        "ɔ"
      ],
      [
        "▁w",
        "ind"
      ],
      [
        "▁w",
        "ould"
      ],
      [
        "▁w",
        "ell"
      ],
      [
        "ug",
        "u̶u̶y"
      ],
      [
        "ag",
        "."
      ],
      [
        "ag",
        "e"
      ],
      [
        "ar",
        ","
      ],
      [
        "ar",
        "et"
      ],
      [
        "ar",
        "ann"
      ],
      [
        "er",
        "f"
      ],
      [
        "er",
        "ing"
      ],
      [
        "▁p",
        "l"
      ],
      [
        "▁p",
        "eko"
      ],
      [
        "▁p",
        "eru̶"
      ],
      [
        "▁p",
        "hone"
      ],
      [
        "▁p",
        "u̶n"
      ],
      [
        "on",
        "o"
      ],
      [
        "ew",
        "it"
      ],
      [
        "yu̶",
        "u̶y"
      ],
      [
        "un",
        "ë"
      ],
      [
        "un",
        "ny"
      ],
      [
        "ig",
        "."
      ],
      [
        "or",
        "ld"
      ],
      [
        "es",
        "si"
      ],
      [
        "▁an",
        "y"
      ],
      [
        "▁an",
        "ig"
      ],
      [
        "▁an",
        "uq"
      ],
      [
        "▁an",
        "lag."
      ],
      [
        "as",
        ","
      ],
      [
        "as",
        "s"
      ],
      [
        "at",
        "am"
      ],
      [
        "at",
        "o,"
      ],
      [
        "u̶u̶",
        "g"
      ],
      [
        "▁à",
        "á"
      ],
      [
        "▁à",
        "nɛ"
      ],
      [
        "hi",
        "o"
      ],
      [
        "▁f",
        "ag"
      ],
      [
        "▁f",
        "lick"
      ],
      [
        "▁f",
        "irst"
      ],
      [
        "▁f",
        "ollow"
      ],
      [
        "▁r",
        "u"
      ],
      [
        "▁r",
        "ë"
      ],
      [
        "ad",
        "io"
      ],
      [
        "oo",
        "d"
      ],
      [
        "oo",
        "m"
      ],
      [
        "▁ajku̶xy",
        "u̶ñ,"
      ],
      [
        "▁ajku̶xy",
        "u̶ñ."
      ],
      [
        "it",
        "i"
      ],
      [
        "it",
        "y"
      ],
      [
        "it",
        "or"
      ],
      [
        "us",
        "t"
      ],
      [
        "et",
        "tu"
      ],
      [
        ".\n",
        "3"
      ],
      [
        "▁J",
        "n"
      ],
      [
        "▁N",
        "g"
      ],
      [
        "▁N",
        "é"
      ],
      [
        "▁N",
        "am\n1"
      ],
      [
        "eg",
        ","
      ],
      [
        "▁ole",
        "le"
      ],
      [
        "▁ɓ",
        "ì"
      ],
      [
        "▁ɓ",
        "um"
      ],
      [
        "di",
        "p"
      ],
      [
        "ir",
        "ayɛl"
      ],
      [
        "▁Y",
        "os"
      ],
      [
        "▁Y",
        "esus"
      ],
      [
        "▁Y",
        "udia"
      ],
      [
        "▁Y",
        "akɔɓ"
      ],
      [
        "▁in",
        "tervi"
      ],
      [
        "▁A",
        "r"
      ],
      [
        "▁K",
        "an"
      ],
      [
        "▁K",
        "arann"
      ],
      [
        "el",
        "ë"
      ],
      [
        "▁wa",
        "deenhi"
      ],
      [
        "▁ɗ",
        "ii"
      ],
      [
        "▁D",
        "a"
      ],
      [
        "▁D",
        "o"
      ],
      [
        "▁D",
        "ewit"
      ],
      [
        "▁ka",
        "vas"
      ],
      [
        "om",
        "e"
      ],
      [
        "▁1",
        "4"
      ],
      [
        "▁1",
        "8"
      ],
      [
        "u̶d",
        "yaakku̶xy"
      ],
      [
        "os",
        "t"
      ],
      [
        "ab",
        "u̶"
      ],
      [
        "ab",
        "ra"
      ],
      [
        "ek",
        "a"
      ],
      [
        "lag",
        "wa"
      ],
      [
        "lag",
        "ri"
      ],
      [
        "tu̶",
        "m"
      ],
      [
        "▁ch",
        "am"
      ],
      [
        "▁ch",
        "aag"
      ],
      [
        "ya",
        "ay"
      ],
      [
        "u̶'",
        "u̶"
      ],
      [
        "u̶'",
        "u̶w"
      ],
      [
        "▁do",
        "ka"
      ],
      [
        "▁u",
        "p"
      ],
      [
        "▁ku",
        "yaꞋ"
      ],
      [
        "▁ku",
        "ja'ay"
      ],
      [
        "▁B",
        "o"
      ],
      [
        "▁B",
        "aɓ"
      ],
      [
        "em",
        "akawa"
      ],
      [
        "id",
        "e"
      ],
      [
        "id",
        "zawa"
      ],
      [
        "▁y'",
        "o'o"
      ],
      [
        "od",
        "ali"
      ],
      [
        "▁h",
        "ũ"
      ],
      [
        "▁h",
        "ay"
      ],
      [
        "u̶u̶y",
        "ñu̶"
      ],
      [
        "▁G",
        "ali"
      ],
      [
        "▁C",
        "le"
      ],
      [
        "▁C",
        "hi"
      ],
      [
        "▁C",
        "risto"
      ],
      [
        "u̶ch",
        "u̶ñ"
      ],
      [
        "▁L",
        "oug"
      ],
      [
        "▁“",
        "K"
      ],
      [
        "▁I",
        "n"
      ],
      [
        "▁I",
        "jip"
      ],
      [
        "▁lɛ",
        ","
      ],
      [
        "▁lɛ",
        ":"
      ],
      [
        "is",
        "t"
      ],
      [
        "is",
        "u"
      ],
      [
        "is",
        "ah"
      ],
      [
        "▁R",
        "o"
      ],
      [
        "u̶m",
        "u̶"
      ],
      [
        "rig",
        "ht"
      ],
      [
        "▁myu̶",
        "gu'ug"
      ],
      [
        "aay",
        "gyu̶xy"
      ],
      [
        "ht",
        "tps"
      ],
      [
        "▁3",
        "1"
      ],
      [
        "▁x",
        "yaj"
      ],
      [
        "u̶g",
        "yii"
      ],
      [
        "u̶g",
        "u̶u̶g"
      ],
      [
        "▁men",
        "to,"
      ],
      [
        "nu̶",
        "kxy"
      ],
      [
        "▁jy",
        "ajty"
      ],
      [
        "▁jy",
        "a't"
      ],
      [
        "▁yo",
        "u"
      ],
      [
        "▁bul",
        "uk"
      ],
      [
        "▁bul",
        "lëm"
      ],
      [
        "ɛ̀n",
        "gà"
      ],
      [
        "ans",
        "hi"
      ],
      [
        "▁Is",
        "irayɛl"
      ],
      [
        "il",
        "on"
      ],
      [
        "▁O",
        "kkë"
      ],
      [
        "▁O",
        "rder"
      ],
      [
        "▁ke",
        "h"
      ],
      [
        "▁ke",
        "inmanah"
      ],
      [
        "▁ɗa̱",
        ","
      ],
      [
        "▁nus",
        "gur"
      ],
      [
        "▁ka̱",
        "ta̱"
      ],
      [
        ".\n1",
        "7"
      ],
      [
        "ku̶x",
        "nu̶"
      ],
      [
        "ɛl",
        ";"
      ],
      [
        "▁P",
        "lay"
      ],
      [
        "▁W",
        "orld"
      ],
      [
        "▁mo",
        "ur"
      ],
      [
        "▁dim",
        "dim"
      ],
      [
        "▁ba",
        "ck"
      ],
      [
        "▁ba",
        "ci"
      ],
      [
        "▁ba",
        "ŋì"
      ],
      [
        "adz",
        "o"
      ],
      [
        "▁de",
        "f"
      ],
      [
        "▁si",
        "la"
      ],
      [
        "jy",
        "a'ay"
      ],
      [
        "▁mem",
        "an"
      ],
      [
        "▁ja'ay",
        "my"
      ],
      [
        "ewew",
        ","
      ],
      [
        "▁ij",
        "xy"
      ],
      [
        "▁is",
        "anig"
      ],
      [
        "u'u",
        "bu̶jk"
      ],
      [
        "▁201",
        "2"
      ],
      [
        "mu̶d",
        "mu̶dyaak"
      ],
      [
        "▁ar",
        "w"
      ],
      [
        "▁jut",
        "u̶ñ,"
      ],
      [
        "▁ya",
        "Ꞌan"
      ],
      [
        "▁ro",
        "ja"
      ],
      [
        "▁gadd",
        "ë"
      ],
      [
        "▁gadd",
        "ëk"
      ],
      [
        "aak",
        "u̶"
      ],
      [
        "win",
        "m"
      ],
      [
        "▁may",
        "un"
      ],
      [
        "▁toku",
        "."
      ],
      [
        "▁ingë",
        "la"
      ],
      [
        "▁waw",
        "tu"
      ],
      [
        "▁witt",
        "ew"
      ],
      [
        "mat",
        "s"
      ],
      [
        "▁u̶x",
        "kajp"
      ],
      [
        "▁kp",
        "amu"
      ],
      [
        "▁mu̶",
        "k"
      ],
      [
        "▁gb",
        "àà"
      ],
      [
        "▁ameg",
        "wa"
      ],
      [
        "▁Ch",
        "annel"
      ],
      [
        "▁stor",
        "m"
      ],
      [
        "▁nwngthangmwn",
        "ha"
      ],
      [
        "▁tornado",
        "es"
      ],
      [
        "Je̱'",
        "e̱"
      ],
      [
        "tɛ̀",
        "ɗ"
      ],
      [
        "▁aj",
        "tu̶m"
      ],
      [
        "▁asi",
        "lag"
      ],
      [
        "▁jyu",
        "ugypyú̶"
      ],
      [
        "▁whe",
        "re"
      ],
      [
        "▁koŕ",
        "ewa"
      ],
      [
        "▁ɗy",
        "em"
      ],
      [
        "gyu̶x",
        "nu̶"
      ],
      [
        "▁ewlag",
        "wari"
      ],
      [
        "▁wyimbij",
        "t"
      ],
      [
        "▁ñayyajni'igu̶xu̶'",
        "u̶gyii"
      ],
      [
        "Danah",
        "as"
      ],
      [
        "cri",
        "be"
      ],
      [
        "rë",
        "p"
      ],
      [
        "yal",
        "ɛ̀n"
      ],
      [
        "ìɓ",
        "an"
      ],
      [
        "▁ǹ",
        "tɛ̀ɗ"
      ],
      [
        "▁aaj",
        "ur"
      ],
      [
        "▁ngo",
        "k"
      ],
      [
        "▁keg",
        "eŕ"
      ],
      [
        "▁mid",
        "dle"
      ],
      [
        "e̱j",
        "tz"
      ],
      [
        "▁jii",
        "by"
      ],
      [
        "▁yal",
        "à"
      ],
      [
        "a̱n",
        "ka̱"
      ],
      [
        "▁kout",
        "or"
      ],
      [
        "▁wap",
        "idzawa"
      ],
      [
        "▁bulb",
        "s"
      ],
      [
        "▁ex",
        "p"
      ],
      [
        "▁nime̱tz",
        "kpu̶"
      ],
      [
        "▁y'ayuuknajtzkapxu̶u̶y",
        "byu̶du̶jk"
      ],
      [
        "bir",
        "aham"
      ],
      [
        "cí",
        "pul"
      ],
      [
        "▁kel",
        "ime"
      ],
      [
        "▁mad",
        "e"
      ],
      [
        "▁muŕ",
        "dig"
      ],
      [
        "▁m'ij",
        "xku̶xy"
      ],
      [
        "▁dro",
        "pped"
      ],
      [
        "▁jour",
        "nal"
      ],
      [
        "▁yini",
        "ǹ"
      ],
      [
        "▁sans",
        "an"
      ],
      [
        "▁Karann",
        "ah"
      ],
      [
        "▁kavas",
        "a"
      ],
      [
        "▁chaag",
        "oh"
      ],
      [
        "u̶'u̶w",
        "u̶ch"
      ],
      [
        "▁kuyaꞋ",
        "an"
      ],
      [
        "▁Baɓ",
        "ilon"
      ],
      [
        "▁Loug",
        "wa"
      ],
      [
        "https",
        "://"
      ],
      [
        "▁baŋì",
        ","
      ],
      [
        "▁ja'aymy",
        "e̱jtz"
      ],
      [
        "▁wapidzawa",
        "aka"
      ],
      [
        "cípul",
        "otu̶jk"
      ],
      [
        "\n",
        "A"
      ],
      [
        "\n",
        "L"
      ],
      [
        "\n",
        "W"
      ],
      [
        "!",
        "!"
      ],
      [
        "!",
        "\nI"
      ],
      [
        "#",
        "24"
      ],
      [
        "'",
        "on"
      ],
      [
        ")",
        "\n1"
      ],
      [
        "-",
        "g"
      ],
      [
        "-",
        "ɓ"
      ],
      [
        "-",
        "st"
      ],
      [
        ".",
        "4"
      ],
      [
        ".",
        "or"
      ],
      [
        "0",
        ";"
      ],
      [
        "0",
        "A"
      ],
      [
        "0",
        "Gam"
      ],
      [
        "2",
        "A"
      ],
      [
        "3",
        "9"
      ],
      [
        "4",
        "-"
      ],
      [
        "5",
        "Nug"
      ],
      [
        "6",
        "Maria"
      ],
      [
        "8",
        ";"
      ],
      [
        "9",
        "-2"
      ],
      [
        "@",
        "e"
      ],
      [
        "A",
        "H"
      ],
      [
        "B",
        "ü"
      ],
      [
        "B",
        "ul"
      ],
      [
        "B",
        "odo"
      ],
      [
        "C",
        "artoon"
      ],
      [
        "F",
        "unny"
      ],
      [
        "G",
        "e"
      ],
      [
        "G",
        "ë"
      ],
      [
        "H",
        "erod"
      ],
      [
        "I",
        "N"
      ],
      [
        "J",
        "anch"
      ],
      [
        "M",
        "iich"
      ],
      [
        "N",
        "ir"
      ],
      [
        "O",
        "kë"
      ],
      [
        "O",
        "go"
      ],
      [
        "P",
        "ro"
      ],
      [
        "P",
        "hone"
      ],
      [
        "Q",
        "e"
      ],
      [
        "R",
        "ay"
      ],
      [
        "S",
        "al"
      ],
      [
        "S",
        "akarai"
      ],
      [
        "T",
        "h"
      ],
      [
        "Y",
        "o"
      ],
      [
        "Y",
        "ɛ̀ɛ"
      ],
      [
        "a",
        "ŋ"
      ],
      [
        "a",
        "le"
      ],
      [
        "a",
        "it"
      ],
      [
        "a",
        "anch"
      ],
      [
        "a",
        "ce"
      ],
      [
        "a",
        "u."
      ],
      [
        "b",
        "ur"
      ],
      [
        "b",
        "yu̶ñ"
      ],
      [
        "b",
        "ani"
      ],
      [
        "b",
        "ook"
      ],
      [
        "b",
        "lai"
      ],
      [
        "c",
        "c"
      ],
      [
        "d",
        "a"
      ],
      [
        "d",
        "y"
      ],
      [
        "d",
        "ew"
      ],
      [
        "d",
        "yu̶"
      ],
      [
        "d",
        "an."
      ],
      [
        "d",
        "u̶p"
      ],
      [
        "d",
        "u̶gu̶u̶g"
      ],
      [
        "e",
        "y"
      ],
      [
        "e",
        "et"
      ],
      [
        "e",
        ".\n"
      ],
      [
        "f",
        "o"
      ],
      [
        "f",
        "ò"
      ],
      [
        "f",
        "er"
      ],
      [
        "f",
        "il"
      ],
      [
        "f",
        "ter"
      ],
      [
        "f",
        "uu"
      ],
      [
        "g",
        "am"
      ],
      [
        "g",
        "le"
      ],
      [
        "g",
        "a'"
      ],
      [
        "g",
        "ram"
      ],
      [
        "h",
        "ay"
      ],
      [
        "h",
        "at"
      ],
      [
        "h",
        "ani"
      ],
      [
        "i",
        "\n"
      ],
      [
        "i",
        ","
      ],
      [
        "i",
        "c"
      ],
      [
        "i",
        "x"
      ],
      [
        "i",
        "y"
      ],
      [
        "i",
        "è"
      ],
      [
        "i",
        "ri"
      ],
      [
        "j",
        "u̶ch"
      ],
      [
        "j",
        "aty"
      ],
      [
        "j",
        "u̶u̶yñu̶"
      ],
      [
        "k",
        "u̶"
      ],
      [
        "k",
        "ur"
      ],
      [
        "k",
        "ar"
      ],
      [
        "k",
        "ed"
      ],
      [
        "k",
        "uk"
      ],
      [
        "k",
        "pa"
      ],
      [
        "k",
        "ɛ̀n"
      ],
      [
        "k",
        "a,"
      ],
      [
        "k",
        "'ajt"
      ],
      [
        "l",
        "in"
      ],
      [
        "l",
        "ar"
      ],
      [
        "l",
        "a̱"
      ],
      [
        "l",
        "di"
      ],
      [
        "l",
        "én"
      ],
      [
        "l",
        "ight"
      ],
      [
        "l",
        "yud"
      ],
      [
        "m",
        "s"
      ],
      [
        "m",
        "nu̶"
      ],
      [
        "m",
        "ɛ̀n"
      ],
      [
        "m",
        "ɔn"
      ],
      [
        "m",
        "yu̶'"
      ],
      [
        "m",
        "end"
      ],
      [
        "n",
        "é"
      ],
      [
        "n",
        "ak"
      ],
      [
        "n",
        "ar"
      ],
      [
        "n",
        "es"
      ],
      [
        "n",
        "ed"
      ],
      [
        "n",
        "a'ay"
      ],
      [
        "n",
        "akri"
      ],
      [
        "n",
        "ú̶kx"
      ],
      [
        "o",
        "f"
      ],
      [
        "o",
        "p"
      ],
      [
        "o",
        "ed"
      ],
      [
        "o",
        "is"
      ],
      [
        "o",
        "und"
      ],
      [
        "o",
        "uku"
      ],
      [
        "p",
        "un"
      ],
      [
        "p",
        "u̶ñ"
      ],
      [
        "p",
        "u̶d"
      ],
      [
        "p",
        "oh"
      ],
      [
        "p",
        "eri"
      ],
      [
        "r",
        "m"
      ],
      [
        "r",
        "a̱"
      ],
      [
        "s",
        "ir"
      ],
      [
        "s",
        "a,"
      ],
      [
        "s",
        "cribe"
      ],
      [
        "s",
        "cípulotu̶jk"
      ],
      [
        "t",
        "p"
      ],
      [
        "t",
        "è"
      ],
      [
        "t",
        "an"
      ],
      [
        "t",
        "u̶ñ"
      ],
      [
        "t",
        "ku̶xy"
      ],
      [
        "t",
        "ro"
      ],
      [
        "t",
        "aaygyu̶xy"
      ],
      [
        "u",
        ","
      ],
      [
        "u",
        "e"
      ],
      [
        "u",
        "ɗ"
      ],
      [
        "u",
        "ch"
      ],
      [
        "u",
        "es"
      ],
      [
        "u",
        "ut"
      ],
      [
        "u",
        "ck"
      ],
      [
        "u",
        "ary"
      ],
      [
        "v",
        "on"
      ],
      [
        "w",
        "."
      ],
      [
        "w",
        "u̶"
      ],
      [
        "w",
        "u̶d"
      ],
      [
        "w",
        "id"
      ],
      [
        "x",
        "am"
      ],
      [
        "y",
        ","
      ],
      [
        "y",
        "a̱"
      ],
      [
        "y",
        "or"
      ],
      [
        "y",
        "ed"
      ],
      [
        "y",
        "myu̶'"
      ],
      [
        "z",
        "p"
      ],
      [
        "z",
        "al"
      ],
      [
        "z",
        "ek"
      ],
      [
        "z",
        "ɔɔ"
      ],
      [
        "è",
        "m"
      ],
      [
        "é",
        "g"
      ],
      [
        "é",
        "s"
      ],
      [
        "é",
        "w"
      ],
      [
        "ì",
        "tom"
      ],
      [
        "ñ",
        "u̶maay"
      ],
      [
        "ò",
        "ò"
      ],
      [
        "ŕ",
        "elle"
      ],
      [
        "ɓ",
        "ɛɛ"
      ],
      [
        "ɔ",
        "m"
      ],
      [
        "ɔ",
        "ŋ"
      ],
      [
        "ɗ",
        "u"
      ],
      [
        "ɛ",
        ":"
      ],
      [
        "ɛ",
        "s"
      ],
      [
        "̀",
        "n"
      ],
      [
        "▁",
        "\""
      ],
      [
        "▁",
        "9"
      ],
      [
        "▁",
        ":"
      ],
      [
        "▁",
        "U"
      ],
      [
        "▁",
        "V"
      ],
      [
        "▁",
        "ŋ"
      ],
      [
        "▁",
        "um"
      ],
      [
        "▁",
        "ɛ̀"
      ],
      [
        "▁",
        "ul"
      ],
      [
        "▁",
        "eŕ"
      ],
      [
        "▁",
        "Ëm"
      ],
      [
        "Ꞌ",
        "un"
      ],
      [
        "u̶",
        "kx"
      ],
      [
        "▁a",
        "w"
      ],
      [
        "▁a",
        "an"
      ],
      [
        "▁a",
        "yu"
      ],
      [
        "▁a",
        "ŕi"
      ],
      [
        "▁a",
        "fter"
      ],
      [
        "▁n",
        "'"
      ],
      [
        "▁n",
        "ak"
      ],
      [
        "▁n",
        "ew"
      ],
      [
        "▁n",
        "ig"
      ],
      [
        "▁n",
        "at"
      ],
      [
        "▁n",
        "ni"
      ],
      [
        "▁n",
        "ago"
      ],
      [
        "▁k",
        "h"
      ],
      [
        "▁k",
        "ug"
      ],
      [
        "▁k",
        "on"
      ],
      [
        "▁k",
        "ew"
      ],
      [
        "▁k",
        "ɛ̀"
      ],
      [
        "▁k",
        "wn"
      ],
      [
        "▁k",
        "ii"
      ],
      [
        "▁k",
        "yu"
      ],
      [
        "▁k",
        "ep"
      ],
      [
        "▁k",
        "ú̶"
      ],
      [
        "▁k",
        "il"
      ],
      [
        "▁k",
        "ook"
      ],
      [
        "▁k",
        "yu̶'"
      ],
      [
        "▁m",
        "d"
      ],
      [
        "▁m",
        "i"
      ],
      [
        "▁m",
        "y"
      ],
      [
        "▁m",
        "ak"
      ],
      [
        "▁m",
        "ag"
      ],
      [
        "▁m",
        "on"
      ],
      [
        "▁m",
        "un"
      ],
      [
        "▁m",
        "at"
      ],
      [
        "▁m",
        "al"
      ],
      [
        "▁m",
        "ut"
      ],
      [
        "▁m",
        "én"
      ],
      [
        "▁m",
        "ang"
      ],
      [
        "▁m",
        "ake"
      ],
      [
        "▁m",
        "e̱tz"
      ],
      [
        "▁m",
        "wj"
      ],
      [
        "▁m",
        "ust"
      ],
      [
        "▁m",
        "ga'"
      ],
      [
        "▁t",
        "ë"
      ],
      [
        "▁t",
        "ak"
      ],
      [
        "▁t",
        "u̶u̶"
      ],
      [
        "▁t",
        "um"
      ],
      [
        "▁t",
        "ook"
      ],
      [
        "▁t",
        "u'ug"
      ],
      [
        "▁t",
        "ala"
      ],
      [
        "▁t",
        "ime"
      ],
      [
        "e̱",
        "jk"
      ],
      [
        "an",
        "ë"
      ],
      [
        "an",
        ".\n"
      ],
      [
        "an",
        "ai"
      ],
      [
        "▁d",
        "in"
      ],
      [
        "▁d",
        "ag"
      ],
      [
        "▁d",
        "or"
      ],
      [
        "▁d",
        "al"
      ],
      [
        "▁d",
        "yi"
      ],
      [
        "▁d",
        "ir"
      ],
      [
        "▁d",
        "ang"
      ],
      [
        "▁d",
        "ec"
      ],
      [
        "▁d",
        "ook"
      ],
      [
        "▁d",
        "ewew"
      ],
      [
        "▁d",
        "uku"
      ],
      [
        "▁j",
        "ay"
      ],
      [
        "▁j",
        "oot"
      ],
      [
        "▁j",
        "opy"
      ],
      [
        "▁o",
        "o"
      ],
      [
        "▁o",
        "ŕ"
      ],
      [
        "▁o",
        "ur"
      ],
      [
        "▁o",
        "un"
      ],
      [
        "▁o",
        "'o"
      ],
      [
        "▁o",
        "ver"
      ],
      [
        "▁o",
        "gar"
      ],
      [
        "▁y",
        "e"
      ],
      [
        "▁y",
        "ë"
      ],
      [
        "▁y",
        "ì"
      ],
      [
        "▁y",
        "on"
      ],
      [
        "▁y",
        "ari"
      ],
      [
        "▁y",
        "eg."
      ],
      [
        "▁y",
        "ɔ́"
      ],
      [
        "in",
        ","
      ],
      [
        "in",
        "a"
      ],
      [
        "in",
        "am"
      ],
      [
        "in",
        "ad"
      ],
      [
        "ak",
        "im"
      ],
      [
        "ak",
        "ha"
      ],
      [
        "ak",
        "hetti"
      ],
      [
        "wa",
        "y"
      ],
      [
        "wa",
        "à"
      ],
      [
        "ri",
        "c"
      ],
      [
        "▁b",
        "w"
      ],
      [
        "▁b",
        "ar"
      ],
      [
        "▁b",
        "an."
      ],
      [
        "▁b",
        "eg."
      ],
      [
        "▁b",
        "ɔ̀"
      ],
      [
        "▁b",
        "ure"
      ],
      [
        "▁b",
        "ũamu"
      ],
      [
        "ay",
        "a"
      ],
      [
        "ay",
        "ii"
      ],
      [
        "he",
        "l"
      ],
      [
        "he",
        "wa"
      ],
      [
        "▁g",
        "on"
      ],
      [
        "▁g",
        "éri"
      ],
      [
        "▁s",
        "m"
      ],
      [
        "▁s",
        "p"
      ],
      [
        "▁s",
        "é"
      ],
      [
        "▁s",
        "ig"
      ],
      [
        "▁s",
        "hi"
      ],
      [
        "▁s",
        "et"
      ],
      [
        "▁s",
        "up"
      ],
      [
        "▁s",
        "eg."
      ],
      [
        "▁s",
        "ec"
      ],
      [
        "▁s",
        "inyo"
      ],
      [
        "▁s",
        "a̱nka̱"
      ],
      [
        "am",
        "u̶"
      ],
      [
        "le",
        "n"
      ],
      [
        "le",
        "r"
      ],
      [
        "le",
        "w"
      ],
      [
        "le",
        "ya"
      ],
      [
        "le",
        "ase"
      ],
      [
        "▁w",
        "ig"
      ],
      [
        "▁w",
        "ake"
      ],
      [
        "jk",
        "y"
      ],
      [
        "▁l",
        "'"
      ],
      [
        "ug",
        "h"
      ],
      [
        "ug",
        "wa"
      ],
      [
        "ur",
        "ch"
      ],
      [
        "ag",
        "wn"
      ],
      [
        "aj",
        "ar"
      ],
      [
        "ar",
        "m"
      ],
      [
        "ar",
        "o"
      ],
      [
        "ar",
        "í"
      ],
      [
        "ar",
        "ak"
      ],
      [
        "ar",
        "ɛs"
      ],
      [
        "er",
        "s"
      ],
      [
        "er",
        "ous"
      ],
      [
        "er",
        "ved"
      ],
      [
        "en",
        "lag"
      ],
      [
        "▁p",
        "r"
      ],
      [
        "▁p",
        "ri"
      ],
      [
        "▁p",
        "hi"
      ],
      [
        "▁p",
        "os"
      ],
      [
        "▁p",
        "la"
      ],
      [
        "▁p",
        "a,"
      ],
      [
        "▁p",
        "ow"
      ],
      [
        "▁p",
        "eksi"
      ],
      [
        "▁p",
        "akë"
      ],
      [
        "▁p",
        "erf"
      ],
      [
        "▁p",
        "lease"
      ],
      [
        "a̱",
        "ɗa̱"
      ],
      [
        "on",
        "u"
      ],
      [
        "on",
        "yas"
      ],
      [
        "ew",
        ","
      ],
      [
        "yu̶",
        "d"
      ],
      [
        "or",
        "oɓ"
      ],
      [
        "or",
        "gi"
      ],
      [
        "or",
        "mats"
      ],
      [
        "es",
        "."
      ],
      [
        "es",
        "erved"
      ],
      [
        "▁an",
        "ar"
      ],
      [
        "▁an",
        "or"
      ],
      [
        "as",
        "ter"
      ],
      [
        "as",
        "ɔn"
      ],
      [
        "as",
        "ong"
      ],
      [
        "as",
        "aret"
      ],
      [
        "as",
        "i\n"
      ],
      [
        "▁q",
        "ouku"
      ],
      [
        "at",
        "e"
      ],
      [
        "at",
        "h"
      ],
      [
        "at",
        "o"
      ],
      [
        "at",
        "aŋ"
      ],
      [
        "u̶u̶",
        "wu̶"
      ],
      [
        "al",
        "gar"
      ],
      [
        "▁i",
        "m"
      ],
      [
        "▁i",
        "è"
      ],
      [
        "▁i",
        "Phone"
      ],
      [
        "ko",
        ","
      ],
      [
        "ko",
        "u"
      ],
      [
        "▁T",
        "io"
      ],
      [
        "▁T",
        "hat"
      ],
      [
        "▁T",
        "ues"
      ],
      [
        "▁f",
        "e"
      ],
      [
        "▁f",
        "è"
      ],
      [
        "▁f",
        "ɛl"
      ],
      [
        "▁f",
        "light"
      ],
      [
        "▁f",
        "arm"
      ],
      [
        "▁r",
        "eg"
      ],
      [
        "▁r",
        "ec"
      ],
      [
        "▁r",
        "ain"
      ],
      [
        "▁r",
        "òò"
      ],
      [
        "ad",
        "ed"
      ],
      [
        "ad",
        "anshi"
      ],
      [
        "▁qe",
        ","
      ],
      [
        "oo",
        "l"
      ],
      [
        "oo",
        "pa"
      ],
      [
        "oo",
        "gu̶xy"
      ],
      [
        "oo",
        "ygyu̶xy"
      ],
      [
        "oo",
        "gle"
      ],
      [
        "▁the",
        "n"
      ],
      [
        "▁ajku̶xy",
        ";"
      ],
      [
        "im",
        "s"
      ],
      [
        "im",
        "ary"
      ],
      [
        "im",
        "ymyu̶'"
      ],
      [
        "it",
        "yu̶"
      ],
      [
        "it",
        "ep"
      ],
      [
        "it",
        "ɛn"
      ],
      [
        "us",
        ","
      ],
      [
        "▁na",
        ":"
      ],
      [
        "▁na",
        "ax"
      ],
      [
        "li",
        "ko"
      ],
      [
        "▁ma",
        "abu̶"
      ],
      [
        "▁ko",
        "u"
      ],
      [
        "▁ko",
        "kp"
      ],
      [
        ".\n",
        "4"
      ],
      [
        ".\n",
        "K"
      ],
      [
        ".\n",
        "L"
      ],
      [
        ".\n",
        "N"
      ],
      [
        ".\n",
        "“"
      ],
      [
        ".\n",
        "Ray"
      ],
      [
        "▁J",
        "e̱'"
      ],
      [
        "▁J",
        "os"
      ],
      [
        "▁J",
        "wng"
      ],
      [
        "▁J",
        "udia"
      ],
      [
        "▁J",
        "ud"
      ],
      [
        "▁J",
        "AH"
      ],
      [
        "▁N",
        "ije̱'"
      ],
      [
        "▁N",
        "ajar"
      ],
      [
        "▁N",
        "asaret"
      ],
      [
        "eg",
        "a"
      ],
      [
        "u'",
        "um"
      ],
      [
        "u'",
        "aam"
      ],
      [
        "▁ɓ",
        "ɛ̀"
      ],
      [
        "▁ɓ",
        "ii"
      ],
      [
        "▁to",
        "."
      ],
      [
        "▁to",
        "la"
      ],
      [
        "▁Y",
        "i"
      ],
      [
        "▁Y",
        "ek"
      ],
      [
        "▁in",
        "do"
      ],
      [
        "▁in",
        "kur"
      ],
      [
        "ut",
        "ion"
      ],
      [
        "▁A",
        "g"
      ],
      [
        "▁A",
        "s"
      ],
      [
        "▁A",
        "ll"
      ],
      [
        "▁A",
        "me"
      ],
      [
        "▁A",
        "yin"
      ],
      [
        "▁A",
        "br"
      ],
      [
        "▁A",
        "biraham"
      ],
      [
        "▁K",
        "oulli"
      ],
      [
        "▁K",
        "asi\n"
      ],
      [
        "▁K",
        "adanshi"
      ],
      [
        "▁K",
        "itɛn"
      ],
      [
        "▁2",
        "2"
      ],
      [
        "▁2",
        "3"
      ],
      [
        "▁2",
        "5"
      ],
      [
        "▁2",
        "9"
      ],
      [
        "▁2",
        "A"
      ],
      [
        "▁c",
        "he"
      ],
      [
        "▁c",
        "am"
      ],
      [
        "▁c",
        "om"
      ],
      [
        "▁c",
        "àà"
      ],
      [
        "▁c",
        "ould"
      ],
      [
        "▁c",
        "ool"
      ],
      [
        "▁wa",
        "tt"
      ],
      [
        "▁wa",
        "gam"
      ],
      [
        "▁wa",
        "rm"
      ],
      [
        "▁ɗ",
        "aɗ"
      ],
      [
        "▁ëm",
        ","
      ],
      [
        "▁ëm",
        "bë"
      ],
      [
        "▁ëm",
        "nam"
      ],
      [
        "▁D",
        "ig"
      ],
      [
        "▁D",
        "anah"
      ],
      [
        "▁ka",
        "a"
      ],
      [
        "▁ka",
        "w"
      ],
      [
        "▁ka",
        "ŕ"
      ],
      [
        "▁ka",
        "ako"
      ],
      [
        "▁ka",
        "pp"
      ],
      [
        "om",
        "mend"
      ],
      [
        "om",
        "ɔŋ"
      ],
      [
        "▁1",
        "3"
      ],
      [
        "▁1",
        "7"
      ],
      [
        "ul",
        "a"
      ],
      [
        "▁S",
        "an"
      ],
      [
        "▁S",
        "up"
      ],
      [
        "▁S",
        "ub"
      ],
      [
        "▁S",
        "aɗ"
      ],
      [
        "os",
        "e"
      ],
      [
        "os",
        "o"
      ],
      [
        "ek",
        "e"
      ],
      [
        "ku̶xy",
        ","
      ],
      [
        "wn",
        "a"
      ],
      [
        "▁am",
        "en"
      ],
      [
        "▁ñ",
        "aa"
      ],
      [
        "▁ñ",
        "i'"
      ],
      [
        "▁ch",
        "u'u"
      ],
      [
        "▁ch",
        "urch"
      ],
      [
        "▁lo",
        "c"
      ],
      [
        "▁lo",
        "kkë"
      ],
      [
        "▁lo",
        "bë"
      ],
      [
        "▁lo",
        "dü"
      ],
      [
        "▁lo",
        "ugwa"
      ],
      [
        "ya",
        "jk"
      ],
      [
        "u̶'",
        "u̶d"
      ],
      [
        "u̶'",
        "ky"
      ],
      [
        "▁do",
        "w"
      ],
      [
        "▁do",
        "wn"
      ],
      [
        "▁M",
        "c"
      ],
      [
        "▁M",
        "an"
      ],
      [
        "▁M",
        "al"
      ],
      [
        "▁M",
        "em"
      ],
      [
        "▁M",
        "ois"
      ],
      [
        "▁M",
        "arí"
      ],
      [
        "▁M",
        "ataŋ"
      ],
      [
        "▁ne",
        "ver"
      ],
      [
        "▁ge",
        "i"
      ],
      [
        "▁u",
        "ŕ"
      ],
      [
        "▁ku",
        "b"
      ],
      [
        "▁ku",
        "ci"
      ],
      [
        "▁ku",
        "du̶gu̶u̶g"
      ],
      [
        "▁ku",
        "von"
      ],
      [
        "ang",
        "am"
      ],
      [
        "▁B",
        "ible"
      ],
      [
        "▁B",
        "ega"
      ],
      [
        "id",
        "o"
      ],
      [
        "▁y'",
        "ag"
      ],
      [
        "▁y'",
        "ij"
      ],
      [
        "▁y'",
        "adz"
      ],
      [
        "▁y'",
        "ooygyu̶xy"
      ],
      [
        "▁h",
        "our"
      ],
      [
        "▁h",
        "ail"
      ],
      [
        "▁h",
        "agwn"
      ],
      [
        "▁of",
        "f"
      ],
      [
        "▁bë",
        ","
      ],
      [
        "▁E",
        "m"
      ],
      [
        "▁E",
        "ly"
      ],
      [
        "▁E",
        "ma"
      ],
      [
        "▁E",
        "leya"
      ],
      [
        "▁ag",
        "op"
      ],
      [
        "u̶u̶y",
        "g"
      ],
      [
        "ro",
        "h"
      ],
      [
        "ro",
        "ugh"
      ],
      [
        "▁G",
        "ad"
      ],
      [
        "▁G",
        "oogle"
      ],
      [
        "▁nir",
        "di"
      ],
      [
        "ti",
        "c"
      ],
      [
        "▁L",
        "o"
      ],
      [
        "▁L",
        "yaꞋi"
      ],
      [
        "▁L",
        "abra"
      ],
      [
        "▁“",
        "A"
      ],
      [
        "▁“",
        "Mari"
      ],
      [
        "▁“",
        "Naŕinah"
      ],
      [
        "▁mu̶d",
        "nu̶kxy"
      ],
      [
        "aa",
        "ñ"
      ],
      [
        "kx",
        "u̶j"
      ],
      [
        "up",
        "ü"
      ],
      [
        "akar",
        "o"
      ],
      [
        "pa",
        "atku̶xy"
      ],
      [
        "▁R",
        "oɓ"
      ],
      [
        "▁R",
        "adio"
      ],
      [
        "pu̶",
        ","
      ],
      [
        "▁5",
        "1"
      ],
      [
        "▁v",
        "ɛ̃"
      ],
      [
        "▁v",
        "ict"
      ],
      [
        "▁myu̶",
        "do"
      ],
      [
        "▁myu̶",
        "k'ajt"
      ],
      [
        "▁du",
        "ul"
      ],
      [
        "▁du",
        "unë"
      ],
      [
        "▁du",
        "essi"
      ],
      [
        "aay",
        "gyu̶xnu̶"
      ],
      [
        "▁4",
        "1"
      ],
      [
        "▁4",
        "4"
      ],
      [
        "▁4",
        "7"
      ],
      [
        "▁4",
        "8"
      ],
      [
        "▁yaj",
        "'o"
      ],
      [
        "▁yaj",
        "ju̶w"
      ],
      [
        "▁yaj",
        "mu̶dmu̶dyaak"
      ],
      [
        "▁yaj",
        "nú̶kx"
      ],
      [
        "aka",
        "itep"
      ],
      [
        "▁gë",
        "to"
      ],
      [
        "▁gë",
        "lo"
      ],
      [
        ":\n",
        "https://"
      ],
      [
        "ap",
        "ani"
      ],
      [
        "▁3",
        "2"
      ],
      [
        "▁3",
        "4"
      ],
      [
        "▁3",
        "8"
      ],
      [
        "ku",
        "jk"
      ],
      [
        "▁H",
        "ow"
      ],
      [
        "▁rì",
        "fò"
      ],
      [
        "▁rì",
        "kɛ̀n"
      ],
      [
        "ep",
        "h"
      ],
      [
        "u̶g",
        "u'ug"
      ],
      [
        "u̶g",
        "u̶u̶ygyu̶xy"
      ],
      [
        "▁ad",
        "ugu̶u̶y"
      ],
      [
        "▁men",
        "r"
      ],
      [
        "▁men",
        "tom"
      ],
      [
        "▁th",
        "rough"
      ],
      [
        "▁wi",
        "ll"
      ],
      [
        "▁he",
        "ar"
      ],
      [
        "▁he",
        "aded"
      ],
      [
        "▁as",
        "e,"
      ],
      [
        "▁as",
        "dig."
      ],
      [
        "▁tz",
        "on"
      ],
      [
        "▁tz",
        "ajk"
      ],
      [
        "▁jy",
        "anch"
      ],
      [
        "▁20",
        ".1"
      ],
      [
        "av",
        "el"
      ],
      [
        "ni",
        "ɛ"
      ],
      [
        "ú̶",
        "n"
      ],
      [
        "▁a̱",
        "ɗa̱"
      ],
      [
        "▁ts",
        "akha"
      ],
      [
        "▁kawa",
        ","
      ],
      [
        "▁kawa",
        "."
      ],
      [
        "ba",
        "fwr"
      ],
      [
        "▁di",
        "ar"
      ],
      [
        "▁di",
        "an."
      ],
      [
        "▁di",
        "akri"
      ],
      [
        "▁Is",
        "ag"
      ],
      [
        "st",
        "agr"
      ],
      [
        "st",
        "ore"
      ],
      [
        "ɔ̀",
        "ŋ"
      ],
      [
        "▁O",
        "ɓɛɛ"
      ],
      [
        "▁en",
        "oug"
      ],
      [
        "▁ni",
        "e"
      ],
      [
        "▁ni",
        "e."
      ],
      [
        "▁ke",
        "ep"
      ],
      [
        "▁bu",
        "iè"
      ],
      [
        "▁bu",
        "upü"
      ],
      [
        "▁ɗa̱",
        "."
      ],
      [
        "ei",
        "ŕ"
      ],
      [
        "▁ka̱",
        "ci"
      ],
      [
        "ani",
        "-g"
      ],
      [
        "▁st",
        "r"
      ],
      [
        ".\n1",
        "2"
      ],
      [
        "▁P",
        "e"
      ],
      [
        "▁W",
        "e"
      ],
      [
        "▁W",
        "i"
      ],
      [
        "▁W",
        "indz"
      ],
      [
        "▁ë",
        "gë"
      ],
      [
        "▁hi",
        "pun"
      ],
      [
        "u̶j",
        "p"
      ],
      [
        "▁mo",
        "u"
      ],
      [
        "▁mo",
        "to"
      ],
      [
        "▁moo",
        "y"
      ],
      [
        "▁dim",
        "lam"
      ],
      [
        "▁gad",
        "ë"
      ],
      [
        "adz",
        "aka"
      ],
      [
        "dz",
        "am"
      ],
      [
        "ion",
        "s"
      ],
      [
        "pp",
        "ly"
      ],
      [
        "tt",
        "aak"
      ],
      [
        "tt",
        "aaygyu̶xnu̶"
      ],
      [
        "yo",
        "atam"
      ],
      [
        "▁e",
        "ff"
      ],
      [
        "▁mor",
        "an."
      ],
      [
        "▁mor",
        "weg"
      ],
      [
        "ann",
        "ai"
      ],
      [
        "▁go",
        "g"
      ],
      [
        "▁Ka̱",
        "ta̱"
      ],
      [
        "byu̶",
        ","
      ],
      [
        "eri",
        "ous"
      ],
      [
        "▁ì",
        "nɛ"
      ],
      [
        "▁ì",
        "tè"
      ],
      [
        "▁us",
        "ed"
      ],
      [
        "▁us",
        "ih"
      ],
      [
        "▁nam",
        "m"
      ],
      [
        "▁nim",
        "ajk"
      ],
      [
        "▁nim",
        "u̶dyaakku̶xy"
      ],
      [
        "▁ky",
        "un"
      ],
      [
        "▁ky",
        "áp"
      ],
      [
        "▁ky",
        "u̶xpu̶"
      ],
      [
        "▁kì",
        "l"
      ],
      [
        "▁mem",
        "eg"
      ],
      [
        "▁des",
        "sa"
      ],
      [
        "▁des",
        "tro"
      ],
      [
        "ake",
        "et"
      ],
      [
        "▁bin",
        "lag"
      ],
      [
        "▁pa",
        "ala"
      ],
      [
        "▁ij",
        "xku̶xy"
      ],
      [
        "▁ij",
        "ty"
      ],
      [
        "▁is",
        "m"
      ],
      [
        "▁mari",
        "eg."
      ],
      [
        "▁ñay",
        "byu̶d"
      ],
      [
        "▁buli",
        "ew"
      ],
      [
        "▁le",
        "g"
      ],
      [
        "▁al",
        "angar"
      ],
      [
        "▁al",
        "so"
      ],
      [
        "▁ar",
        "eg"
      ],
      [
        "▁te",
        "ɗ"
      ],
      [
        "▁te",
        "xt"
      ],
      [
        "▁das",
        "i"
      ],
      [
        "▁jut",
        "jooty"
      ],
      [
        "▁ol",
        "d"
      ],
      [
        "▁ya",
        "jk"
      ],
      [
        "▁pro",
        "fet"
      ],
      [
        "▁pro",
        "gram"
      ],
      [
        "tu̶g",
        "u̶u̶y"
      ],
      [
        "tu̶g",
        "u̶u̶yu̶"
      ],
      [
        "▁uŕi",
        "rig."
      ],
      [
        "▁gadd",
        "ëm"
      ],
      [
        "▁Jerus",
        "ale"
      ],
      [
        "ja'ay",
        "u̶chu̶ñ"
      ],
      [
        "nig",
        ",”"
      ],
      [
        "vi",
        "ki"
      ],
      [
        "ëk",
        "en"
      ],
      [
        "▁F",
        "arɛs"
      ],
      [
        "▁Z",
        "yor"
      ],
      [
        "▁Z",
        "yoatam"
      ],
      [
        "▁ut",
        "eku"
      ],
      [
        "▁all",
        "-f"
      ],
      [
        "▁may",
        "jya'ay"
      ],
      [
        "▁ta",
        "un"
      ],
      [
        "▁we",
        "ek"
      ],
      [
        "▁we",
        "emakawa"
      ],
      [
        "▁waw",
        "akeet"
      ],
      [
        "yud",
        "a"
      ],
      [
        "▁xu̶u̶",
        "'ajt"
      ],
      [
        "▁daré",
        "."
      ],
      [
        "▁daré",
        "w"
      ],
      [
        "..",
        "."
      ],
      [
        "gu",
        "é̱"
      ],
      [
        "uq",
        "or"
      ],
      [
        "▁u̶x",
        "tu̶"
      ],
      [
        "▁kp",
        "a̱ɗa̱"
      ],
      [
        "▁kpa",
        "aghà"
      ],
      [
        "▁mu̶",
        "bu̶jk"
      ],
      [
        "▁mew",
        "eg"
      ],
      [
        "▁bérig",
        ".”"
      ],
      [
        "▁bérig",
        "?”"
      ],
      [
        "▁gb",
        "ani-g"
      ],
      [
        "▁gi",
        "v"
      ],
      [
        "▁gi",
        "ɓ"
      ],
      [
        "▁gun",
        "nah"
      ],
      [
        "▁gum",
        "ar"
      ],
      [
        "▁gum",
        "urko"
      ],
      [
        "▁se",
        "e"
      ],
      [
        "▁light",
        "."
      ],
      [
        "ugy",
        "pyu̶"
      ],
      [
        "▁faŕ",
        "wen"
      ],
      [
        "▁Na",
        "asɔn"
      ],
      [
        "▁Am",
        "ɔn"
      ],
      [
        "▁Am",
        "inad"
      ],
      [
        "▁cl",
        "ass"
      ],
      [
        "▁So",
        "wa"
      ],
      [
        "▁ñak",
        "y"
      ],
      [
        "▁xy",
        "jy"
      ],
      [
        "▁stor",
        "y"
      ],
      [
        "▁Jerusalén",
        ","
      ],
      [
        "▁nwngthangmwn",
        "kou"
      ],
      [
        "a'añ",
        "u̶ñ."
      ],
      [
        "▁dugi",
        "ah"
      ],
      [
        "▁dugi",
        "angar"
      ],
      [
        "▁Davit",
        ","
      ],
      [
        "?\n",
        "Chi"
      ],
      [
        "aag",
        "y"
      ],
      [
        "br",
        "el"
      ],
      [
        "tɛ̀",
        "ɛ̀n"
      ],
      [
        "▁z",
        "ɔ"
      ],
      [
        "▁un",
        "uqor"
      ],
      [
        "▁aj",
        "ji"
      ],
      [
        "▁kalam",
        "nw"
      ],
      [
        "▁tyu̶",
        "g"
      ],
      [
        "▁doo",
        "la"
      ],
      [
        "▁doo",
        "bë"
      ],
      [
        "▁pe",
        "elë"
      ],
      [
        "▁it",
        "em"
      ],
      [
        "▁re",
        "al"
      ],
      [
        "▁re",
        "fer"
      ],
      [
        ".\n2",
        "2"
      ],
      [
        "▁Yo",
        "u"
      ],
      [
        "▁chen",
        "në"
      ],
      [
        "▁wal",
        "hio"
      ],
      [
        "▁Sal",
        "aty"
      ],
      [
        ".”\n",
        "The"
      ],
      [
        "▁wyimbij",
        "ttaaygyu̶xnu̶"
      ],
      [
        "▁report",
        "s"
      ],
      [
        "▁ñayyajni'igu̶xu̶'",
        "ku̶"
      ],
      [
        "\nR",
        "ated"
      ],
      [
        "Video",
        "\n#"
      ],
      [
        "day",
        ","
      ],
      [
        "ju̶w",
        "u̶u̶yu̶"
      ],
      [
        "▁(",
        "A"
      ],
      [
        "▁(",
        "N"
      ],
      [
        "▁Ɛ",
        "sir"
      ],
      [
        "▁nek",
        "e"
      ],
      [
        "▁nek",
        "ei"
      ],
      [
        "▁tr",
        "ans"
      ],
      [
        "▁tr",
        "avel"
      ],
      [
        "▁tu'",
        "k"
      ],
      [
        "▁tu'",
        "u'aam"
      ],
      [
        "▁jwng",
        "ni"
      ],
      [
        "▁bo",
        "ard"
      ],
      [
        "▁li",
        "ke"
      ],
      [
        "▁lam",
        "poh"
      ],
      [
        "yu̶ch",
        "."
      ],
      [
        "▁iako",
        "tti"
      ],
      [
        "▁Ten",
        "n."
      ],
      [
        "▁Ten",
        "nes"
      ],
      [
        ".\nJ",
        "esús"
      ],
      [
        "▁Ak",
        "im"
      ],
      [
        "▁Aɓ",
        "ya"
      ],
      [
        "▁Aɓ",
        "yud"
      ],
      [
        "▁28",
        ".1"
      ],
      [
        "▁can",
        "dle"
      ],
      [
        "u̶'u̶m",
        "gu̶x"
      ],
      [
        "▁Ge",
        "orgi"
      ],
      [
        "▁Ge",
        "brel"
      ],
      [
        "▁myu̶d",
        "yaakku̶xy"
      ],
      [
        "▁myu̶n",
        "aañ"
      ],
      [
        "▁jyadyii",
        "."
      ],
      [
        "▁eweg",
        "wa"
      ],
      [
        "▁kataŕ",
        "."
      ],
      [
        "▁digum",
        "akwa"
      ],
      [
        "▁clos",
        "est"
      ],
      [
        "\n(M",
        "c"
      ],
      [
        "\n(M",
        "t"
      ],
      [
        "#1:",
        "5"
      ],
      [
        "▁fuŕuh",
        "."
      ],
      [
        "\nF",
        "or"
      ],
      [
        ".com",
        "/"
      ],
      [
        "Rì",
        "yalɛ̀n"
      ],
      [
        "af",
        "at"
      ],
      [
        "ber",
        "t"
      ],
      [
        "cr",
        "uut"
      ],
      [
        "ej",
        "w"
      ],
      [
        "eed",
        "zal"
      ],
      [
        "gen",
        "i"
      ],
      [
        "juu",
        "ñ"
      ],
      [
        "tu'ug",
        "pu̶"
      ],
      [
        "ño",
        "a"
      ],
      [
        "▁ed",
        "itor"
      ],
      [
        "▁uk",
        "si"
      ],
      [
        "▁nm",
        "u̶gu'ug"
      ],
      [
        "▁kanakai",
        "peri"
      ],
      [
        "▁kéhnig",
        "rigri"
      ],
      [
        "▁më",
        "ëken"
      ],
      [
        "▁min",
        "ih"
      ],
      [
        "▁mir",
        "an,"
      ],
      [
        "▁ty",
        "u'ubu̶jk"
      ],
      [
        "▁day",
        ","
      ],
      [
        "▁je",
        "blai"
      ],
      [
        "▁jab",
        "oom"
      ],
      [
        "▁om",
        "lar"
      ],
      [
        "▁yajt",
        "u̶u̶wu̶"
      ],
      [
        "▁wɔ",
        "l"
      ],
      [
        "▁pl",
        "ans"
      ],
      [
        "yu̶u̶y",
        "gyu̶xy"
      ],
      [
        "▁anuq",
        "ko"
      ],
      [
        "▁fag",
        "qan."
      ],
      [
        "▁flick",
        "ering"
      ],
      [
        "▁Ng",
        "hay"
      ],
      [
        "▁Né",
        "\n"
      ],
      [
        "▁Yos",
        "afat"
      ],
      [
        "▁intervi",
        "ews"
      ],
      [
        "▁Do",
        "en"
      ],
      [
        "▁y'o'o",
        "g"
      ],
      [
        "▁hũ",
        "n"
      ],
      [
        "▁hay",
        "w"
      ],
      [
        "▁Gali",
        "li"
      ],
      [
        "▁Cle",
        "of"
      ],
      [
        "▁Ro",
        "bert"
      ],
      [
        "▁Order",
        ","
      ],
      [
        "▁keh",
        "nar"
      ],
      [
        "▁Play",
        "store"
      ],
      [
        "winm",
        "a'añ"
      ],
      [
        "▁wawtu",
        "ŕko"
      ],
      [
        "▁jyuugypyú̶",
        "ky"
      ],
      [
        "▁wyimbijt",
        "ku̶xnu̶"
      ],
      [
        "▁koutor",
        "."
      ],
      [
        "▁exp",
        "la"
      ],
      [
        "▁journal",
        "ist"
      ],
      [
        "▁yiniǹ",
        ";"
      ],
      [
        "▁Karannah",
        "ri"
      ],
      [
        ".or",
        "g"
      ],
      [
        "@e",
        "xam"
      ],
      [
        "Ge",
        "isah"
      ],
      [
        "Gë",
        "rëp"
      ],
      [
        "ait",
        "akaro"
      ],
      [
        "ace",
        "book"
      ],
      [
        "fil",
        "us,"
      ],
      [
        "lin",
        "e"
      ],
      [
        "né",
        "wa"
      ],
      [
        "uɗ",
        "a"
      ],
      [
        "wu̶d",
        "ajt"
      ],
      [
        "zek",
        "yas"
      ],
      [
        "zɔɔ",
        "r"
      ],
      [
        "▁um",
        "a"
      ],
      [
        "▁ul",
        "ing"
      ],
      [
        "▁aan",
        "u̶mu̶"
      ],
      [
        "▁ayu",
        "uk"
      ],
      [
        "▁aŕi",
        "é"
      ],
      [
        "▁kwn",
        "asong"
      ],
      [
        "▁kyu",
        "ja'ayu̶chu̶ñ"
      ],
      [
        "▁kú̶",
        "xyu̶"
      ],
      [
        "▁kook",
        "ü"
      ],
      [
        "▁kyu̶'",
        "u̶"
      ],
      [
        "▁mag",
        "un"
      ],
      [
        "▁mut",
        "zk"
      ],
      [
        "▁mén",
        "ig."
      ],
      [
        "▁mwj",
        "ang"
      ],
      [
        "▁tum",
        "ɛ̀n"
      ],
      [
        "▁dyi",
        "scípulotu̶jk"
      ],
      [
        "▁dir",
        "ect"
      ],
      [
        "▁dook",
        "ula"
      ],
      [
        "▁jay",
        "u̶jp"
      ],
      [
        "▁jopy",
        "ñu̶"
      ],
      [
        "▁o'o",
        "wu̶dajt"
      ],
      [
        "▁yon",
        "go"
      ],
      [
        "▁bure",
        "au."
      ],
      [
        "▁gon",
        "në"
      ],
      [
        "▁sup",
        "port"
      ],
      [
        "▁sec",
        "ond"
      ],
      [
        "▁phi",
        "ome"
      ],
      [
        "oroɓ",
        "aɓ"
      ],
      [
        "eserved",
        "."
      ],
      [
        "▁Tio",
        "filus,"
      ],
      [
        "▁fɛl",
        "ɛ:"
      ],
      [
        "▁rec",
        "ommend"
      ],
      [
        "imymyu̶'",
        "ityu̶"
      ],
      [
        "▁kokp",
        "o"
      ],
      [
        "▁Jos",
        "eph"
      ],
      [
        "▁Jud",
        "ah"
      ],
      [
        "▁Najar",
        "ath"
      ],
      [
        "▁ɓɛ̀",
        "geni"
      ],
      [
        "▁Yek",
        "onyas"
      ],
      [
        "▁Ame",
        "ric"
      ],
      [
        "▁Ayin",
        "viki"
      ],
      [
        "▁Abr",
        "aham"
      ],
      [
        "▁Kitɛn",
        "tɛ̀ɛ̀n"
      ],
      [
        "▁càà",
        "mɛ̀n"
      ],
      [
        "▁watt",
        "aitakaro"
      ],
      [
        "▁ɗaɗ",
        "a"
      ],
      [
        "▁Sup",
        "er"
      ],
      [
        "▁Sub",
        "scribe"
      ],
      [
        "▁Saɗ",
        "ɔ"
      ],
      [
        "▁ñaa",
        "x"
      ],
      [
        "▁ñi'",
        "kx"
      ],
      [
        "▁Mem",
        "nakri"
      ],
      [
        "▁Mois",
        "és"
      ],
      [
        "▁kuci",
        "ya̱"
      ],
      [
        "▁hour",
        "s"
      ],
      [
        "▁Ely",
        "akim"
      ],
      [
        "▁Ema",
        "ús"
      ],
      [
        "▁Eleya",
        "za"
      ],
      [
        "▁“Mari",
        "a,"
      ],
      [
        "kxu̶j",
        "py"
      ],
      [
        "▁Roɓ",
        "wa"
      ],
      [
        "▁vɛ̃",
        "h"
      ],
      [
        "▁vict",
        "ims"
      ],
      [
        "▁myu̶do",
        "'oxyu̶jktu̶jk"
      ],
      [
        "akaitep",
        "e"
      ],
      [
        "▁rìfò",
        "m"
      ],
      [
        "▁tzajk",
        "aagy"
      ],
      [
        "stagr",
        "am"
      ],
      [
        "▁Oɓɛɛ",
        "ɗ"
      ],
      [
        "▁enoug",
        "h"
      ],
      [
        "▁buiè",
        "lén"
      ],
      [
        "▁Windz",
        "ú̶n"
      ],
      [
        "▁hipun",
        "in"
      ],
      [
        "▁ìtè",
        "ɗ"
      ],
      [
        "▁nimajk",
        "tu'ugpu̶"
      ],
      [
        "▁kyáp",
        "xku̶xy"
      ],
      [
        "▁destro",
        "yed"
      ],
      [
        "▁ñaybyu̶d",
        "aaku̶"
      ],
      [
        "▁Jerusale",
        "m"
      ],
      [
        "▁Zyor",
        "am"
      ],
      [
        "▁all-f",
        "ormats"
      ],
      [
        "▁xu̶u̶'ajt",
        "pu̶ñ"
      ],
      [
        "▁gbani-g",
        "bani"
      ],
      [
        "▁faŕwen",
        "."
      ],
      [
        "▁Aminad",
        "aɓ"
      ],
      [
        "Video\n#",
        "Bodo"
      ],
      [
        "▁Tennes",
        "se"
      ],
      [
        "▁Georgi",
        "a"
      ],
      [
        "cruut",
        "zp"
      ],
      [
        "eedzal",
        "hewa"
      ],
      [
        "▁nmu̶gu'ug",
        "tu̶jk"
      ],
      [
        "▁tyu'ubu̶jk",
        "y"
      ],
      [
        "▁jeblai",
        "bw"
      ],
      [
        "▁omlar",
        "ew"
      ],
      [
        "@exam",
        "ple"
      ]
    ]
  }
}